{
  "version": "1.0",
  "truncation": null,
  "padding": null,
  "added_tokens": [
    {
      "id": 0,
      "content": "[UNK]",
      "single_word": false,
      "lstrip": false,
      "rstrip": false,
      "normalized": false,
      "special": true
    }
  ],
  "normalizer": {
    "type": "NFKC"
  },
  "pre_tokenizer": {
    "type": "Metaspace",
    "replacement": "▁",
    "prepend_scheme": "never",
    "split": true
  },
  "post_processor": null,
  "decoder": {
    "type": "Metaspace",
    "replacement": "▁",
    "prepend_scheme": "never",
    "split": true
  },
  "model": {
    "type": "BPE",
    "dropout": null,
    "unk_token": "[UNK]",
    "continuing_subword_prefix": null,
    "end_of_word_suffix": null,
    "fuse_unk": false,
    "byte_fallback": false,
    "ignore_merges": false,
    "vocab": {
      "[UNK]": 0,
      "\n": 1,
      "\r": 2,
      "!": 3,
      "\"": 4,
      "#": 5,
      "$": 6,
      "%": 7,
      "&": 8,
      "'": 9,
      "(": 10,
      ")": 11,
      "*": 12,
      "+": 13,
      ",": 14,
      "-": 15,
      ".": 16,
      "/": 17,
      "0": 18,
      "1": 19,
      "2": 20,
      "3": 21,
      "4": 22,
      "5": 23,
      "6": 24,
      "7": 25,
      "8": 26,
      "9": 27,
      ":": 28,
      ";": 29,
      "<": 30,
      "=": 31,
      ">": 32,
      "?": 33,
      "A": 34,
      "B": 35,
      "C": 36,
      "D": 37,
      "E": 38,
      "F": 39,
      "G": 40,
      "H": 41,
      "I": 42,
      "J": 43,
      "K": 44,
      "L": 45,
      "M": 46,
      "N": 47,
      "O": 48,
      "P": 49,
      "Q": 50,
      "R": 51,
      "S": 52,
      "T": 53,
      "U": 54,
      "V": 55,
      "W": 56,
      "X": 57,
      "Y": 58,
      "Z": 59,
      "[": 60,
      "\\": 61,
      "]": 62,
      "^": 63,
      "_": 64,
      "`": 65,
      "a": 66,
      "b": 67,
      "c": 68,
      "d": 69,
      "e": 70,
      "f": 71,
      "g": 72,
      "h": 73,
      "i": 74,
      "j": 75,
      "k": 76,
      "l": 77,
      "m": 78,
      "n": 79,
      "o": 80,
      "p": 81,
      "q": 82,
      "r": 83,
      "s": 84,
      "t": 85,
      "u": 86,
      "v": 87,
      "w": 88,
      "x": 89,
      "y": 90,
      "z": 91,
      "{": 92,
      "|": 93,
      "}": 94,
      "~": 95,
      "°": 96,
      "·": 97,
      "Ö": 98,
      "á": 99,
      "â": 100,
      "æ": 101,
      "ç": 102,
      "è": 103,
      "é": 104,
      "í": 105,
      "ñ": 106,
      "ö": 107,
      "ü": 108,
      "ā": 109,
      "ī": 110,
      "İ": 111,
      "Ś": 112,
      "ś": 113,
      "ū": 114,
      "ș": 115,
      "ə": 116,
      "ɦ": 117,
      "ɪ": 118,
      "ɾ": 119,
      "ʊ": 120,
      "ʼ": 121,
      "ˈ": 122,
      "ː": 123,
      "ί": 124,
      "α": 125,
      "δ": 126,
      "θ": 127,
      "ν": 128,
      "π": 129,
      "ς": 130,
      "ό": 131,
      "ँ": 132,
      "ं": 133,
      "ः": 134,
      "अ": 135,
      "आ": 136,
      "इ": 137,
      "ई": 138,
      "उ": 139,
      "ऊ": 140,
      "ऋ": 141,
      "ऍ": 142,
      "ए": 143,
      "ऐ": 144,
      "ऑ": 145,
      "ओ": 146,
      "औ": 147,
      "क": 148,
      "ख": 149,
      "ग": 150,
      "घ": 151,
      "ङ": 152,
      "च": 153,
      "छ": 154,
      "ज": 155,
      "झ": 156,
      "ञ": 157,
      "ट": 158,
      "ठ": 159,
      "ड": 160,
      "ढ": 161,
      "ण": 162,
      "त": 163,
      "थ": 164,
      "द": 165,
      "ध": 166,
      "न": 167,
      "प": 168,
      "फ": 169,
      "ब": 170,
      "भ": 171,
      "म": 172,
      "य": 173,
      "र": 174,
      "ऱ": 175,
      "ल": 176,
      "ळ": 177,
      "व": 178,
      "श": 179,
      "ष": 180,
      "स": 181,
      "ह": 182,
      "़": 183,
      "ा": 184,
      "ि": 185,
      "ी": 186,
      "ु": 187,
      "ू": 188,
      "ृ": 189,
      "ॅ": 190,
      "े": 191,
      "ै": 192,
      "ॉ": 193,
      "ॊ": 194,
      "ो": 195,
      "ौ": 196,
      "्": 197,
      "ॠ": 198,
      "।": 199,
      "०": 200,
      "१": 201,
      "२": 202,
      "३": 203,
      "४": 204,
      "५": 205,
      "६": 206,
      "७": 207,
      "८": 208,
      "९": 209,
      "॰": 210,
      "ॲ": 211,
      "ం": 212,
      "ః": 213,
      "అ": 214,
      "ఆ": 215,
      "ఇ": 216,
      "ఈ": 217,
      "ఉ": 218,
      "ఋ": 219,
      "ఎ": 220,
      "ఏ": 221,
      "ఐ": 222,
      "ఒ": 223,
      "ఓ": 224,
      "ఔ": 225,
      "క": 226,
      "ఖ": 227,
      "గ": 228,
      "ఘ": 229,
      "చ": 230,
      "ఛ": 231,
      "జ": 232,
      "ఞ": 233,
      "ట": 234,
      "ఠ": 235,
      "డ": 236,
      "ఢ": 237,
      "ణ": 238,
      "త": 239,
      "థ": 240,
      "ద": 241,
      "ధ": 242,
      "న": 243,
      "ప": 244,
      "ఫ": 245,
      "బ": 246,
      "భ": 247,
      "మ": 248,
      "య": 249,
      "ర": 250,
      "ల": 251,
      "ళ": 252,
      "వ": 253,
      "శ": 254,
      "ష": 255,
      "స": 256,
      "హ": 257,
      "ా": 258,
      "ి": 259,
      "ీ": 260,
      "ు": 261,
      "ూ": 262,
      "ృ": 263,
      "ె": 264,
      "ే": 265,
      "ై": 266,
      "ొ": 267,
      "ో": 268,
      "ౌ": 269,
      "్": 270,
      "ṅ": 271,
      "ṇ": 272,
      "Ṛ": 273,
      "ṣ": 274,
      "ṭ": 275,
      "Ἰ": 276,
      "‌": 277,
      "‍": 278,
      "‎": 279,
      "–": 280,
      "—": 281,
      "‘": 282,
      "’": 283,
      "“": 284,
      "”": 285,
      "†": 286,
      "•": 287,
      "′": 288,
      "‹": 289,
      "›": 290,
      "⁡": 291,
      "₹": 292,
      "↑": 293,
      "−": 294,
      "▁": 295,
      "▲": 296,
      "﻿": 297,
      "wi": 298,
      "ki": 299,
      "wiki": 300,
      "ia": 301,
      "dia": 302,
      "or": 303,
      "tt": 304,
      "](": 305,
      ":/": 306,
      "htt": 307,
      "http": 308,
      "://": 309,
      "pe": 310,
      "https": 311,
      "https://": 312,
      "](https://": 313,
      "g/": 314,
      ".or": 315,
      ".org/": 316,
      "pedia": 317,
      ".wiki": 318,
      ".org/wiki": 319,
      ".org/wiki/": 320,
      ".wikipedia": 321,
      ".wikipedia.org/wiki/": 322,
      "▁[": 323,
      "en": 324,
      "te": 325,
      "▁\"": 326,
      "\")": 327,
      "in": 328,
      "an": 329,
      "on": 330,
      "In": 331,
      "th": 332,
      "](https://en": 333,
      "](https://en.wikipedia.org/wiki/": 334,
      "ti": 335,
      "hi": 336,
      "India": 337,
      "er": 338,
      "ar": 339,
      "20": 340,
      "\r\n": 341,
      "ार": 342,
      "al": 343,
      "es": 344,
      "्र": 345,
      "▁क": 346,
      "](https://hi": 347,
      "](https://hi.wikipedia.org/wiki/": 348,
      "re": 349,
      "▁|": 350,
      "of": 351,
      "भार": 352,
      "भारत": 353,
      "is": 354,
      "ci": 355,
      "the": 356,
      "tion": 357,
      "▁स": 358,
      "and": 359,
      "om": 360,
      "्य": 361,
      "ed": 362,
      "te_": 363,
      "▁-": 364,
      "#ci": 365,
      "#cite_": 366,
      "▁of": 367,
      "▁the": 368,
      "▁(": 369,
      "it": 370,
      "as": 371,
      "ou": 372,
      "](https://en.wikipedia.org/wiki/India": 373,
      "▁म": 374,
      "201": 375,
      "▁प": 376,
      "ic": 377,
      "▁India": 378,
      "रा": 379,
      "le": 380,
      "19": 381,
      "OT": 382,
      "no": 383,
      "oo": 384,
      "▁in": 385,
      "్ర": 386,
      "id": 387,
      "ra": 388,
      "](https://te": 389,
      "](https://te.wikipedia.org/wiki/": 390,
      "ान": 391,
      "ent": 392,
      "र्": 393,
      "▁s": 394,
      "](https://en.wikipedia.org/wiki/India#cite_": 395,
      "200": 396,
      "-0": 397,
      "**": 398,
      "▁p": 399,
      "▁and": 400,
      "ate": 401,
      "et": 402,
      "ri": 403,
      "▁ह": 404,
      "-1": 405,
      "ార": 406,
      "ing": 407,
      "ें": 408,
      "am": 409,
      "्त": 410,
      "▁c": 411,
      "ation": 412,
      "us": 413,
      "ref": 414,
      "at": 415,
      "▁C": 416,
      "▁A": 417,
      "▁के": 418,
      "ag": 419,
      "note": 420,
      "या": 421,
      "](https://hi.wikipedia.org/wiki/भारत": 422,
      ").": 423,
      "▁S": 424,
      "[[": 425,
      "ac": 426,
      "ook": 427,
      "\\_": 428,
      "ref-": 429,
      "note-": 430,
      "▁f": 431,
      "िक": 432,
      "ang": 433,
      "ad": 434,
      "▁t": 435,
      "ve": 436,
      "78": 437,
      "▁अ": 438,
      "li": 439,
      "▁b": 440,
      "ीय": 441,
      "lo": 442,
      "ur": 443,
      "▁व": 444,
      "um": 445,
      "▁m": 446,
      "ాల": 447,
      "▁P": 448,
      "ाल": 449,
      "\"),": 450,
      "ver": 451,
      "ist": 452,
      "IS": 453,
      "com": 454,
      "we": 455,
      "ch": 456,
      "▁1": 457,
      "ul": 458,
      "▁में": 459,
      ".\r\n": 460,
      "FO": 461,
      "NOT": 462,
      "OTNOT": 463,
      "FOOTNOT": 464,
      "FOOTNOTE": 465,
      "of_": 466,
      "ww": 467,
      "్య": 468,
      "he": 469,
      "▁[↑": 470,
      "ना": 471,
      "978": 472,
      "_of_": 473,
      "BN": 474,
      "ISBN": 475,
      "ial": 476,
      "▁ज": 477,
      "il": 478,
      "्ष": 479,
      "st": 480,
      "ro": 481,
      "ेश": 482,
      "ce": 483,
      "▁द": 484,
      "భార": 485,
      "భారత": 486,
      "un": 487,
      "దే": 488,
      "ों": 489,
      "ory": 490,
      "▁201": 491,
      "त्र": 492,
      "fi": 493,
      "దేశ": 494,
      "స్": 495,
      "▁w": 496,
      "िया": 497,
      "ter": 498,
      "]](https://en.wikipedia.org/wiki/India#cite_": 499,
      "▁d": 500,
      "enti": 501,
      "राज": 502,
      "Sou": 503,
      "▁प्र": 504,
      "21": 505,
      "ons": 506,
      "mr": 507,
      "](https://en.wikipedia.org/wiki/India#cite_ref-": 508,
      "]](https://en.wikipedia.org/wiki/India#cite_note-": 509,
      "ंग": 510,
      "▁T": 511,
      "▁ప": 512,
      "ol": 513,
      "▁आ": 514,
      "rc": 515,
      "00": 516,
      "lin": 517,
      "▁M": 518,
      "▁भारत": 519,
      "▁R": 520,
      "identi": 521,
      "](https://mr": 522,
      "_क": 523,
      "fier": 524,
      "identifier": 525,
      "](https://mr.wikipedia.org/wiki/": 526,
      "्या": 527,
      "సా": 528,
      "identifier)": 529,
      "ला": 530,
      "tic": 531,
      "▁**": 532,
      "-0)": 533,
      "▁है": 534,
      "्व": 535,
      "▁ब": 536,
      "web": 537,
      "भा": 538,
      "ర్": 539,
      "▁त": 540,
      "न्": 541,
      "](https://hi.wikipedia.org/wiki/भारत#cite_": 542,
      "▁|\r\n": 543,
      "▁न": 544,
      "▁to": 545,
      "em": 546,
      "book": 547,
      "న్": 548,
      "red": 549,
      "),": 550,
      "res": 551,
      "▁B": 552,
      "▁a": 553,
      "age": 554,
      "es/": 555,
      "ment": 556,
      "ni": 557,
      "25": 558,
      "्ट": 559,
      "pg": 560,
      "s.": 561,
      "cial": 562,
      "ig": 563,
      "ता": 564,
      "और": 565,
      "_(": 566,
      "10": 567,
      "23": 568,
      "link": 569,
      "▁का": 570,
      "▁की": 571,
      "IT": 572,
      "ir": 573,
      ".j": 574,
      "=1": 575,
      "▁D": 576,
      "angu": 577,
      "ity": 578,
      "ind": 579,
      "26": 580,
      "▁l": 581,
      "edit": 582,
      "sia": 583,
      "ER": 584,
      "▁से": 585,
      "action": 586,
      "ित": 587,
      "▁India\")": 588,
      "EF": 589,
      ".com": 590,
      "ITER": 591,
      "24": 592,
      "ास": 593,
      "ay": 594,
      "action=": 595,
      ")\r\n": 596,
      "ITEREF": 597,
      "action=edit": 598,
      "_स": 599,
      "&red": 600,
      "?action=edit": 601,
      "link=1": 602,
      "&redlink=1": 603,
      "?action=edit&redlink=1": 604,
      "Spe": 605,
      "▁और": 606,
      "ly": 607,
      "▁[↑](https://en.wikipedia.org/wiki/India#cite_ref-": 608,
      "లు": 609,
      ".com/": 610,
      "ec": 611,
      "▁•": 612,
      "्रे": 613,
      "199": 614,
      "రా": 615,
      "▁*": 616,
      "▁E": 617,
      "क्ष": 618,
      "india": 619,
      "·**": 620,
      "▁**·**": 621,
      "वि": 622,
      "Special": 623,
      "_India": 624,
      "ion": 625,
      "Special:": 626,
      "me": 627,
      "राज्य": 628,
      "ld": 629,
      "28": 630,
      "భారతదేశ": 631,
      "▁\"भारत": 632,
      "िस": 633,
      "ची": 634,
      "षा": 635,
      "#C": 636,
      "go": 637,
      "up": 638,
      ".శ": 639,
      ".శ.": 640,
      "chi": 641,
      "#CITEREF": 642,
      "లో": 643,
      "Uni": 644,
      "cal": 645,
      "\").": 646,
      "ha": 647,
      "_in": 648,
      "▁H": 649,
      "rces/": 650,
      "సా.శ.": 651,
      "ber": 652,
      "ved": 653,
      "Book": 654,
      "978-0": 655,
      "tu": 656,
      "दी": 657,
      "▁e": 658,
      "Sources/": 659,
      "Special:Book": 660,
      "Special:BookSources/": 661,
      "oun": 662,
      "▁G": 663,
      "rom": 664,
      "देश": 665,
      "▁క": 666,
      "978-0-": 667,
      "11": 668,
      "▁N": 669,
      "www": 670,
      "पु": 671,
      "_S": 672,
      "स्": 673,
      "ति": 674,
      "▁200": 675,
      "-3": 676,
      "her": 677,
      "ले": 678,
      "for": 679,
      "త్ర": 680,
      "www.": 681,
      "मा": 682,
      "el": 683,
      "op": 684,
      "ాలు": 685,
      "_A": 686,
      "archi": 687,
      "ry": 688,
      "ष्ट": 689,
      "-4": 690,
      "gory": 691,
      "రి": 692,
      "ategory": 693,
      "री": 694,
      "anguage": 695,
      "క్": 696,
      "mp": 697,
      "भाषा": 698,
      "ategory:": 699,
      "▁ग": 700,
      "ంద": 701,
      "▁on": 702,
      "\")\r\n": 703,
      "vers": 704,
      "ew": 705,
      "calf": 706,
      "50": 707,
      "▁20": 708,
      "ain": 709,
      "ని": 710,
      "▁వ": 711,
      "▁re": 712,
      "etcalf": 713,
      "▁th": 714,
      "ary": 715,
      "ती": 716,
      "ub": 717,
      "al_": 718,
      "archive": 719,
      "▁श": 720,
      "-8": 721,
      "ak": 722,
      "](https://en.wikipedia.org/wiki/India#CITEREF": 723,
      "n_": 724,
      "ab": 725,
      "था": 726,
      "err": 727,
      "22": 728,
      "ast": 729,
      "ge": 730,
      "▁उ": 731,
      "णी": 732,
      ".[[": 733,
      "30": 734,
      "The": 735,
      "वा": 736,
      "▁19": 737,
      "ष्ट्र": 738,
      "est": 739,
      ".in": 740,
      "od": 741,
      "ల్": 742,
      "▁n": 743,
      "భారతదేశం": 744,
      "--": 745,
      ".jpg": 746,
      "con": 747,
      "har": 748,
      "▁or": 749,
      "ress": 750,
      "▁को": 751,
      "http://": 752,
      "_of_India": 753,
      "का": 754,
      "▁F": 755,
      "▁---": 756,
      "18": 757,
      "ted": 758,
      "▁(identifier)": 759,
      "_(identifier)": 760,
      "▁(identifier)\")": 761,
      "29": 762,
      "प्र": 763,
      "ने": 764,
      "archive.org/": 765,
      "▁सं": 766,
      "▁[म": 767,
      "]](https://en.wikipedia.org/wiki/India#cite_note-FOOTNOTE": 768,
      "ct": 769,
      "ంగ": 770,
      "▁[\"": 771,
      "▁from": 772,
      "▁J": 773,
      "▁p.": 774,
      "ap": 775,
      "ली": 776,
      "▁ए": 777,
      "▁స": 778,
      "▁पर": 779,
      "error": 780,
      "]](https://hi.wikipedia.org/wiki/भारत#cite_": 781,
      "Har": 782,
      "सा": 783,
      "orld": 784,
      "▁इ": 785,
      "▁h": 786,
      "Metcalf": 787,
      "▁మ": 788,
      "web.": 789,
      "rit": 790,
      "](https://web.": 791,
      "os": 792,
      "web/": 793,
      "archive.org/web/": 794,
      "](https://web.archive.org/web/": 795,
      "▁for": 796,
      "ep": 797,
      "ud": 798,
      "gh": 799,
      "goo": 800,
      "ust": 801,
      "▁by": 802,
      "▁.": 803,
      "List": 804,
      "ड़": 805,
      "40": 806,
      "gle": 807,
      "్రా": 808,
      "books": 809,
      "im": 810,
      "versity": 811,
      "हि": 812,
      "▁In": 813,
      "AA": 814,
      "27": 815,
      "पा": 816,
      "13": 817,
      "▁है।": 818,
      "id=": 819,
      "15": 820,
      "▁[A": 821,
      "_and": 822,
      "▁\"C": 823,
      "_म": 824,
      "with": 825,
      "ort": 826,
      "▁ar": 827,
      "म्": 828,
      "ీయ": 829,
      "ount": 830,
      "▁[S": 831,
      "चि": 832,
      "त्त": 833,
      "_के": 834,
      "▁g": 835,
      "▁is": 836,
      "ंड": 837,
      "umb": 838,
      "▁वि": 839,
      "google": 840,
      "▁Indian": 841,
      "16": 842,
      "ండ": 843,
      "▁L": 844,
      "978-1": 845,
      "##": 846,
      "सं": 847,
      "ther": 848,
      "ational": 849,
      "िल": 850,
      "▁O": 851,
      "्रेणी": 852,
      "?id=": 853,
      "books.": 854,
      ".com/books": 855,
      "google.com/books": 856,
      "books.google.com/books": 857,
      "▁र": 858,
      "17": 859,
      "श्रेणी": 860,
      "▁[ISBN": 861,
      "books.google.com/books?id=": 862,
      "ेत्र": 863,
      "ens": 864,
      "द्र": 865,
      "स्त": 866,
      "श्रेणी:": 867,
      "s/": 868,
      "▁\"ISBN": 869,
      "▁([": 870,
      "ISBN_(identifier)": 871,
      "र्व": 872,
      "▁./": 873,
      "_in_India": 874,
      "-9": 875,
      "జ్య": 876,
      "▁सा": 877,
      "'s": 878,
      "▁W": 879,
      "14": 880,
      "▁చ": 881,
      "*.": 882,
      "▁K": 883,
      "▁Asia": 884,
      "late": 885,
      "राष्ट्र": 886,
      "](https://hi.wikipedia.org/wiki/भारत#cite_ref-": 887,
      "]](https://hi.wikipedia.org/wiki/भारत#cite_note-": 888,
      "_P": 889,
      "▁[*": 890,
      "ng": 891,
      "िय": 892,
      "px": 893,
      "▁[C": 894,
      "](https://books.google.com/books?id=": 895,
      "gov": 896,
      "South": 897,
      "_C": 898,
      "mons": 899,
      "తా": 900,
      "uc": 901,
      "ut": 902,
      "ము": 903,
      "media": 904,
      "p.": 905,
      "](https://en.wikipedia.org/wiki/C": 906,
      "నా": 907,
      "la": 908,
      "తి": 909,
      "్ట": 910,
      "▁\"म": 911,
      "_के_": 912,
      "arg": 913,
      "हा": 914,
      "University": 915,
      "do": 916,
      "ish": 917,
      "▁The": 918,
      "ot": 919,
      "▁\"M": 920,
      "जा": 921,
      "inal": 922,
      "ma": 923,
      "errors": 924,
      "ज़": 925,
      "సి": 926,
      "▁pp.": 927,
      ".gov": 928,
      "▁ल": 929,
      "త్": 930,
      "▁य": 931,
      "Harv": 932,
      "nd": 933,
      ".in/": 934,
      "▁\"S": 935,
      "load": 936,
      "s,": 937,
      ".wikimedia": 938,
      "commons": 939,
      "upload": 940,
      "ff": 941,
      "our": 942,
      "मी": 943,
      "▁[↑](https://en.wikipedia.org/wiki/India#cite_ref-FOOTNOTE": 944,
      "![": 945,
      "s](https://en.wikipedia.org/wiki/": 946,
      "aj": 947,
      "-7": 948,
      "de": 949,
      "pedia/": 950,
      ".org/wikipedia/": 951,
      "thumb": 952,
      "▁be": 953,
      "Special:BookSources/978-0-": 954,
      ".wikimedia.org/wikipedia/": 955,
      "upload.wikimedia.org/wikipedia/": 956,
      "▁राज्य": 957,
      "](https://upload.wikimedia.org/wikipedia/": 958,
      "▁[M": 959,
      "umm": 960,
      ")[[": 961,
      "-2": 962,
      "/thumb": 963,
      "PA": 964,
      "/thumb/": 965,
      "fn": 966,
      "over": 967,
      "ong": 968,
      "und": 969,
      "](https://upload.wikimedia.org/wikipedia/commons": 970,
      "br": 971,
      "▁भाषा": 972,
      "कार": 973,
      "ence": 974,
      "▁(సా.శ.": 975,
      "▁भ": 976,
      "di": 977,
      "](https://upload.wikimedia.org/wikipedia/commons/thumb/": 978,
      "tein": 979,
      "px-": 980,
      "art": 981,
      "av": 982,
      "ance": 983,
      "ys": 984,
      "1.": 985,
      "యా": 986,
      "per": 987,
      "35": 988,
      "ులు": 989,
      "▁రా": 990,
      "र्म": 991,
      "चा": 992,
      "a_": 993,
      "-5": 994,
      "cy": 995,
      "ते": 996,
      "ां": 997,
      "–సా.శ.": 998,
      "](https://en.wikipedia.org/wiki/ISBN_(identifier)": 999,
      "▁[ISBN](https://en.wikipedia.org/wiki/ISBN_(identifier)": 1000,
      "%2": 1001,
      "▁అ": 1002,
      "rie": 1003,
      "द्": 1004,
      "47": 1005,
      "ి.": 1006,
      "्षेत्र": 1007,
      "▁[B": 1008,
      "&pg": 1009,
      ".p": 1010,
      "sh": 1011,
      "&pg=": 1012,
      "ow": 1013,
      "▁st": 1014,
      "▁as": 1015,
      "▁orig": 1016,
      "▁\"B": 1017,
      "ear": 1018,
      "गर": 1019,
      "ages": 1020,
      "ans": 1021,
      "lig": 1022,
      "▁ప్ర": 1023,
      "ून": 1024,
      "ृत": 1025,
      "ిక": 1026,
      "▁I": 1027,
      "_D": 1028,
      "36": 1029,
      "ht": 1030,
      "2.": 1031,
      "all": 1032,
      "](https://en.wikipedia.org/wiki/S": 1033,
      "ture": 1034,
      "tern": 1035,
      "_M": 1036,
      "తం": 1037,
      "▁कर": 1038,
      "38": 1039,
      "log": 1040,
      "▁\"A": 1041,
      "](https://web.archive.org/web/201": 1042,
      "श्रेणी:Harv": 1043,
      "▁original": 1044,
      "0%": 1045,
      "से": 1046,
      "श्": 1047,
      "▁\"P": 1048,
      "&pg=PA": 1049,
      "](https://en.wikipedia.org/wiki/M": 1050,
      "विश": 1051,
      "og": 1052,
      "चे": 1053,
      "मन": 1054,
      "rchi": 1055,
      "land": 1056,
      "▁Ret": 1057,
      "ిన": 1058,
      "▁हैं": 1059,
      "జ్యం": 1060,
      "ana": 1061,
      "rieved": 1062,
      "▁Retrieved": 1063,
      "▁with": 1064,
      "Category:": 1065,
      "▁१": 1066,
      "2006": 1067,
      "ूची": 1068,
      "emp": 1069,
      "नी": 1070,
      "esh": 1071,
      "CS": 1072,
      "temp": 1073,
      "its": 1074,
      "हे": 1075,
      "జా": 1076,
      "ll": 1077,
      "धान": 1078,
      "%20": 1079,
      "ore": 1080,
      "](https://hi.wikipedia.org/wiki/म": 1081,
      "opul": 1082,
      "-10": 1083,
      "conom": 1084,
      "2018": 1085,
      "▁&": 1086,
      "ंद": 1087,
      "ంచ": 1088,
      "కు": 1089,
      "Indian": 1090,
      "पर": 1091,
      "ेला": 1092,
      "ss": 1093,
      "omm": 1094,
      "ensus": 1095,
      "ile": 1096,
      "70": 1097,
      "िर": 1098,
      "](http://": 1099,
      "pg/": 1100,
      "](https://te.wikipedia.org/wiki/భారతదేశం": 1101,
      "▁[↑](https://hi.wikipedia.org/wiki/भारत#cite_ref-": 1102,
      "nic": 1103,
      "_T": 1104,
      "के": 1105,
      "न्द": 1106,
      "▁no": 1107,
      "▁प्रदेश": 1108,
      "िस्त": 1109,
      "▁University": 1110,
      "ను": 1111,
      "పూ": 1112,
      "titu": 1113,
      "क्त": 1114,
      "ass": 1115,
      "*](https://books.google.com/books?id=": 1116,
      "ism": 1117,
      "▁\"T": 1118,
      "istory": 1119,
      ".jpg)": 1120,
      "ोल": 1121,
      "భా": 1122,
      "ंग्रे": 1123,
      "ध्य": 1124,
      "▁[P": 1125,
      "-6": 1126,
      "](https://en.wikipedia.org/wiki/B": 1127,
      "hin": 1128,
      "ire": 1129,
      "oc": 1130,
      "nment": 1131,
      "ंत्र": 1132,
      "िण": 1133,
      ".jpg/": 1134,
      "ani": 1135,
      "rchived": 1136,
      "39": 1137,
      "48": 1138,
      "ప్ర": 1139,
      "▁पु": 1140,
      "2011": 1141,
      "ric": 1142,
      "ेष": 1143,
      "▁[अ": 1144,
      "▁Category:": 1145,
      "ीय_": 1146,
      "\"))": 1147,
      "ank": 1148,
      "ద్": 1149,
      "ింద": 1150,
      "▁*[": 1151,
      "▁\"स": 1152,
      "ke": 1153,
      "बा": 1154,
      "▁ex": 1155,
      "/https://": 1156,
      "धार": 1157,
      "▁\"अ": 1158,
      "▁अन": 1159,
      "▁was": 1160,
      "opulation": 1161,
      "ंध": 1162,
      "▁ఉ": 1163,
      "ord": 1164,
      "](https://en.wikipedia.org/wiki/P": 1165,
      "▁क्षेत्र": 1166,
      "ाना": 1167,
      "▁एक": 1168,
      "ai": 1169,
      "Stein": 1170,
      "▁\"E": 1171,
      "7.": 1172,
      "ी_": 1173,
      "ం:": 1174,
      "▁[भारत": 1175,
      "ubl": 1176,
      "▁language": 1177,
      "Hind": 1178,
      "मु": 1179,
      "▁ने": 1180,
      "क्षिण": 1181,
      "90": 1182,
      "्रा": 1183,
      "ates": 1184,
      "द्ध": 1185,
      "_s": 1186,
      "sher": 1187,
      "60": 1188,
      "धर्म": 1189,
      "%2C": 1190,
      "language": 1191,
      "▁ఆ": 1192,
      "▁[स": 1193,
      "▁देश": 1194,
      "लेख": 1195,
      "to": 1196,
      "ts": 1197,
      "](https://www.": 1198,
      "ard": 1199,
      "hm": 1200,
      "ue": 1201,
      "outh": 1202,
      "हार": 1203,
      "ries": 1204,
      "भि": 1205,
      "▁भारतीय": 1206,
      "ex": 1207,
      "▁an": 1208,
      "▁आहे": 1209,
      "arget": 1210,
      "9.": 1211,
      "▁de": 1212,
      "त्": 1213,
      "▁ర": 1214,
      "▁हो": 1215,
      "_b": 1216,
      "eral": 1217,
      "पू": 1218,
      "ाली": 1219,
      "anguages": 1220,
      "ies": 1221,
      "▁are": 1222,
      "45": 1223,
      "other": 1224,
      "\").\r\n": 1225,
      "మా": 1226,
      "▁సా": 1227,
      "భారతీయ": 1228,
      "4.": 1229,
      "_R": 1230,
      "हर": 1231,
      "వా": 1232,
      "▁\"क": 1233,
      "_N": 1234,
      "▁r": 1235,
      "▁ख": 1236,
      "▁\"D": 1237,
      "_B": 1238,
      "ont": 1239,
      "ingh": 1240,
      "▁Press": 1241,
      "46": 1242,
      "ूल": 1243,
      "రు": 1244,
      "ical": 1245,
      "AJ": 1246,
      "थि": 1247,
      "मान": 1248,
      "ात": 1249,
      "ोग": 1250,
      "▁ति": 1251,
      "BAJ": 1252,
      "QBAJ": 1253,
      "चित्र": 1254,
      "िस्तान": 1255,
      "iss": 1256,
      "2010": 1257,
      "tem": 1258,
      "ata": 1259,
      "les": 1260,
      "शिया": 1261,
      "వి": 1262,
      "ష్ట": 1263,
      "ian": 1264,
      "ార్": 1265,
      "न्दी": 1266,
      "_Asia": 1267,
      "పూ.": 1268,
      "द्य": 1269,
      "▁\"G": 1270,
      "](https://en.wikipedia.org/wiki/E": 1271,
      "onstitu": 1272,
      "▁Hind": 1273,
      "43": 1274,
      "_G": 1275,
      "ik": 1276,
      "ीप": 1277,
      "▁V": 1278,
      "▁\"List": 1279,
      "](https://hi.wikipedia.org/wiki/अ": 1280,
      "క్ష": 1281,
      "udd": 1282,
      "htm": 1283,
      "/http://": 1284,
      "](https://en.wikipedia.org/wiki/T": 1285,
      "als": 1286,
      "▁स्": 1287,
      "ford": 1288,
      "ous": 1289,
      "df": 1290,
      "ib": 1291,
      "స్థ": 1292,
      "రిత్ర": 1293,
      "विशेष": 1294,
      "विशेष:": 1295,
      "ine": 1296,
      "aki": 1297,
      "▁राज": 1298,
      "▁[978-0-": 1299,
      "यु": 1300,
      "▁[क": 1301,
      "राष्ट्रीय": 1302,
      "E0%": 1303,
      "iv": 1304,
      "](https://en.wikipedia.org/wiki/A": 1305,
      "्री": 1306,
      "econ": 1307,
      "AAQBAJ": 1308,
      "धिक": 1309,
      "](https://mr.wikipedia.org/wiki/भारत": 1310,
      "ummit": 1311,
      "6.": 1312,
      "xford": 1313,
      "ोक": 1314,
      "▁[G": 1315,
      "4%": 1316,
      "eng": 1317,
      "omp": 1318,
      "న్న": 1319,
      "ountries": 1320,
      "जी": 1321,
      "](https://en.wikipedia.org/wiki/D": 1322,
      "▁[D": 1323,
      "▁2011": 1324,
      "▁whi": 1325,
      "end": 1326,
      "▁\"N": 1327,
      "▁\"भारतीय": 1328,
      "49": 1329,
      "tive": 1330,
      "ations": 1331,
      "List_of_": 1332,
      "MetcalfMetcalf": 1333,
      "ction": 1334,
      "ral": 1335,
      "▁3": 1336,
      "▁च": 1337,
      "▁[2": 1338,
      "stan": 1339,
      "वर्": 1340,
      "िश": 1341,
      "▁(P": 1342,
      "250": 1343,
      "5.": 1344,
      "vi": 1345,
      "थान": 1346,
      "ुस": 1347,
      "ess": 1348,
      "Special:BookSources/978-1": 1349,
      "RI": 1350,
      "oli": 1351,
      "गु": 1352,
      "स्क": 1353,
      "ven": 1354,
      "tics": 1355,
      "ions": 1356,
      "गमन": 1357,
      "artic": 1358,
      "ult": 1359,
      "▁जा": 1360,
      "tim": 1361,
      "-p": 1362,
      "1)": 1363,
      "au": 1364,
      "ंब": 1365,
      "_p": 1366,
      "33": 1367,
      "a\")": 1368,
      "जन": 1369,
      "▁[1": 1370,
      "](https://hi.wikipedia.org/wiki/स": 1371,
      "](https://te.wikipedia.org/wiki/భారతదేశం#cite_": 1372,
      "▁तिथि": 1373,
      ").\r\n": 1374,
      "1998": 1375,
      "ere": 1376,
      "्रो": 1377,
      "2009": 1378,
      "-1)": 1379,
      "గా": 1380,
      "▁\"R": 1381,
      "![](https://upload.wikimedia.org/wikipedia/commons/thumb/": 1382,
      "77": 1383,
      "च्या": 1384,
      "ark": 1385,
      "E0%A": 1386,
      "port": 1387,
      "ంట": 1388,
      "కి": 1389,
      "▁[N": 1390,
      "ame": 1391,
      "▁तिथि:": 1392,
      ")\")": 1393,
      ",_": 1394,
      "िका": 1395,
      "ath": 1396,
      "bot": 1397,
      "df)": 1398,
      "▁which": 1399,
      "fe": 1400,
      "रकार": 1401,
      "हास": 1402,
      "మ్రా": 1403,
      "riti": 1404,
      "▁अभि": 1405,
      "ష్ట్ర": 1406,
      "cl": 1407,
      "icial": 1408,
      "rou": 1409,
      "▁या": 1410,
      "▁[E": 1411,
      "ers": 1412,
      "▁वर्": 1413,
      "त्तर": 1414,
      "ope": 1415,
      "ढ़": 1416,
      "ी_स": 1417,
      "ంత": 1418,
      "▁जन": 1419,
      "india.gov": 1420,
      "▁अभिगमन": 1421,
      "DF": 1422,
      "-s": 1423,
      "र्थ": 1424,
      "lop": 1425,
      "new": 1426,
      "](https://en.wikipedia.org/wiki/G": 1427,
      "albot": 1428,
      "वं": 1429,
      "वे": 1430,
      "](https://hi.wikipedia.org/wiki/क": 1431,
      "▁South": 1432,
      "▁तथा": 1433,
      "्रोत": 1434,
      "ern": 1435,
      "his": 1436,
      "cont": 1437,
      "8.": 1438,
      "ties": 1439,
      "out": 1440,
      "रे": 1441,
      "పు": 1442,
      "▁हैं।": 1443,
      "3.": 1444,
      "▁–": 1445,
      "रु": 1446,
      "▁[R": 1447,
      "ali": 1448,
      "_and_": 1449,
      "िल्": 1450,
      "Asher": 1451,
      "ष्": 1452,
      "▁घ": 1453,
      "▁న": 1454,
      "ublic": 1455,
      "4)": 1456,
      "▁has": 1457,
      "▁(PDF": 1458,
      "ार्": 1459,
      "▁India's": 1460,
      "▁[T": 1461,
      "](https://en.wikipedia.org/wiki/N": 1462,
      "▁that": 1463,
      "80": 1464,
      "ज्": 1465,
      "మి": 1466,
      "ాన": 1467,
      "▁li": 1468,
      "ration": 1469,
      "पुस्त": 1470,
      "विशेष:पुस्त": 1471,
      "्रोत/": 1472,
      "विशेष:पुस्तक": 1473,
      "territ": 1474,
      ".pdf)": 1475,
      "gen": 1476,
      "दा": 1477,
      "](Special:BookSources/978-0-": 1478,
      "▁\"Special:BookSources/978-0-": 1479,
      "▁[Archived": 1480,
      "_प्र": 1481,
      "ob": 1482,
      "िट": 1483,
      "పా": 1484,
      "▁ఇ": 1485,
      "▁త": 1486,
      "पुर": 1487,
      "భాష": 1488,
      "sv": 1489,
      "AAQBAJ&pg=PA": 1490,
      "_1": 1491,
      "rad": 1492,
      "▁5": 1493,
      "धी": 1494,
      "](https://en.wikipedia.org/wiki/R": 1495,
      "United": 1496,
      "RICS": 1497,
      "ty": 1498,
      "द्व": 1499,
      "▁[ब": 1500,
      "▁\"ब": 1501,
      "▁इस": 1502,
      "idge": 1503,
      "ile:": 1504,
      "किस्तान": 1505,
      "ही": 1506,
      "పాల": 1507,
      "లీ": 1508,
      "▁pro": 1509,
      "logy": 1510,
      "hist": 1511,
      "_भारत": 1512,
      "eg": 1513,
      "sland": 1514,
      "वी": 1515,
      "▁ना": 1516,
      "inist": 1517,
      "ange": 1518,
      "%E0%A": 1519,
      "▁దేశ": 1520,
      "▁मेला": 1521,
      "స్తా": 1522,
      "▁De": 1523,
      "▁पुरा": 1524,
      "hy": 1525,
      "ost": 1526,
      "aste": 1527,
      "10.": 1528,
      "3)": 1529,
      "56": 1530,
      "File:": 1531,
      "तम": 1532,
      "వర్": 1533,
      "ాయ": 1534,
      "▁pe": 1535,
      "pend": 1536,
      "000": 1537,
      "man": 1538,
      "कर": 1539,
      "णि": 1540,
      "म्रा": 1541,
      "▁२": 1542,
      "▁\"In": 1543,
      "▁बा": 1544,
      "म्ब": 1545,
      "_E": 1546,
      "ove": 1547,
      "rap": 1548,
      "▁हि": 1549,
      "▁हु": 1550,
      "ach": 1551,
      "_की_स": 1552,
      "aint": 1553,
      "_में": 1554,
      "ुसार": 1555,
      "iki": 1556,
      "पं": 1557,
      "ेंद्र": 1558,
      "▁नि": 1559,
      "onstitution": 1560,
      "DP": 1561,
      "ah": 1562,
      "MetcalfMetcalf2006": 1563,
      "\"\r\n": 1564,
      "की": 1565,
      "च्": 1566,
      "न\")": 1567,
      "शास": 1568,
      "▁[K": 1569,
      "mpire": 1570,
      "ंग्रेज़": 1571,
      "लेखित": 1572,
      "మ్రాజ్యం": 1573,
      "ritish": 1574,
      "▁7": 1575,
      "ree": 1576,
      "2004": 1577,
      "हु": 1578,
      "▁प्रा": 1579,
      "▁भी": 1580,
      "ta": 1581,
      "85": 1582,
      "ख्य": 1583,
      "णा": 1584,
      "दक्षिण": 1585,
      "](File:": 1586,
      "amil": 1587,
      "దేశ్": 1588,
      "bridge": 1589,
      "67": 1590,
      "2007": 1591,
      "▁2014": 1592,
      "37": 1593,
      "ल्": 1594,
      "ated": 1595,
      "▁भाषा\")": 1596,
      "..": 1597,
      "elhi": 1598,
      "econom": 1599,
      "ैद": 1600,
      "ం](https://te.wikipedia.org/wiki/": 1601,
      "_का": 1602,
      "श्चि": 1603,
      "\"](https://web.archive.org/web/201": 1604,
      "12": 1605,
      "ambridge": 1606,
      "ury": 1607,
      ".jpg)\r\n": 1608,
      "ite": 1609,
      "na": 1610,
      "▁at": 1611,
      "](https://en.wikipedia.org/wiki/India#cite_ref-FOOTNOTE": 1612,
      ".nic": 1613,
      "▁te": 1614,
      "फ़": 1615,
      "ूर": 1616,
      "ంబ": 1617,
      "టి": 1618,
      "▁सरकार": 1619,
      "साँ": 1620,
      "हिन्दी": 1621,
      "-b": 1622,
      "hand": 1623,
      "▁v": 1624,
      "▁un": 1625,
      "ese": 1626,
      "hel": 1627,
      "South_Asia": 1628,
      "_m": 1629,
      "ब्": 1630,
      "▁199": 1631,
      "velop": 1632,
      "html": 1633,
      "late_": 1634,
      "do-": 1635,
      "गण": 1636,
      "ంలో": 1637,
      "](https://hi.wikipedia.org/wiki/भारत_में": 1638,
      "ign": 1639,
      "ountry": 1640,
      "స్తాన్": 1641,
      "▁\"K": 1642,
      "ansk": 1643,
      "world": 1644,
      "ोर": 1645,
      "▁U": 1646,
      "▁मु": 1647,
      "usic": 1648,
      "ack": 1649,
      "times": 1650,
      "▁cent": 1651,
      "yson": 1652,
      "-d": 1653,
      "duc": 1654,
      "ंत": 1655,
      "గు": 1656,
      "డు": 1657,
      "నే": 1658,
      "్చ": 1659,
      "▁\"The": 1660,
      "▁सूची": 1661,
      "ालय": 1662,
      "▁History": 1663,
      "ug": 1664,
      "▁\"Indian": 1665,
      "gover": 1666,
      "conomy": 1667,
      "-t": 1668,
      "120": 1669,
      "qu": 1670,
      "▁its": 1671,
      "](https://en.wikipedia.org/wiki/List_of_": 1672,
      "ulture": 1673,
      "-m": 1674,
      "2)": 1675,
      "lia": 1676,
      "inent": 1677,
      "###": 1678,
      "250px-": 1679,
      "anskrit": 1680,
      "మూ": 1681,
      "▁[978-1": 1682,
      "isation": 1683,
      "్రీ": 1684,
      "चीन": 1685,
      "जाब": 1686,
      "జాత": 1687,
      "चित्र:": 1688,
      "](https://mr.wikipedia.org/wiki/भारत#cite_": 1689,
      "म्राज": 1690,
      "521": 1691,
      "RC": 1692,
      "\")*": 1693,
      "lection": 1694,
      "▁2007": 1695,
      "\"))\r\n": 1696,
      "ater": 1697,
      "ज्ञ": 1698,
      "%E0%A4%": 1699,
      "oh": 1700,
      "IN": 1701,
      "Oxford": 1702,
      "dit": 1703,
      "లా": 1704,
      "▁सम": 1705,
      "ase": 1706,
      "▁reg": 1707,
      "ంగా": 1708,
      "पंजाब": 1709,
      "▁[![": 1710,
      "ome": 1711,
      "ashm": 1712,
      "row": 1713,
      "template": 1714,
      "velopment": 1715,
      "Dw": 1716,
      "World": 1717,
      "पी": 1718,
      "सम": 1719,
      "▁4": 1720,
      "▁(201": 1721,
      "dition": 1722,
      "akistan": 1723,
      "alay": 1724,
      "uring": 1725,
      ".nic.in/": 1726,
      "ef": 1727,
      "lish": 1728,
      "चल": 1729,
      "िन": 1730,
      "ूच": 1731,
      "డ్": 1732,
      "ిల్": 1733,
      "▁జ": 1734,
      "any": 1735,
      "alth": 1736,
      "shi": 1737,
      "emplate": 1738,
      "/https://www.": 1739,
      "pu": 1740,
      "se": 1741,
      "ख्या": 1742,
      "orth": 1743,
      "](https://en.wikipedia.org/wiki/In": 1744,
      "hr": 1745,
      "mer": 1746,
      "mund": 1747,
      "\\_S": 1748,
      "othermund": 1749,
      "/c": 1750,
      "_language": 1751,
      "లి": 1752,
      "▁पू": 1753,
      "lion": 1754,
      "స్త్ర": 1755,
      "▁तक": 1756,
      "roup": 1757,
      "साँचा": 1758,
      "led": 1759,
      "urope": 1760,
      "irst": 1761,
      "05": 1762,
      "जरा": 1763,
      "वन": 1764,
      "ulke": 1765,
      "ंदिर": 1766,
      "पूर्व": 1767,
      "ograp": 1768,
      "radesh": 1769,
      "62": 1770,
      "census": 1771,
      "కా": 1772,
      "ణా": 1773,
      "దక్ష": 1774,
      "ధిక": 1775,
      "▁[L": 1776,
      "anc": 1777,
      "](https://hi.wikipedia.org/wiki/ब": 1778,
      "](https://hi.wikipedia.org/wiki/भारतीय_": 1779,
      "▁18": 1780,
      "▁ప్రా": 1781,
      "स्थान": 1782,
      "▁వి": 1783,
      "సియా": 1784,
      "overnment": 1785,
      "िल्ली": 1786,
      "జాతీయ": 1787,
      "ati": 1788,
      "▁languages": 1789,
      "▁धर्म": 1790,
      "erv": 1791,
      "▁sub": 1792,
      "न्न": 1793,
      "odern": 1794,
      "AARC": 1795,
      "पाकिस्तान": 1796,
      "म्राज्य": 1797,
      "Singh": 1798,
      "[![](https://upload.wikimedia.org/wikipedia/commons/thumb/": 1799,
      "▁ad": 1800,
      "▁mil": 1801,
      "▁were": 1802,
      "doi": 1803,
      "ligion": 1804,
      ".sv": 1805,
      "रब": 1806,
      "शी": 1807,
      "వం": 1808,
      "▁पा": 1809,
      "ational_": 1810,
      "ों_की_स": 1811,
      "tical": 1812,
      "▁సం": 1813,
      "▁చరిత్ర": 1814,
      "2003": 1815,
      "▁cont": 1816,
      "government": 1817,
      ".;": 1818,
      "59": 1819,
      "_F": 1820,
      "प्त": 1821,
      "ैन": 1822,
      "](https://en.wikipedia.org/wiki/K": 1823,
      "ound": 1824,
      "स्था": 1825,
      "Stein2010": 1826,
      "हारा": 1827,
      "ओं": 1828,
      "िव": 1829,
      "డి": 1830,
      "▁[the": 1831,
      "ice": 1832,
      "]](https://hi.wikipedia.org/wiki/भारत#cite_note-FOOTNOTE": 1833,
      "ंग्रेज़ी": 1834,
      "6)": 1835,
      "ril": 1836,
      "\\_errors": 1837,
      "help": 1838,
      "\"](https://www.": 1839,
      "-india": 1840,
      "_the": 1841,
      "oi": 1842,
      "old": 1843,
      "तिहास": 1844,
      "▁le": 1845,
      "_by": 1846,
      "दे": 1847,
      "ంధ": 1848,
      "▁किया": 1849,
      "isher": 1850,
      "ाला": 1851,
      "స్త": 1852,
      "तील": 1853,
      "▁विश": 1854,
      "_के_राज्य": 1855,
      "▁రాజ్యం": 1856,
      "conomic": 1857,
      "Stein1998": 1858,
      "▁సామ్రాజ్యం": 1859,
      "వర్గ": 1860,
      "దక్షి": 1861,
      "Singh2009": 1862,
      "65": 1863,
      "usin": 1864,
      "\\_and": 1865,
      "7)": 1866,
      "mber": 1867,
      "▁[उ": 1868,
      "ाने": 1869,
      "ames": 1870,
      "▁१९": 1871,
      "▁Hindu": 1872,
      "History": 1873,
      "val": 1874,
      "▁ha": 1875,
      "ined": 1876,
      "▁St": 1877,
      "ght": 1878,
      "_and_S": 1879,
      "क्": 1880,
      "वरी": 1881,
      "దీ": 1882,
      "▁[In": 1883,
      "▁\"L": 1884,
      "▁**[": 1885,
      "ండి": 1886,
      "వర్గం:": 1887,
      "Talbot": 1888,
      "▁2": 1889,
      "▁errors": 1890,
      "2008": 1891,
      "▁2021": 1892,
      "▁([help": 1893,
      "AsherTalbot": 1894,
      "▁errors\"))\r\n": 1895,
      "_भाषा": 1896,
      "ण्": 1897,
      "मे": 1898,
      "ूप": 1899,
      "age/": 1900,
      ".jpg)](File:": 1901,
      "▁8": 1902,
      "omb": 1903,
      "continent": 1904,
      "gan": 1905,
      "ms": 1906,
      "ुल": 1907,
      "తర": 1908,
      "ది": 1909,
      "▁బ": 1910,
      "▁खाना": 1911,
      "ission": 1912,
      "ों_की_सूची": 1913,
      "rate": 1914,
      "\").[[": 1915,
      "ystem": 1916,
      "ise": 1917,
      "▁2010": 1918,
      "▁Asian": 1919,
      "_प्रदेश": 1920,
      "-in": 1921,
      "1_": 1922,
      "5)": 1923,
      "69": 1924,
      "2005": 1925,
      "une": 1926,
      "टी": 1927,
      "बसे": 1928,
      "िम": 1929,
      "ట్": 1930,
      "ిత": 1931,
      "▁\"उ": 1932,
      "्रिट": 1933,
      "](https://en.wikipedia.org/wiki/Indian_": 1934,
      "न्द्र": 1935,
      "▁गया": 1936,
      "▁राज्यों": 1937,
      "हाराष्ट्र": 1938,
      "fn_": 1939,
      "uary": 1940,
      "▁26": 1941,
      "▁error": 1942,
      "▁template": 1943,
      "no-t": 1944,
      "▁Sfn": 1945,
      "\\_no-t": 1946,
      "▁target": 1947,
      "](https://web.archive.org/web/20": 1948,
      "fn\\_no-t": 1949,
      "template_": 1950,
      "arget\\_errors": 1951,
      "\\_Sfn\\_no-t": 1952,
      "\\_and\\_Sfn\\_no-t": 1953,
      "_and_Sfn_": 1954,
      "▁error:": 1955,
      "▁target:": 1956,
      "template_errors": 1957,
      "arget\\_errors\r\n": 1958,
      "\\_and\\_Sfn\\_no-target\\_errors\r\n": 1959,
      "_and_Sfn_template_errors": 1960,
      "dom": 1961,
      "uk": 1962,
      "▁स्व": 1963,
      "▁Comm": 1964,
      "ंगा": 1965,
      "ंग्": 1966,
      "भाग": 1967,
      "ail": 1968,
      "ant": 1969,
      "on-": 1970,
      "ace": 1971,
      "▁wh": 1972,
      ".jpg/250px-": 1973,
      "58": 1974,
      "_చ": 1975,
      "पश्चि": 1976,
      "ం\")": 1977,
      "ork": 1978,
      "▁\"మ": 1979,
      "▁मान": 1980,
      "माण": 1981,
      "▁[मूल": 1982,
      "ింది.": 1983,
      "C&pg=PA": 1984,
      "vis": 1985,
      "▁CITEREF": 1986,
      "india.gov.in/": 1987,
      "ंप": 1988,
      "पाल": 1989,
      "बंध": 1990,
      "▁\"F": 1991,
      "\")**": 1992,
      "▁Ap": 1993,
      "ंगाल": 1994,
      "-g": 1995,
      "▁25": 1996,
      "ुर": 1997,
      "▁ఎ": 1998,
      "▁[మ": 1999,
      "ari": 2000,
      "](https://hi.wikipedia.org/wiki/चित्र:": 2001,
      "▁सबसे": 2002,
      "uly": 2003,
      "ियों": 2004,
      "▁(సా.శ.పూ.": 2005,
      "श्मी": 2006,
      "▁पुरालेखित": 2007,
      "▁पुरालेखित।": 2008,
      "hind": 2009,
      "ood": 2010,
      "▁sfn": 2011,
      "Edit": 2012,
      "Page/": 2013,
      "o-": 2014,
      "pr": 2015,
      "▁सि": 2016,
      "िक्ष": 2017,
      "](http://www.": 2018,
      "inistry": 2019,
      "▁सूची\")": 2020,
      "EditPage/": 2021,
      "ister": 2022,
      "rib": 2023,
      "earch": 2024,
      "34": 2025,
      "_c": 2026,
      "fter": 2027,
      "lass": 2028,
      "year": 2029,
      "ధ్య": 2030,
      "▁గ": 2031,
      "▁శ": 2032,
      "▁territ": 2033,
      "ories": 2034,
      "off": 2035,
      "ियाँ": 2036,
      "ంద్ర": 2037,
      "▁शास": 2038,
      "ustry": 2039,
      "matics": 2040,
      "क्ति": 2041,
      "द्वीप": 2042,
      "/artic": 2043,
      "cies": 2044,
      "ashmir": 2045,
      "-l": 2046,
      "aw": 2047,
      "yn": 2048,
      "सी": 2049,
      "aman": 2050,
      "▁अधिक": 2051,
      "▁आधार": 2052,
      "▁आहे.": 2053,
      "ण्ड": 2054,
      "68": 2055,
      "Wiki": 2056,
      "▁ch": 2057,
      "_L": 2058,
      "।[[": 2059,
      "ైన": 2060,
      "arch": 2061,
      "](https://te.wikipedia.org/wiki/మ": 2062,
      "ats": 2063,
      "▁जिस": 2064,
      "▁పే": 2065,
      "▁[भारतीय": 2066,
      "गुजरा": 2067,
      "स्कृत": 2068,
      "51": 2069,
      "air": 2070,
      "▁[F": 2071,
      "2014": 2072,
      "_Indian_": 2073,
      "Union": 2074,
      "CS1": 2075,
      "तंत्र": 2076,
      "भी": 2077,
      "](https://en.wikipedia.org/wiki/L": 2078,
      "_सं": 2079,
      "▁उप": 2080,
      "DwAAQBAJ&pg=PA": 2081,
      "्रिटिश": 2082,
      "330": 2083,
      "▁An": 2084,
      "act": 2085,
      "▁10": 2086,
      "Rothermund": 2087,
      "टे": 2088,
      "थी": 2089,
      "व्य": 2090,
      "ట్ట": 2091,
      "హింద": 2092,
      "▁ri": 2093,
      "▁భారతదేశం": 2094,
      "ारी": 2095,
      "](https://hi.wikipedia.org/wiki/भारत#CITEREF": 2096,
      "▁17": 2097,
      "ంగ్": 2098,
      "▁है।\r\n": 2099,
      "▁साथ": 2100,
      "ద్ధ": 2101,
      "](https://hi.wikipedia.org/wiki/भारत_में_": 2102,
      "ज्ञान": 2103,
      "mb": 2104,
      "uch": 2105,
      "ugh": 2106,
      "eneral": 2107,
      "ley": 2108,
      "umber": 2109,
      "197": 2110,
      "ople": 2111,
      "▁this": 2112,
      "nglish": 2113,
      "युक्त": 2114,
      "1/": 2115,
      "Kulke": 2116,
      "mar": 2117,
      "ed.": 2118,
      "low": 2119,
      "▁New": 2120,
      "ower": 2121,
      "a,": 2122,
      "s\")": 2123,
      "आई": 2124,
      "डी": 2125,
      "ించ": 2126,
      "▁ఒ": 2127,
      "▁ag": 2128,
      "▁था": 2129,
      "▁భాష": 2130,
      "](Special:BookSources/978-1": 2131,
      "▁[క": 2132,
      "▁\"श्रेणी:Harv": 2133,
      "▁\"Special:BookSources/978-1": 2134,
      "](https://hi.wikipedia.org/wiki/श्रेणी:Harv": 2135,
      "▁India,": 2136,
      "ాల్": 2137,
      "▁द्व": 2138,
      "▁संघ": 2139,
      "हिन्द": 2140,
      "▁./श्रेणी:Harv": 2141,
      "▁./Category:": 2142,
      "▁यु": 2143,
      "▁Island": 2144,
      "▁([help](https://hi.wikipedia.org/wiki/श्रेणी:Harv": 2145,
      "_and_Sfn_template_errors?action=edit&redlink=1": 2146,
      "▁./श्रेणी:Harv\\_and\\_Sfn\\_no-target\\_errors\r\n": 2147,
      "▁([help](https://hi.wikipedia.org/wiki/श्रेणी:Harv_and_Sfn_template_errors?action=edit&redlink=1": 2148,
      "8/": 2149,
      "data": 2150,
      "lear": 2151,
      "▁Pres": 2152,
      "ongress": 2153,
      "/http://www.": 2154,
      "ombined": 2155,
      "1,": 2156,
      "100": 2157,
      "PP": 2158,
      "aper": 2159,
      "ority": 2160,
      "्यट": 2161,
      "्वर": 2162,
      "▁Empire": 2163,
      "क्षेत्र": 2164,
      "पुरा": 2165,
      "▁World": 2166,
      "emplate:": 2167,
      "▁विश्व": 2168,
      "att": 2169,
      "emb": 2170,
      "▁Asia\")": 2171,
      "Hindi": 2172,
      "]](https://te.wikipedia.org/wiki/భారతదేశం#cite_": 2173,
      "చ్చ": 2174,
      "జీ": 2175,
      "ేంద్ర": 2176,
      "▁\"క": 2177,
      "](https://hi.wikipedia.org/wiki/उ": 2178,
      "edi": 2179,
      "uman": 2180,
      "▁दे": 2181,
      "line": 2182,
      "lim": 2183,
      "iron": 2184,
      "KulkeRothermund": 2185,
      "uj": 2186,
      "त्य": 2187,
      "▁राष्ट्रीय": 2188,
      "radition": 2189,
      "▁प्रदेश\")": 2190,
      "57": 2191,
      "_at": 2192,
      "gy": 2193,
      "▁July": 2194,
      "uclear": 2195,
      "ledge": 2196,
      "▁April": 2197,
      "गढ़": 2198,
      "लोक": 2199,
      "ोन": 2200,
      "త్య": 2201,
      "బ్": 2202,
      "మీ": 2203,
      "▁9": 2204,
      "▁[W": 2205,
      "▁[सं": 2206,
      "](https://te.wikipedia.org/wiki/ద": 2207,
      "▁वा": 2208,
      "్యా": 2209,
      "రాష్ట్ర": 2210,
      "म्म": 2211,
      "▁./వర్గం:": 2212,
      "▁लि": 2213,
      "Hindu": 2214,
      "news/": 2215,
      "तमिल": 2216,
      "-c": 2217,
      "Dyson": 2218,
      "ure": 2219,
      "king": 2220,
      "entral": 2221,
      "ummit\")": 2222,
      "7-1": 2223,
      "Combined": 2224,
      "ober": 2225,
      "ution": 2226,
      "लु": 2227,
      "▁\"इ": 2228,
      "▁कार": 2229,
      "िकी": 2230,
      "▁दक्षिण": 2231,
      "्याया": 2232,
      "ect": 2233,
      "here": 2234,
      "▁पूर्व": 2235,
      ".\"\r\n": 2236,
      "121": 2237,
      "2-0)": 2238,
      "du": 2239,
      "dus": 2240,
      "kno": 2241,
      "pt": 2242,
      "viron": 2243,
      "▁government": 2244,
      "ori": 2245,
      "odi": 2246,
      "vironment": 2247,
      "07": 2248,
      "_न": 2249,
      "ves": 2250,
      "भू": 2251,
      "००": 2252,
      "ంక": 2253,
      "ప్": 2254,
      "యు": 2255,
      "▁[J": 2256,
      "▁\"J": 2257,
      "▁\"South": 2258,
      "ारा": 2259,
      "rab": 2260,
      "▁cons": 2261,
      "्यां": 2262,
      "▁En": 2263,
      "eptem": 2264,
      "ड़ा": 2265,
      "తంత్ర": 2266,
      "▁not": 2267,
      "engal": 2268,
      "](https://te.wikipedia.org/wiki/భారతదేశం#cite_ref-": 2269,
      "▁बाद": 2270,
      "దక్షిణ": 2271,
      "]](https://te.wikipedia.org/wiki/భారతదేశం#cite_note-": 2272,
      "eptember": 2273,
      "▁pl": 2274,
      "_पर": 2275,
      "गो": 2276,
      "▁us": 2277,
      "▁[न": 2278,
      "ide": 2279,
      "ref-1": 2280,
      "note-1": 2281,
      "▁Pradesh": 2282,
      "fficial": 2283,
      "▁language\")": 2284,
      "also": 2285,
      "history": 2286,
      "च्च": 2287,
      "ographi": 2288,
      "9)": 2289,
      "athe": 2290,
      "cre": 2291,
      "▁year": 2292,
      "cient": 2293,
      "▁into": 2294,
      "▁system": 2295,
      "▁par": 2296,
      "▁15": 2297,
      "_Press": 2298,
      "uropean": 2299,
      "\"](https://": 2300,
      "_స": 2301,
      "_और": 2302,
      "एं": 2303,
      "गा": 2304,
      "दिल्ली": 2305,
      "सद": 2306,
      "తము": 2307,
      "వే": 2308,
      "ష్": 2309,
      "ాన్": 2310,
      "▁\"आ": 2311,
      "](https://en.wikipedia.org/wiki/F": 2312,
      "స్క": 2313,
      "क्षा": 2314,
      "imes": 2315,
      "▁यह": 2316,
      "▁भू": 2317,
      "शासित": 2318,
      "ిల్లీ": 2319,
      "▁have": 2320,
      "2_": 2321,
      "▁off": 2322,
      "▁Pro": 2323,
      "%28": 2324,
      "-20": 2325,
      "0.": 2326,
      "_re": 2327,
      "national": 2328,
      "ocial": 2329,
      "त.": 2330,
      "▁[इ": 2331,
      "](https://en.wikipedia.org/wiki/J": 2332,
      "anges": 2333,
      "▁अस": 2334,
      "▁विक": 2335,
      "▁जु": 2336,
      "ेश्वर": 2337,
      "▁during": 2338,
      "s.[[": 2339,
      "ritan": 2340,
      "▁साम्राज्य": 2341,
      "Dyson2018": 2342,
      ",000": 2343,
      "fl": 2344,
      "uis": 2345,
      "▁econom": 2346,
      "\")*.": 2347,
      "ince": 2348,
      "idd": 2349,
      "argest": 2350,
      "brary": 2351,
      "▁[Archived](https://web.archive.org/web/20": 2352,
      "पे": 2353,
      "में": 2354,
      "वस्था": 2355,
      "జి": 2356,
      "ధాన": 2357,
      "బె": 2358,
      "▁\"विशेष:पुस्तक": 2359,
      "inister": 2360,
      "](https://hi.wikipedia.org/wiki/ISBN_(identifier)": 2361,
      "](https://hi.wikipedia.org/wiki/विशेष:पुस्तक": 2362,
      "▁स्रोत/": 2363,
      "▁their": 2364,
      "▁मंदिर": 2365,
      "ారు": 2366,
      "▁comp": 2367,
      "](https://hi.wikipedia.org/wiki/भारत_के_": 2368,
      "लाई": 2369,
      "ember": 2370,
      "_स्रोत/": 2371,
      "विधान": 2372,
      "▁కా": 2373,
      "▁[ISBN](https://hi.wikipedia.org/wiki/ISBN_(identifier)": 2374,
      "▁./श्रेणी:": 2375,
      "_के_आ": 2376,
      "▁రాజ": 2377,
      "द्योग": 2378,
      "▁(PDF)": 2379,
      "साँचा:": 2380,
      "ंग्ला": 2381,
      "श्मीर": 2382,
      "](https://hi.wikipedia.org/wiki/विशेष:पुस्तक_स्रोत/": 2383,
      "_d": 2384,
      "jab": 2385,
      "mi": 2386,
      "oor": 2387,
      "cience": 2388,
      "ram": 2389,
      "▁Archived": 2390,
      "▁first": 2391,
      "▁16": 2392,
      "ill": 2393,
      "ayan": 2394,
      "▁Press\").": 2395,
      "outledge": 2396,
      "shit": 2397,
      "/p": 2398,
      "_K": 2399,
      "ote": 2400,
      "ागर": 2401,
      "▁con": 2402,
      "▁countries": 2403,
      "▁बहु": 2404,
      "▁गण": 2405,
      "ctober": 2406,
      "▁October": 2407,
      "330px-": 2408,
      "ritannic": 2409,
      "son": 2410,
      "▁21": 2411,
      "▁24": 2412,
      "▁also": 2413,
      "▁[t": 2414,
      "ond": 2415,
      "▁2023": 2416,
      "thern": 2417,
      ".svg": 2418,
      "ban": 2419,
      "par": 2420,
      "रो": 2421,
      "దు": 2422,
      "మ్": 2423,
      "శ్": 2424,
      "▁केंद्र": 2425,
      "](https://te.wikipedia.org/wiki/క": 2426,
      "▁part": 2427,
      "urr": 2428,
      "్యవ": 2429,
      "▁[↑](https://hi.wikipedia.org/wiki/भारत#cite_": 2430,
      "▁है,": 2431,
      "1994": 2432,
      "ంది.": 2433,
      "liament": 2434,
      "▁region": 2435,
      "ूचना": 2436,
      "_చరిత్ర": 2437,
      "/0": 2438,
      "/A": 2439,
      "44": 2440,
      "ive": 2441,
      "▁dis": 2442,
      "usiness": 2443,
      "-26": 2444,
      "India)": 2445,
      "▁कि": 2446,
      "india/": 2447,
      "▁2024": 2448,
      "-80": 2449,
      "udden": 2450,
      "ne": 2451,
      "ule": 2452,
      "estern": 2453,
      "berg": 2454,
      "▁state": 2455,
      "hism": 2456,
      "-19": 2457,
      "_आ": 2458,
      "ंक": 2459,
      "ल\")": 2460,
      "ఢిల్లీ": 2461,
      "పంచ": 2462,
      "–1": 2463,
      "time": 2464,
      "▁मो": 2465,
      "▁India:": 2466,
      "etwe": 2467,
      "ారి": 2468,
      "▁Chin": 2469,
      "ural": 2470,
      "chno": 2471,
      "rop": 2472,
      "▁दिस": 2473,
      "▁world": 2474,
      "िया\")": 2475,
      "_की_": 2476,
      "Special:BookSources/978": 2477,
      "नेमा": 2478,
      "_मेला": 2479,
      "ृत्य": 2480,
      "धार_पर": 2481,
      "▁नाम": 2482,
      "మూస": 2483,
      "_के_आधार_पर": 2484,
      "etween": 2485,
      "_के_आधार_पर_भारत": 2486,
      "_3": 2487,
      "fr": 2488,
      "ology": 2489,
      "▁22": 2490,
      "19-8": 2491,
      "racy": 2492,
      "▁se": 2493,
      "▁Aug": 2494,
      "▁September": 2495,
      "▁2019": 2496,
      "▁form": 2497,
      "ishing": 2498,
      "ternational": 2499,
      "▁(PDF).": 2500,
      "▁Commission": 2501,
      "▁August": 2502,
      "_अ": 2503,
      "_ब": 2504,
      "rans": 2505,
      "टक": 2506,
      "वर": 2507,
      "स्ट": 2508,
      "▁class": 2509,
      "unjab": 2510,
      "संख्या": 2511,
      "स्कृ": 2512,
      "▁[Archived](https://web.archive.org/web/201": 2513,
      "_H": 2514,
      "wing": 2515,
      "▁[I": 2516,
      "▁Act": 2517,
      "pib": 2518,
      "एशिया": 2519,
      "వు": 2520,
      "▁फ": 2521,
      "▁wi": 2522,
      "▁it": 2523,
      "▁\"భారతీయ": 2524,
      "thno": 2525,
      "adu": 2526,
      "▁Metcalf": 2527,
      "▁उत्": 2528,
      "ंडिया": 2529,
      "बाद": 2530,
      "%E0%A4%B": 2531,
      "▁subcontinent": 2532,
      "▁पुरालेखित।.": 2533,
      "▁जुलाई": 2534,
      "_के_आधार_पर_भारत_के_राज्य": 2535,
      "1-0)": 2536,
      "_%28": 2537,
      "iver": 2538,
      "wn": 2539,
      "wart": 2540,
      "zberg": 2541,
      "2023": 2542,
      "ool": 2543,
      "-17": 2544,
      "chwart": 2545,
      "University_Press": 2546,
      "chwartzberg": 2547,
      "श्री": 2548,
      "ीत": 2549,
      "ीस": 2550,
      "▁ड": 2551,
      "▁2018": 2552,
      "210": 2553,
      "▁Re": 2554,
      "▁2006": 2555,
      "87": 2556,
      "one": 2557,
      "▁Sh": 2558,
      "oll": 2559,
      "able": 2560,
      "31": 2561,
      "4-0)": 2562,
      "CE": 2563,
      "hol": 2564,
      "ual": 2565,
      "एस": 2566,
      "खा": 2567,
      "मार": 2568,
      "ौद्ध": 2569,
      "జన": 2570,
      "టు": 2571,
      "టె": 2572,
      "▁झ": 2573,
      "▁[ज": 2574,
      "▁\"न": 2575,
      "omen": 2576,
      "raven": 2577,
      "entre": 2578,
      "amb": 2579,
      "▁रूप": 2580,
      "▁చె": 2581,
      "నాయ": 2582,
      "▁been": 2583,
      "–సా.శ.పూ.": 2584,
      "▁[↑](https://hi.wikipedia.org/wiki/भारत#cite_ref-FOOTNOTE": 2585,
      "बांग्ला": 2586,
      "मुख": 2587,
      "▁ఆర్": 2588,
      "▁देशों": 2589,
      "gency": 2590,
      "పాలిత": 2591,
      "స్త్రం:": 2592,
      "▁ప్రాంత": 2593,
      "ేంద్రపాలిత": 2594,
      "](https://te.wikipedia.org/wiki/దస్త్రం:": 2595,
      "3-0)": 2596,
      "8)": 2597,
      "▁6": 2598,
      "▁\"H": 2599,
      "iddle": 2600,
      "\".": 2601,
      "%29": 2602,
      "-re": 2603,
      "min": 2604,
      "pl": 2605,
      "tal": 2606,
      "ेट": 2607,
      "▁ट": 2608,
      "▁res": 2609,
      "▁\"O": 2610,
      "▁India\"),": 2611,
      "▁Cambridge": 2612,
      "▁Ass": 2613,
      "▁June": 2614,
      "ortal": 2615,
      "chnology": 2616,
      ".html": 2617,
      "_University_Press": 2618,
      "ya": 2619,
      "tec": 2620,
      "eser": 2621,
      "▁but": 2622,
      "ument": 2623,
      "str": 2624,
      "_in_": 2625,
      "▁[*A": 2626,
      ".jpg/330px-": 2627,
      "ikshit": 2628,
      "cri": 2629,
      "न](https://hi.wikipedia.org/wiki/": 2630,
      "ఖ్య": 2631,
      "గో": 2632,
      "తో": 2633,
      "బి": 2634,
      "హి": 2635,
      "▁[H": 2636,
      "▁\"ज": 2637,
      "1947": 2638,
      "▁population": 2639,
      "▁between": 2640,
      "नाड": 2641,
      "नाथ": 2642,
      "▁2016": 2643,
      "▁तट": 2644,
      "▁एवं": 2645,
      "ड़ी": 2646,
      "ffair": 2647,
      "ंबई": 2648,
      "aint:": 2649,
      "స్కృ": 2650,
      "-language": 2651,
      "countries": 2652,
      "oast": 2653,
      "▁[[": 2654,
      "andhi": 2655,
      "edic": 2656,
      "%2F": 2657,
      "904": 2658,
      "▁2014.\r\n": 2659,
      "_I": 2660,
      "_W": 2661,
      "fric": 2662,
      "lad": 2663,
      "ok": 2664,
      "pp": 2665,
      "ran": 2666,
      "नगर": 2667,
      "पट": 2668,
      "▁ध": 2669,
      "▁[आ": 2670,
      "er,": 2671,
      "arh": 2672,
      "ान\")": 2673,
      "▁more": 2674,
      "राजस्थान": 2675,
      "harma": 2676,
      "Harle": 2677,
      "विश्व": 2678,
      "embly": 2679,
      "fil": 2680,
      "rish": 2681,
      "▁al": 2682,
      "▁ac": 2683,
      "ped": 2684,
      "ident": 2685,
      "amp": 2686,
      "▁Population": 2687,
      "avid": 2688,
      "india.gov.in": 2689,
      "ritannica": 2690,
      ":[": 2691,
      "Template:": 2692,
      "_ప": 2693,
      "han": 2694,
      "van": 2695,
      "ठी": 2696,
      "दू": 2697,
      "ाम": 2698,
      "ैक": 2699,
      "హా": 2700,
      "ి.\r\n": 2701,
      "▁Y": 2702,
      "▁all": 2703,
      "▁ను": 2704,
      "▁జాతీయ": 2705,
      ".org/10.": 2706,
      "्तर": 2707,
      "िक्": 2708,
      "राष्ट्रप": 2709,
      "%20%20": 2710,
      "▁अनुसार": 2711,
      "▁स्थ": 2712,
      "_का_": 2713,
      "doi.org/10.": 2714,
      "్యవస్థ": 2715,
      "mu": 2716,
      "oon": 2717,
      "▁[Indian": 2718,
      "ones": 2719,
      "rade": 2720,
      "life": 2721,
      "▁bec": 2722,
      "▁music": 2723,
      "igh": 2724,
      "ligi": 2725,
      "logue": 2726,
      "▁century": 2727,
      "]](https://mr.wikipedia.org/wiki/भारत#cite_": 2728,
      "ces": 2729,
      "ee": 2730,
      "खंड": 2731,
      "ोर्": 2732,
      "▁\"I": 2733,
      "▁\"W": 2734,
      "2024": 2735,
      "▁क्र": 2736,
      "▁मूल": 2737,
      "▁पार": 2738,
      "▁जो": 2739,
      "▁2009": 2740,
      "▁उत्तर": 2741,
      "▁For": 2742,
      "depend": 2743,
      "-2)": 2744,
      "ंत्री": 2745,
      "88": 2746,
      "ering": 2747,
      "ade": 2748,
      "ures": 2749,
      "istan": 2750,
      "harat": 2751,
      "epublic": 2752,
      "umbai": 2753,
      "ourt": 2754,
      "2/": 2755,
      "ck": 2756,
      "ft": 2757,
      "fic": 2758,
      "ibrary": 2759,
      "lang": 2760,
      "por": 2761,
      "va": 2762,
      "एँ": 2763,
      "कल": 2764,
      "तर": 2765,
      "हित": 2766,
      "ृष्": 2767,
      "ोड़": 2768,
      "డా": 2769,
      "దా": 2770,
      "బడ": 2771,
      "మే": 2772,
      "రణ": 2773,
      "▁28": 2774,
      "▁లో": 2775,
      "peration": 2776,
      "▁\"सं": 2777,
      "icy": 2778,
      "\\_with": 2779,
      "▁अप": 2780,
      "▁dance": 2781,
      "▁Th": 2782,
      "▁न्याया": 2783,
      "▁after": 2784,
      "▁सेना": 2785,
      "▁కూ": 2786,
      "ాలు,": 2787,
      "-81": 2788,
      "ose": 2789,
      "▁రాష్ట్ర": 2790,
      "rick": 2791,
      "ompany": 2792,
      "view": 2793,
      "▁जाता": 2794,
      "కిస్తాన్": 2795,
      "clud": 2796,
      "म्बर": 2797,
      "▁చరిత్ర\")": 2798,
      "पश्चिम": 2799,
      "ujar": 2800,
      "म्मू": 2801,
      "thnologue": 2802,
      "a/": 2803,
      "ttar": 2804,
      "▁[3": 2805,
      "▁East": 2806,
      "81": 2807,
      "imp": 2808,
      "ठा": 2809,
      "लि": 2810,
      "▁over": 2811,
      "ia\")": 2812,
      "alley": 2813,
      "▁संग": 2814,
      "2000": 2815,
      "▁most": 2816,
      "cember": 2817,
      "▁ab": 2818,
      "230": 2819,
      "माज": 2820,
      "▁1950": 2821,
      "▁Jan": 2822,
      "▁इतिहास": 2823,
      "पाद": 2824,
      "▁[Stein": 2825,
      "▁अन्य": 2826,
      "▁वर्ष": 2827,
      "र्थिक": 2828,
      "वेब": 2829,
      "ovement": 2830,
      "4–": 2831,
      "dustry": 2832,
      "p?": 2833,
      "pur": 2834,
      "tates": 2835,
      "▁per": 2836,
      "▁other": 2837,
      "kim": 2838,
      "iation": 2839,
      "▁National": 2840,
      "fore": 2841,
      "ummits": 2842,
      "cyc": 2843,
      "emple": 2844,
      "olitical": 2845,
      "▁Press.": 2846,
      "▁years": 2847,
      "CO": 2848,
      "_देश": 2849,
      "wo": 2850,
      "िळ": 2851,
      "▁ఈ": 2852,
      "▁భారత": 2853,
      "▁हे": 2854,
      "▁comm": 2855,
      "▁व्य": 2856,
      "नाग": 2857,
      "▁di": 2858,
      "_क्षेत्र": 2859,
      "▁India\")\r\n": 2860,
      "▁English": 2861,
      "త్రి": 2862,
      "ాలు](https://te.wikipedia.org/wiki/": 2863,
      "▁(identifier)\"):[": 2864,
      "▁एशिया": 2865,
      "त्तरा": 2866,
      "▁2011.\r\n": 2867,
      "▁निर्": 2868,
      "\\_with\\_": 2869,
      "500": 2870,
      "6_": 2871,
      "75": 2872,
      "_O": 2873,
      "lam": 2874,
      "ird": 2875,
      "form": 2876,
      "▁2020": 2877,
      "▁number": 2878,
      "ctor": 2879,
      "auth": 2880,
      "ganisation": 2881,
      "%7": 2882,
      ".as": 2883,
      "CN": 2884,
      "ges": 2885,
      "rin": 2886,
      "y\")": 2887,
      "कि": 2888,
      "जय": 2889,
      "नुसार": 2890,
      "▁27": 2891,
      "▁[Metcalf": 2892,
      "▁मार्": 2893,
      "rime": 2894,
      "▁ही": 2895,
      "anglad": 2896,
      "_सा": 2897,
      "ी_भाषा": 2898,
      "वंश": 2899,
      "्यटन": 2900,
      "angladesh": 2901,
      "1–": 2902,
      "oin": 2903,
      "▁es": 2904,
      "theast": 2905,
      "ash": 2906,
      "2019": 2907,
      "▁Ar": 2908,
      "obb": 2909,
      "/articl": 2910,
      "*,": 2911,
      "-to": 2912,
      "64": 2913,
      "79": 2914,
      "ID": 2915,
      "_క": 2916,
      "ls": 2917,
      "डिया": 2918,
      "लय": 2919,
      "తు": 2920,
      "పతి": 2921,
      "▁ऑ": 2922,
      "▁ని": 2923,
      "▁స్థ": 2924,
      "▁[అ": 2925,
      "▁[ప": 2926,
      "▁\"భారతదేశం": 2927,
      "are": 2928,
      "asia": 2929,
      "్రి": 2930,
      "ర్వ": 2931,
      "న్ని": 2932,
      "पुरी": 2933,
      "▁संस्कृ": 2934,
      "apit": 2935,
      "_De": 2936,
      ".jpg)](https://hi.wikipedia.org/wiki/चित्र:": 2937,
      "धिकार": 2938,
      "మిళ": 2939,
      "▁हिन्दी": 2940,
      "ंतर": 2941,
      "](https://mr.wikipedia.org/wiki/भारत#cite_ref-": 2942,
      "వంశ": 2943,
      "तंत्रता": 2944,
      "ographic": 2945,
      "]](https://mr.wikipedia.org/wiki/भारत#cite_note-": 2946,
      "_t": 2947,
      "ron": 2948,
      "▁en": 2949,
      "rahm": 2950,
      "2001": 2951,
      "▁13": 2952,
      "olicy": 2953,
      "▁election": 2954,
      "ustral": 2955,
      "▁[2](https://en.wikipedia.org/wiki/India#cite_ref-FOOTNOTE": 2956,
      "▁[1](https://en.wikipedia.org/wiki/India#cite_ref-FOOTNOTE": 2957,
      "times.com/": 2958,
      "ughal": 2959,
      "Ar": 2960,
      "IA": 2961,
      "co": 2962,
      "तु": 2963,
      "धु": 2964,
      "रवरी": 2965,
      "िंध": 2966,
      "encies": 2967,
      "arb": 2968,
      "reat": 2969,
      "atus": 2970,
      "▁Congress": 2971,
      "_of_the": 2972,
      "▁Talbot": 2973,
      "▁May": 2974,
      "](https://mr.wikipedia.org/wiki/म": 2975,
      ".ph": 2976,
      "देव": 2977,
      "-21": 2978,
      "89": 2979,
      "Fisher": 2980,
      "▁[e": 2981,
      "▁[v": 2982,
      "ann": 2983,
      "2012": 2984,
      "union": 2985,
      "ode": 2986,
      "Fisher2018": 2987,
      "-f": 2988,
      "-le": 2989,
      "76": 2990,
      "IM": 2991,
      "_4": 2992,
      "_మ": 2993,
      "_భాష": 2994,
      "ze": 2995,
      "तिक": 2996,
      "स\")": 2997,
      "िज़": 2998,
      "ఫ్": 2999,
      "▁స్": 3000,
      "▁[బ": 3001,
      "▁[స": 3002,
      "▁[South": 3003,
      "▁\"అ": 3004,
      "ics": 3005,
      "▁spe": 3006,
      "▁Constitution": 3007,
      "▁अग": 3008,
      "wealth": 3009,
      "▁2012": 3010,
      "त्रि": 3011,
      "ters": 3012,
      "న్నాయ": 3013,
      "विज्ञान": 3014,
      "▁కాల": 3015,
      "ాలు\")": 3016,
      "▁शिक्ष": 3017,
      "ake": 3018,
      "]](https://hi.wikipedia.org/wiki/भारत#cite_note-1": 3019,
      "eport": 3020,
      "ड़े": 3021,
      "▁Oxford": 3022,
      "ndaman": 3023,
      "ులు](https://te.wikipedia.org/wiki/": 3024,
      ".jpg)](https://te.wikipedia.org/wiki/దస్త్రం:": 3025,
      "ध्ये": 3026,
      "▁రై": 3027,
      "▁समय": 3028,
      "गुजरात": 3029,
      "व्यवस्था": 3030,
      "హిందూ": 3031,
      "▁[↑](https://hi.wikipedia.org/wiki/भारत#cite_ref-1": 3032,
      "▁2006](https://en.wikipedia.org/wiki/India#CITEREF": 3033,
      "4).": 3034,
      "oy": 3035,
      "oth": 3036,
      "▁k": 3037,
      "](https://en.wikipedia.org/wiki/W": 3038,
      "ara": 3039,
      "ale": 3040,
      "ased": 3041,
      "▁Census": 3042,
      "lob": 3043,
      "ched": 3044,
      "120px-": 3045,
      "▁territories": 3046,
      "known": 3047,
      "-25": 3048,
      "32": 3049,
      "Vi": 3050,
      "_f": 3051,
      "_territ": 3052,
      "dis": 3053,
      "oci": 3054,
      "गोल": 3055,
      "मालय": 3056,
      "ाट": 3057,
      "ौर": 3058,
      "▁'": 3059,
      "▁ई": 3060,
      "▁23": 3061,
      "](https://doi.org/10.": 3062,
      "▁[ग": 3063,
      "▁\"ग": 3064,
      "▁मा": 3065,
      "र्ना": 3066,
      "र्दू": 3067,
      "ाले": 3068,
      "▁संविधान": 3069,
      "▁had": 3070,
      "हासागर": 3071,
      "censusindia.gov.in/": 3072,
      "ed.).": 3073,
      "▁official": 3074,
      "▁विकास": 3075,
      "langoff": 3076,
      "▁January": 3077,
      ".india": 3078,
      "73": 3079,
      "Asia": 3080,
      "▁[s": 3081,
      "\");": 3082,
      "onwealth": 3083,
      "eration": 3084,
      "ourc": 3085,
      "ough": 3086,
      "riod": 3087,
      "ing\\_": 3088,
      "ama": 3089,
      "adi": 3090,
      "▁tradition": 3091,
      "term": 3092,
      "emoc": 3093,
      "▁Budd": 3094,
      "▁BCE": 3095,
      "ight": 3096,
      "▁national": 3097,
      "▁[2](https://en.wikipedia.org/wiki/India#cite_ref-": 3098,
      "▁[1](https://en.wikipedia.org/wiki/India#cite_ref-": 3099,
      "AsherTalbot2008": 3100,
      "▁2010](https://en.wikipedia.org/wiki/India#CITEREF": 3101,
      "NG": 3102,
      "Uttar": 3103,
      "has": 3104,
      "pa": 3105,
      "पार": 3106,
      "मंत्री": 3107,
      "ल](https://hi.wikipedia.org/wiki/": 3108,
      "स](https://hi.wikipedia.org/wiki/": 3109,
      "सभा": 3110,
      "।\r\n": 3111,
      "१९": 3112,
      "ఆసియా": 3113,
      "ద్ర": 3114,
      "భూ": 3115,
      "మె": 3116,
      "య్య": 3117,
      "ర్య": 3118,
      "▁छ": 3119,
      "▁ల": 3120,
      "▁up": 3121,
      "▁\"ప": 3122,
      "▁\"బ": 3123,
      "▁\"స": 3124,
      "\")[[": 3125,
      "](https://hi.wikipedia.org/wiki/न": 3126,
      "](https://hi.wikipedia.org/wiki/सं": 3127,
      "ofindia": 3128,
      "▁[↑](https://te.wikipedia.org/wiki/భారతదేశం#cite_ref-": 3129,
      "ross": 3130,
      "दीव": 3131,
      "త్త": 3132,
      "▁అధిక": 3133,
      "▁ప్రదేశ్": 3134,
      "सेना": 3135,
      "ప్రదేశ్": 3136,
      "▁चु": 3137,
      "▁हुई": 3138,
      "vision": 3139,
      "▁युद्ध": 3140,
      "files/": 3141,
      "▁నుండి": 3142,
      "र्नाटक": 3143,
      "7/": 3144,
      "bi": 3145,
      "country": 3146,
      "ru": 3147,
      "orthern": 3148,
      "pect": 3149,
      "ar,": 3150,
      "andard": 3151,
      "eds.": 3152,
      "come": 3153,
      "▁1,": 3154,
      "▁dec": 3155,
      ".png": 3156,
      "▁Hindi": 3157,
      "▁December": 3158,
      "▁became": 3159,
      "-78": 3160,
      "-28": 3161,
      "1]](https://en.wikipedia.org/wiki/India#cite_note-FOOTNOTE": 3162,
      "TR": 3163,
      "ंका": 3164,
      "म\")": 3165,
      "वै": 3166,
      "▁ऊ": 3167,
      "▁two": 3168,
      "▁me": 3169,
      "change": 3170,
      "नाव": 3171,
      "्टी": 3172,
      "▁*The": 3173,
      "-40": 3174,
      "▁2022": 3175,
      "थाप": 3176,
      "▁It": 3177,
      "_summit": 3178,
      "%2C_": 3179,
      "▁होता": 3180,
      "61": 3181,
      "▁ro": 3182,
      "▁[O": 3183,
      "ised": 3184,
      "▁Pe": 3185,
      "▁Plate": 3186,
      "▁1.": 3187,
      "▁March": 3188,
      "1997": 3189,
      "▁Development": 3190,
      ",[[": 3191,
      "-23": 3192,
      "5-0)": 3193,
      "_19": 3194,
      "f/": 3195,
      "क्र": 3196,
      "खाना": 3197,
      "योग": 3198,
      "ाच्या": 3199,
      "ణి": 3200,
      "తమిళ": 3201,
      "మైన": 3202,
      "హార": 3203,
      "ోర్": 3204,
      "▁\"ఇ": 3205,
      "▁\"భారత": 3206,
      "](https://te.wikipedia.org/wiki/బ": 3207,
      "▁Ch": 3208,
      "▁दिया": 3209,
      "▁आणि": 3210,
      "▁बढ़": 3211,
      "स्ला": 3212,
      "abad": 3213,
      "▁మొ": 3214,
      "पात": 3215,
      "నాగ": 3216,
      ".gov.in/": 3217,
      "త్తర": 3218,
      "under": 3219,
      "ులు\")": 3220,
      "▁स्थान": 3221,
      "वर्ग": 3222,
      "▁हुआ": 3223,
      "फ़रवरी": 3224,
      "गणना": 3225,
      "मेर": 3226,
      "▁लिए": 3227,
      "శ్మీ": 3228,
      "మూస:": 3229,
      "राष्ट्रपति": 3230,
      "censusindia.gov.in/2011": 3231,
      ".n": 3232,
      "7-0": 3233,
      "8-0)": 3234,
      "En": 3235,
      "ae": 3236,
      "ehr": 3237,
      "if": 3238,
      "lations": 3239,
      "▁we": 3240,
      "](https://en.wikipedia.org/wiki/H": 3241,
      "](https://en.wikipedia.org/wiki/The": 3242,
      "read": 3243,
      "omin": 3244,
      "▁includ": 3245,
      "▁summit\")": 3246,
      "etail": 3247,
      "▁caste": 3248,
      "ussia": 3249,
      "loy": 3250,
      "ilg": 3251,
      "ticles": 3252,
      "formatics": 3253,
      "▁2025": 3254,
      "▁general": 3255,
      "▁[*India": 3256,
      "▁\"Economy": 3257,
      "](https://en.wikipedia.org/wiki/Economy": 3258,
      "ivil": 3259,
      "ligious": 3260,
      ".indiatimes.com/": 3261,
      "-B": 3262,
      "6).": 3263,
      "cat": 3264,
      "way": 3265,
      "काल": 3266,
      "बर": 3267,
      "लंका": 3268,
      "वार": 3269,
      "▁लेख": 3270,
      "▁भाग": 3271,
      "▁[doi": 3272,
      "city": 3273,
      "▁पर्व": 3274,
      "र्जा": 3275,
      "inguis": 3276,
      "▁जून": 3277,
      "doc": 3278,
      "▁ext": 3279,
      "▁\"Doi": 3280,
      "ैदान": 3281,
      "oi_(identifier)": 3282,
      "▁(identifier)\"):[10.": 3283,
      "2).": 3284,
      "4/": 3285,
      "EO": 3286,
      "WEO": 3287,
      "cord": 3288,
      "get": 3289,
      "nam": 3290,
      "vol": 3291,
      "▁$": 3292,
      "▁Union": 3293,
      "tionary": 3294,
      "rain": 3295,
      "▁Times": 3296,
      "▁Reg": 3297,
      ".gov/": 3298,
      "_11": 3299,
      "rganisation": 3300,
      "wal": 3301,
      "हरी": 3302,
      "०१": 3303,
      "శా": 3304,
      "ైనా": 3305,
      "▁j": 3306,
      "▁ओ": 3307,
      "▁थी": 3308,
      "▁[ఇ": 3309,
      "▁[India": 3310,
      "teen": 3311,
      "▁\"జ": 3312,
      "eral_": 3313,
      "arn": 3314,
      "▁सु": 3315,
      "्यता": 3316,
      "▁India.": 3317,
      "ooperation": 3318,
      "](https://te.wikipedia.org/wiki/ఇ": 3319,
      "](https://te.wikipedia.org/wiki/స": 3320,
      "्त्र": 3321,
      "atar": 3322,
      "chool": 3323,
      "భారత_": 3324,
      "olk": 3325,
      "▁बन": 3326,
      "▁BRICS": 3327,
      "_(India)": 3328,
      "రాజ": 3329,
      "లో](https://te.wikipedia.org/wiki/": 3330,
      "రిజ": 3331,
      "క్కు": 3332,
      "हिमा": 3333,
      "ండ్": 3334,
      "जाति": 3335,
      "ow/": 3336,
      "eshow/": 3337,
      "धानमंत्री": 3338,
      "केर": 3339,
      "▁क्षेत्र\")": 3340,
      "पूर्": 3341,
      "्रीका": 3342,
      "](https://en.wikipedia.org/wiki/Doi_(identifier)": 3343,
      "ंबर": 3344,
      "▁period": 3345,
      "ovember": 3346,
      "क्स": 3347,
      "▁खाना\")": 3348,
      "माणु": 3349,
      "द्योगिकी": 3350,
      "▁दिसम्बर": 3351,
      "స్కృతి": 3352,
      "IMF": 3353,
      "▁[doi](https://en.wikipedia.org/wiki/Doi_(identifier)": 3354,
      "/S": 3355,
      "99": 3356,
      "ele": 3357,
      "▁time": 3358,
      "ini": 3359,
      "▁incre": 3360,
      "olper": 3361,
      "▁Fe": 3362,
      ".jpg/120px-": 3363,
      "▁Commissioner": 3364,
      "ffairs": 3365,
      "inguistic": 3366,
      "olpert": 3367,
      "5–": 3368,
      "6–": 3369,
      "C).": 3370,
      "स्व": 3371,
      "िन्": 3372,
      "िहार": 3373,
      "ूह": 3374,
      "ोष": 3375,
      "▁30": 3376,
      "tel": 3377,
      "▁\"ओ": 3378,
      "omas": 3379,
      "1950": 3380,
      "▁Sanskrit": 3381,
      "▁अरब": 3382,
      "ung": 3383,
      "्यात": 3384,
      "▁2008": 3385,
      "imalay": 3386,
      "हाय": 3387,
      "▁लोक": 3388,
      "bruary": 3389,
      "ublishing": 3390,
      "ikh": 3391,
      "▁प्राचीन": 3392,
      "▁शासन": 3393,
      "▁गणराज्य": 3394,
      ".aspx": 3395,
      "55": 3396,
      "6-0)": 3397,
      "72": 3398,
      "Craven": 3399,
      "cms": 3400,
      "slam": 3401,
      "ton": 3402,
      "yayan": 3403,
      "▁hi": 3404,
      "▁ref": 3405,
      "▁rate": 3406,
      "tes": 3407,
      "than": 3408,
      "](https://en.wikipedia.org/wiki/I": 3409,
      "19-9": 3410,
      "▁sh": 3411,
      "▁sup": 3412,
      "logo": 3413,
      "▁modern": 3414,
      "illion": 3415,
      "cean": 3416,
      "▁war": 3417,
      "▁one": 3418,
      "al_P": 3419,
      "▁War": 3420,
      "hina": 3421,
      "▁Press](https://en.wikipedia.org/wiki/": 3422,
      "econd": 3423,
      "olitics": 3424,
      "ultan": 3425,
      "ainting": 3426,
      "521-80": 3427,
      "atsyayan": 3428,
      "KulkeRothermund2004": 3429,
      "Hinduism": 3430,
      "tecture": 3431,
      "countries_by": 3432,
      "904-7": 3433,
      "_Island": 3434,
      "ricket": 3435,
      "ujarat": 3436,
      "Craven1997": 3437,
      "521-80904-7": 3438,
      "&s": 3439,
      ".htm": 3440,
      "LA": 3441,
      "bn": 3442,
      "s-": 3443,
      "tro": 3444,
      "ल्या": 3445,
      "ुंबई": 3446,
      "ैंड": 3447,
      "ం?action=edit&redlink=1": 3448,
      "చే": 3449,
      "బా": 3450,
      "▁राष्ट्र": 3451,
      "▁फ़रवरी": 3452,
      "▁[జ": 3453,
      "tex": 3454,
      "▁\"ह": 3455,
      "▁(eds.": 3456,
      "▁पह": 3457,
      "ict": 3458,
      "](https://hi.wikipedia.org/wiki/भारतीय": 3459,
      "](https://hi.wikipedia.org/wiki/भारत_की_": 3460,
      "▁अर्थ": 3461,
      "urn": 3462,
      "▁दर": 3463,
      "▁दृ": 3464,
      "▁प्रति": 3465,
      "▁प्रमुख": 3466,
      "▁పా": 3467,
      "▁बना": 3468,
      "विध": 3469,
      "▁2004": 3470,
      "▁వా": 3471,
      "त्तीस": 3472,
      "▁group": 3473,
      "ండు": 3474,
      "▁చూ": 3475,
      "త్వ": 3476,
      "▁states": 3477,
      "ప్రధాన": 3478,
      "▁తే": 3479,
      "हीं": 3480,
      "mbol": 3481,
      "▁द्वारा": 3482,
      "वेबैक": 3483,
      "▁मार्च": 3484,
      "minist": 3485,
      "▁0.": 3486,
      "\"):": 3487,
      "-14": 3488,
      "chin": 3489,
      "1990": 3490,
      "1162": 3491,
      "▁than": 3492,
      "▁northern": 3493,
      "▁[*The": 3494,
      "duction": 3495,
      "ervation": 3496,
      "Main": 3497,
      "_उ": 3498,
      "ahar": 3499,
      "back": 3500,
      "jan": 3501,
      "m.nic.in/": 3502,
      "ncl": 3503,
      "vatsyayan": 3504,
      "णे": 3505,
      "ाप": 3506,
      "ीमा": 3507,
      "ैल": 3508,
      "▁am": 3509,
      "▁29": 3510,
      "▁emp": 3511,
      "▁end": 3512,
      "▁[ओ": 3513,
      "▁[![](https://upload.wikimedia.org/wikipedia/commons/thumb/": 3514,
      "arge": 3515,
      "▁such": 3516,
      "▁जल": 3517,
      "▁दो": 3518,
      "▁भारतात": 3519,
      "](https://mr.wikipedia.org/wiki/स": 3520,
      "109": 3521,
      "▁later": 3522,
      "▁there": 3523,
      "वाद": 3524,
      "वादी": 3525,
      "▁art": 3526,
      "▁Language": 3527,
      "र्वो": 3528,
      "तेलु": 3529,
      "ांधी": 3530,
      "-108": 3531,
      "-107-1": 3532,
      "मुख्य": 3533,
      "_BRICS": 3534,
      "▁स्थाप": 3535,
      "athak": 3536,
      "▁million": 3537,
      "-in-": 3538,
      "-lord": 3539,
      "19-88": 3540,
      "▁classical": 3541,
      "श्रीलंका": 3542,
      "ehru": 3543,
      "nclm.nic.in/": 3544,
      "vatsyayan-lord": 3545,
      "c=": 3546,
      "ealth": 3547,
      "lor": 3548,
      "site": 3549,
      "utt": 3550,
      "ered": 3551,
      "▁(*": 3552,
      "ild": 3553,
      "state": 3554,
      "▁2017": 3555,
      "▁Min": 3556,
      "akh": 3557,
      "▁1947": 3558,
      "ankar": 3559,
      "lobal": 3560,
      "7-0)": 3561,
      "86": 3562,
      "JP": 3563,
      "National_": 3564,
      "_V": 3565,
      "_ए": 3566,
      "_సా": 3567,
      "_13": 3568,
      "d/": 3569,
      "lag": 3570,
      "ving": 3571,
      "y,": 3572,
      "किम": 3573,
      "खण्ड": 3574,
      "िला": 3575,
      "ेस": 3576,
      "ोम": 3577,
      "ంప": 3578,
      "కో": 3579,
      "గణ": 3580,
      "దిన": 3581,
      "నై": 3582,
      "రీ": 3583,
      "▁\"ल": 3584,
      "▁\"చ": 3585,
      "arliament": 3586,
      "](https://hi.wikipedia.org/wiki/इ": 3587,
      "भारतीय": 3588,
      "ould": 3589,
      "](https://te.wikipedia.org/wiki/జ": 3590,
      "ారం": 3591,
      "ammu": 3592,
      "▁Se": 3593,
      "▁वार": 3594,
      "▁2013": 3595,
      "▁Modern": 3596,
      "ticle": 3597,
      "▁British": 3598,
      "ताब्": 3599,
      "▁క్రీ": 3600,
      "క్‌": 3601,
      "నికి": 3602,
      "ల్ల": 3603,
      "ంగీ": 3604,
      "▁సి": 3605,
      "osed": 3606,
      "▁K.": 3607,
      "](https://hi.wikipedia.org/wiki/भारत#cite_ref-FOOTNOTE": 3608,
      "నాభా": 3609,
      "ांति": 3610,
      "▁हैं,": 3611,
      "జాబి": 3612,
      "Hindust": 3613,
      "erala": 3614,
      "रेल": 3615,
      "▁इसके": 3616,
      "वीं": 3617,
      "▁मुख्य": 3618,
      "पालिका": 3619,
      "▁सिनेमा": 3620,
      "▁శా": 3621,
      "▁భాష\")": 3622,
      "▁Environment": 3623,
      "బెంగ": 3624,
      "िक्किम": 3625,
      "वर्ग:": 3626,
      "▁February": 3627,
      "ताब्दी": 3628,
      "జాబితా": 3629,
      "BC": 3630,
      "a.": 3631,
      "cul": 3632,
      "rar": 3633,
      "ras": 3634,
      "war": 3635,
      "](https://en.wikipedia.org/wiki/O": 3636,
      "arly": 3637,
      "arna": 3638,
      "ed/": 3639,
      "▁(2018": 3640,
      "astern": 3641,
      "etra": 3642,
      "rim": 3643,
      "right": 3644,
      "atak": 3645,
      "▁mathe": 3646,
      "▁Per": 3647,
      "▁Pakistan": 3648,
      "istrar": 3649,
      "▁2019.": 3650,
      "olle": 3651,
      "Spear": 3652,
      "▁[\"C": 3653,
      "owland": 3654,
      "ouse": 3655,
      "MetcalfMetcalf2006),": 3656,
      "rowth": 3657,
      "▁who": 3658,
      "limate": 3659,
      "▁2018](https://en.wikipedia.org/wiki/India#CITEREF": 3660,
      "Harle1994": 3661,
      "](https://en.wikipedia.org/wiki/Economy_of_": 3662,
      ".IN": 3663,
      "5%": 3664,
      "UN": 3665,
      "len": 3666,
      "nal": 3667,
      "ंह": 3668,
      "दार": 3669,
      "धि": 3670,
      "भो": 3671,
      "रू": 3672,
      "रक्ष": 3673,
      "विक": 3674,
      "शक": 3675,
      "esearch": 3676,
      "नाम": 3677,
      "▁2015": 3678,
      "ताज": 3679,
      "_Sh": 3680,
      "▁2003": 3681,
      "▁[\"India": 3682,
      "ंग्रेस": 3683,
      "onstituent": 3684,
      "च्छ": 3685,
      "pura": 3686,
      "▁2021.\r\n": 3687,
      "भीम": 3688,
      "WEO.IN": 3689,
      "IMFWEO.IN": 3690,
      "-of": 3691,
      "9-0)": 3692,
      "Ludden": 3693,
      "Qu": 3694,
      "UCN": 3695,
      "_for": 3696,
      "tb": 3697,
      "yan": 3698,
      "▁under": 3699,
      "tig": 3700,
      "▁14": 3701,
      "errit": 3702,
      "do-A": 3703,
      "rown": 3704,
      "Wikipedia": 3705,
      "ector": 3706,
      "▁Act,": 3707,
      "2]](https://en.wikipedia.org/wiki/India#cite_note-FOOTNOTE": 3708,
      "3]](https://en.wikipedia.org/wiki/India#cite_note-FOOTNOTE": 3709,
      "Dikshit": 3710,
      "Empire": 3711,
      "European": 3712,
      "Schwartzberg": 3713,
      "can": 3714,
      "cent": 3715,
      "dones": 3716,
      "ner": 3717,
      "rm": 3718,
      "ria": 3719,
      "ua": 3720,
      "ura": 3721,
      "west": 3722,
      "छत्तीस": 3723,
      "झार": 3724,
      "त्या": 3725,
      "सिट": 3726,
      "ा:": 3727,
      "ॉल": 3728,
      "ौद्योगिकी": 3729,
      "చల్": 3730,
      "యన్": 3731,
      "షు": 3732,
      "ూర్": 3733,
      "▁भा": 3734,
      "▁[m": 3735,
      "▁[ह": 3736,
      "▁[చ": 3737,
      "▁[భారత": 3738,
      "▁[భారతీయ": 3739,
      "▁[हिन्दी": 3740,
      "▁[पुरा": 3741,
      "▁\"V": 3742,
      "▁\"पंजाब": 3743,
      "](https://en.wikipedia.org/wiki/V": 3744,
      "](https://en.wikipedia.org/wiki/South_Asia": 3745,
      "▁सर्": 3746,
      "▁industry": 3747,
      "rative": 3748,
      "](https://te.wikipedia.org/wiki/ప": 3749,
      "](https://te.wikipedia.org/wiki/భారతీయ": 3750,
      "ార్ట": 3751,
      "ingdom": 3752,
      "्ता:": 3753,
      "agar": 3754,
      "▁many": 3755,
      "ాలయ": 3756,
      "▁[↑](https://mr.wikipedia.org/wiki/भारत#cite_ref-": 3757,
      "ेशिया": 3758,
      "▁नदी": 3759,
      "▁long": 3760,
      "▁large": 3761,
      "24)": 3762,
      "క్క": 3763,
      "▁వ్యవస్థ": 3764,
      "aksh": 3765,
      "ast_Asia": 3766,
      "प्रा": 3767,
      "▁संबंध": 3768,
      "▁ము": 3769,
      "osi": 3770,
      "ండో": 3771,
      "िये": 3772,
      "utra": 3773,
      "ముంబ": 3774,
      "సిన": 3775,
      "▁ये": 3776,
      "ినల్": 3777,
      "ద్ద": 3778,
      "▁ఉన్న": 3779,
      "▁ఉన్నాయ": 3780,
      "▁rule": 3781,
      "िशा": 3782,
      "పాకిస్తాన్": 3783,
      "▁people": 3784,
      "ूरो": 3785,
      "पूर्वी": 3786,
      "ంధీ": 3787,
      "inistry_of_": 3788,
      "_संघ": 3789,
      "▁ఒక": 3790,
      "▁ఒరిజ": 3791,
      "Special:BookSources/978-81": 3792,
      "हित्य": 3793,
      "▁न्यायालय": 3794,
      "धिकारिक": 3795,
      "వంశం": 3796,
      "▁अगस्त": 3797,
      "▁(eds.).": 3798,
      "▁తేదీ": 3799,
      "▁among": 3800,
      "र्वोच्च": 3801,
      "DikshitSchwartzberg": 3802,
      "▁[पुरालेखित": 3803,
      "ార్టీ": 3804,
      "▁ఒరిజినల్": 3805,
      "DikshitSchwartzberg2023": 3806,
      "\"](https://books.google.com/books?id=": 3807,
      "3/": 3808,
      "_n": 3809,
      "aus": 3810,
      "▁[978": 3811,
      "▁[United": 3812,
      "▁Ac": 3813,
      "ssam": 3814,
      "▁union": 3815,
      "ances": 3816,
      "545": 3817,
      "98": 3818,
      "cog": 3819,
      "jec": 3820,
      "ph": 3821,
      "दर्": 3822,
      "निक": 3823,
      "मर": 3824,
      "लग": 3825,
      "ळे": 3826,
      "हन": 3827,
      "ाक": 3828,
      "िख": 3829,
      "ीन": 3830,
      "ोब": 3831,
      "▁out": 3832,
      "▁history": 3833,
      "▁[पंजाब": 3834,
      "religion": 3835,
      "2016": 3836,
      "र्ष": 3837,
      "-15": 3838,
      "uslim": 3839,
      "▁All": 3840,
      "▁अने": 3841,
      "▁Bank": 3842,
      "23)": 3843,
      ".com/news/": 3844,
      "118": 3845,
      "▁original](https://www.": 3846,
      "चेरी": 3847,
      "िरपे": 3848,
      "▁आहेत.": 3849,
      "ार्क": 3850,
      "▁2021.": 3851,
      "/articleshow/": 3852,
      "िरपेक्ष": 3853,
      "01": 3854,
      "7,": 3855,
      "7_": 3856,
      "Pro": 3857,
      "languages": 3858,
      "pic": 3859,
      "rg": 3860,
      "rof": 3861,
      "rdu": 3862,
      "work": 3863,
      "▁em": 3864,
      "pee": 3865,
      "▁\"India": 3866,
      "India_": 3867,
      "alore": 3868,
      "rac": 3869,
      "▁some": 3870,
      "▁Arab": 3871,
      "▁Afric": 3872,
      "achin": 3873,
      "angalore": 3874,
      "rol": 3875,
      "_Summit": 3876,
      "2905": 3877,
      "key": 3878,
      "ext": 3879,
      "ineering": 3880,
      "viol": 3881,
      "arket": 3882,
      "\"](https://web.archive.org/web/20160": 3883,
      "ynast": 3884,
      "_at_the": 3885,
      "▁economic": 3886,
      "_in_South_Asia": 3887,
      ".png)": 3888,
      "1162-2": 3889,
      "-107-11162-2": 3890,
      "19-882905": 3891,
      "erritory": 3892,
      "ast_Asia_Summit": 3893,
      "19-882905-8": 3894,
      ".fr": 3895,
      "6/": 3896,
      "_धर्म": 3897,
      "rd": 3898,
      "sch": 3899,
      "ymbol": 3900,
      "गत": 3901,
      "िवर्": 3902,
      "ील": 3903,
      "ेक": 3904,
      "జ్": 3905,
      "వరి": 3906,
      "శ్చ": 3907,
      "ిన్న": 3908,
      "ెల": 3909,
      "▁ra": 3910,
      "▁ला": 3911,
      "▁[च": 3912,
      "▁\"प": 3913,
      "▁\"భారతదేశ": 3914,
      "▁कु": 3915,
      "](https://hi.wikipedia.org/wiki/आ": 3916,
      "](https://hi.wikipedia.org/wiki/ओ": 3917,
      "](https://hi.wikipedia.org/wiki/ग": 3918,
      "tions": 3919,
      "▁सैन": 3920,
      "▁मध्य": 3921,
      "ical_": 3922,
      "్రె": 3923,
      "▁हा": 3924,
      "▁अप्र": 3925,
      "ालदीव": 3926,
      "▁12": 3927,
      "ियां": 3928,
      "](https://mr.wikipedia.org/wiki/क": 3929,
      "▁नी": 3930,
      "resident": 3931,
      "254": 3932,
      "1996": 3933,
      "िस्ट": 3934,
      "ాలు\r\n": 3935,
      "నిస్తాన్": 3936,
      "वायु": 3937,
      "▁इंडिया": 3938,
      "▁మధ్య": 3939,
      "▁[Asher": 3940,
      "▁Kashmir": 3941,
      "▁भाषाओं": 3942,
      "▁करने": 3943,
      "▁original](https://": 3944,
      "पर्यटन": 3945,
      "](https://te.wikipedia.org/wiki/భారతదేశంలో": 3946,
      "ंग्रेजी": 3947,
      "▁*[The": 3948,
      "స్థాన్": 3949,
      "endra": 3950,
      "▁मेला\")": 3951,
      "करण": 3952,
      "▁हुए": 3953,
      "ैदरा": 3954,
      "hrist": 3955,
      "meric": 3956,
      "▁धर्म\")": 3957,
      "पश्चिमी": 3958,
      "▁పేజీ": 3959,
      "▁कार्य": 3960,
      "orities": 3961,
      "మ్మూ": 3962,
      "▁Assembly": 3963,
      "नाडु": 3964,
      "▁\"భారతదేశంలో": 3965,
      "हिमाचल": 3966,
      "▁చూసిన": 3967,
      "▁తేదీ:": 3968,
      "▁अनेक": 3969,
      "శ్చి": 3970,
      "▁పేజీని": 3971,
      "2–": 3972,
      "84": 3973,
      "II": 3974,
      "ix": 3975,
      "▁imp": 3976,
      "tition": 3977,
      "ictionary": 3978,
      "▁since": 3979,
      "▁CE": 3980,
      "ulti": 3981,
      "▁R.": 3982,
      "ments": 3983,
      "▁Economic": 3984,
      "▁GDP": 3985,
      "_Centre": 3986,
      "ingham": 3987,
      ".svg/": 3988,
      "olden": 3989,
      "▁territory": 3990,
      "/auth": 3991,
      "3_": 3992,
      "300": 3993,
      "6]](https://en.wikipedia.org/wiki/India#cite_note-": 3994,
      "71": 3995,
      "94": 3996,
      "RL": 3997,
      "_घ": 3998,
      "ave": 3999,
      "detail": 4000,
      "eb": 4001,
      "election": 4002,
      "fgh": 4003,
      "iri": 4004,
      "jpg": 4005,
      "k:": 4006,
      "olog": 4007,
      "yle": 4008,
      "zation": 4009,
      "त्व": 4010,
      "थे": 4011,
      "दल": 4012,
      "लंग": 4013,
      "ेड": 4014,
      "▁he": 4015,
      "▁her": 4016,
      "▁चित्र": 4017,
      "dian": 4018,
      "▁[19": 4019,
      "▁\"Oxford": 4020,
      "ines": 4021,
      "inance": 4022,
      "ally": 4023,
      "itary": 4024,
      "2015": 4025,
      "2017": 4026,
      "▁social": 4027,
      "urton": 4028,
      "▁वे": 4029,
      "▁maj": 4030,
      "▁minister": 4031,
      "ility": 4032,
      "26)": 4033,
      "Special:EditPage/": 4034,
      "upta": 4035,
      "▁Nadu": 4036,
      "-317": 4037,
      "▁गु": 4038,
      "ains": 4039,
      "ainism": 4040,
      "▁उद्य": 4041,
      "apan": 4042,
      "▁...": 4043,
      "▁article": 4044,
      "ंडोन": 4045,
      "▁Official": 4046,
      "▁रहा": 4047,
      "s](https://en.wikipedia.org/wiki/M": 4048,
      "overe": 4049,
      "ते.": 4050,
      "ligence": 4051,
      "▁अनु": 4052,
      "ंध्र": 4053,
      "▁प्राप्त": 4054,
      "ैदिक": 4055,
      "▁tex": 4056,
      "ohn": 4057,
      "/article": 4058,
      "गुजराती": 4059,
      "▁भूम": 4060,
      "त्रिपुरा": 4061,
      "ources": 4062,
      "censusindia.gov.in/2011census": 4063,
      "teenth": 4064,
      "arnatak": 4065,
      "telligence": 4066,
      "Spear1990": 4067,
      "fghan": 4068,
      "Special:EditPage/Template:": 4069,
      "415": 4070,
      "Pages": 4071,
      "a-": 4072,
      "e/": 4073,
      "oa": 4074,
      "orest": 4075,
      "▁(1,": 4076,
      "itz": 4077,
      "▁Cons": 4078,
      "▁Raj": 4079,
      "▁land": 4080,
      "28)": 4081,
      "_New": 4082,
      "▁3,": 4083,
      "...": 4084,
      "▁used": 4085,
      "0)": 4086,
      "119": 4087,
      "3),": 4088,
      "91": 4089,
      "_द": 4090,
      "_राज": 4091,
      "hang": 4092,
      "i,": 4093,
      "ihar": 4094,
      "press": 4095,
      "ँच": 4096,
      "खन": 4097,
      "टि": 4098,
      "तट": 4099,
      "थल": 4100,
      "मह": 4101,
      "वली": 4102,
      "िज": 4103,
      "షన్": 4104,
      "హ్": 4105,
      "ెలు": 4106,
      "▁ले": 4107,
      "▁2.": 4108,
      "▁1998": 4109,
      "▁term": 4110,
      "▁[V": 4111,
      "▁[ल": 4112,
      "▁[Oxford": 4113,
      "▁\"च": 4114,
      "▁सद": 4115,
      "▁they": 4116,
      "▁India*](https://books.google.com/books?id=": 4117,
      "राठी": 4118,
      "](https://te.wikipedia.org/wiki/అ": 4119,
      "ety": 4120,
      "etary": 4121,
      "inger": 4122,
      "▁केन्द्र": 4123,
      "▁जी": 4124,
      "ेशन": 4125,
      "▁दिल्ली": 4126,
      "▁प्रकार": 4127,
      "▁नृत्य": 4128,
      "▁नहीं": 4129,
      "▁से](http://www.": 4130,
      "రియా": 4131,
      "▁शताब्दी": 4132,
      "▁మార్": 4133,
      "▁है।[[": 4134,
      "▁Wiki": 4135,
      "▁लग": 4136,
      "ournal": 4137,
      "own": 4138,
      "ప్రపంచ": 4139,
      "मुद्र": 4140,
      "ीपी": 4141,
      "विशेष:EditPage/": 4142,
      "▁वर्षा": 4143,
      "गणराज्य": 4144,
      "▁సంస్కృతి": 4145,
      "దీవ": 4146,
      "▁स्रोत/978-0-": 4147,
      "▁स्रोत/978-1": 4148,
      "](https://hi.wikipedia.org/wiki/विशेष:पुस्तक_स्रोत/978-0-": 4149,
      "](https://hi.wikipedia.org/wiki/विशेष:पुस्तक_स्रोत/978-1": 4150,
      "▁उत्पाद": 4151,
      "_साम्राज्य": 4152,
      "_Development": 4153,
      "union_territ": 4154,
      "▁चुनाव": 4155,
      "रेलू": 4156,
      "▁[पुरालेखित](https://web.archive.org/web/201": 4157,
      "विशेष:EditPage/साँचा:": 4158,
      "6]](https://en.wikipedia.org/wiki/India#cite_note-FOOTNOTE": 4159,
      "_In": 4160,
      "az": 4161,
      "garh": 4162,
      "owe": 4163,
      "▁ci": 4164,
      "▁oc": 4165,
      "▁\"United": 4166,
      "▁\"History": 4167,
      "](https://en.wikipedia.org/wiki/History": 4168,
      "19-5": 4169,
      "1970": 4170,
      "-06": 4171,
      "▁SAARC": 4172,
      "▁found": 4173,
      "ada": 4174,
      "▁trans": 4175,
      "▁both": 4176,
      "urban": 4177,
      "industry": 4178,
      "▁largest": 4179,
      "▁General": 4180,
      "ryan": 4181,
      "verse": 4182,
      "▁2026": 4183,
      "riculture": 4184,
      "reek": 4185,
      "ography": 4186,
      "▁play": 4187,
      "▁world's": 4188,
      "Articles": 4189,
      "▁2006](https://en.wikipedia.org/wiki/India#CITEREFMetcalfMetcalf2006),": 4190,
      "▁article:": 4191,
      "fghanistan": 4192,
      "▁occ": 4193,
      "3TR": 4194,
      "Ag": 4195,
      "_en": 4196,
      "ao": 4197,
      "गू": 4198,
      "तन": 4199,
      "बी": 4200,
      "मिक": 4201,
      "लया": 4202,
      "वास": 4203,
      "enn": 4204,
      "Informatics": 4205,
      "्यान": 4206,
      "▁मैदान": 4207,
      "rature": 4208,
      "-00": 4209,
      "▁Al": 4210,
      "▁व्या": 4211,
      "ISO": 4212,
      "▁बंगाल": 4213,
      "▁ते": 4214,
      "25)": 4215,
      "india-g": 4216,
      "▁Nations": 4217,
      "harm": 4218,
      "▁संसद": 4219,
      "imf": 4220,
      "_मंदिर": 4221,
      "ffer": 4222,
      "ffice": 4223,
      "▁होती": 4224,
      "-pro": 4225,
      "ुरू": 4226,
      "actbook": 4227,
      "rishn": 4228,
      "▁लेख:": 4229,
      "3TRt": 4230,
      "127": 4231,
      "9).": 4232,
      "bank": 4233,
      "i-": 4234,
      "itt": 4235,
      "stitu": 4236,
      "▁/": 4237,
      "ancy": 4238,
      "▁(20": 4239,
      "▁Science": 4240,
      "onsoon": 4241,
      "▁India\").": 4242,
      "ubcontinent": 4243,
      "▁north": 4244,
      "▁Fr": 4245,
      "▁status": 4246,
      "-india-": 4247,
      "CS1\\_": 4248,
      "formation": 4249,
      ".aspx?": 4250,
      "*)": 4251,
      "-विज्ञान": 4252,
      "1-1": 4253,
      "4-108": 4254,
      "63": 4255,
      "Robb": 4256,
      "Sharma": 4257,
      "_J": 4258,
      "_వ": 4259,
      "_with": 4260,
      "britannica": 4261,
      "gram": 4262,
      "hal": 4263,
      "ili": 4264,
      "lack": 4265,
      "ning": 4266,
      "ov": 4267,
      "ris": 4268,
      "ंट": 4269,
      "ईरा": 4270,
      "पान": 4271,
      "फल": 4272,
      "फ्रीका": 4273,
      "र-": 4274,
      "वेश": 4275,
      "षय": 4276,
      "सून": 4277,
      "ीच": 4278,
      "ेघ": 4279,
      "ం\"),": 4280,
      "ంత్రి": 4281,
      "ఆఫ్": 4282,
      "కత": 4283,
      "కై": 4284,
      "క్య": 4285,
      "దాయ": 4286,
      "రే": 4287,
      "లంక": 4288,
      "వీ": 4289,
      "శ్రీ": 4290,
      "షి": 4291,
      "సు": 4292,
      "▁ఏ": 4293,
      "](Category:": 4294,
      "▁[सा": 4295,
      "▁[సి": 4296,
      "▁[दक्षिण": 4297,
      "▁\"दक्षिण": 4298,
      "▁\"हिन्दी": 4299,
      "▁\"पाकिस्तान": 4300,
      "aran": 4301,
      "ess/": 4302,
      "▁कई": 4303,
      "▁कश्मीर": 4304,
      "](https://hi.wikipedia.org/wiki/हिन्दी": 4305,
      "](https://hi.wikipedia.org/wiki/पंजाब": 4306,
      "reme": 4307,
      "▁(India": 4308,
      "▁महासागर": 4309,
      "▁पश्चि": 4310,
      "icon": 4311,
      "](https://te.wikipedia.org/wiki/చ": 4312,
      "▁sp": 4313,
      "▁power": 4314,
      "▁Company": 4315,
      "▁Summit\")": 4316,
      "los": 4317,
      "▁member": 4318,
      "road": 4319,
      "స్సా": 4320,
      "▁పరి": 4321,
      "▁పార్టీ": 4322,
      "▁आधिकारिक": 4323,
      "▁बीच": 4324,
      "emale": 4325,
      "న్‌": 4326,
      "▁Bengal": 4327,
      "▁Delhi": 4328,
      "▁से](http://": 4329,
      "▁Gandhi": 4330,
      "▁కు": 4331,
      "लेट": 4332,
      "▁వచ్చ": 4333,
      "▁इन": 4334,
      "epal": 4335,
      "▁\"Category:": 4336,
      "ముద్ర": 4337,
      "हाद्वीप": 4338,
      "▁began": 4339,
      "तेलंग": 4340,
      "ूनिवर्": 4341,
      "▁करोड़": 4342,
      "न्दा": 4343,
      "न्दिर": 4344,
      "ock": 4345,
      "▁[अंग्रेज़ी": 4346,
      "▁\"अंग्रेज़ी": 4347,
      "हरिया": 4348,
      "uddhism": 4349,
      "ibet": 4350,
      "▁राजनी": 4351,
      "engali": 4352,
      "▁\"National": 4353,
      "articles": 4354,
      "ultural": 4355,
      "_pro": 4356,
      "గాంధీ": 4357,
      "▁जनगणना": 4358,
      "▁हैं।\r\n": 4359,
      "ष्ण": 4360,
      "ब्ब": 4361,
      "ducation": 4362,
      "నేపాల": 4363,
      "Oxford_University_Press": 4364,
      "Stein2010),": 4365,
      "usiness/": 4366,
      "▁जिसमें": 4367,
      "▁పేరు": 4368,
      "హిందీ": 4369,
      "▁द्वीप": 4370,
      "हिन्दू": 4371,
      "▁Empire\")": 4372,
      "▁कारण": 4373,
      "074-108": 4374,
      "गोआ": 4375,
      "_मेला?action=edit&redlink=1": 4376,
      "▁చెయ్య": 4377,
      "esert": 4378,
      "▁स्थित": 4379,
      "ोर्ड": 4380,
      "▁కూడా": 4381,
      "▁संस्कृति": 4382,
      "▁2010](https://en.wikipedia.org/wiki/India#CITEREFStein2010),": 4383,
      "-78074-108": 4384,
      "▁high": 4385,
      "▁Press](https://en.wikipedia.org/wiki/Oxford_University_Press": 4386,
      "ultanate": 4387,
      "ministrative": 4388,
      "ంగీతం": 4389,
      "yanmar": 4390,
      "do-Aryan": 4391,
      "झारखंड": 4392,
      "ముంబై": 4393,
      "rgani": 4394,
      "శ్చిమ": 4395,
      "Spear199024": 4396,
      "▁మార్గ": 4397,
      "britannica.com/": 4398,
      "gramme": 4399,
      "ूनिवर्सिट": 4400,
      "▁[अंग्रेज़ी](https://hi.wikipedia.org/wiki/अ": 4401,
      "▁చెయ్యబడ": 4402,
      "-78074-108-6": 4403,
      "-India": 4404,
      "130": 4405,
      "54": 4406,
      ";\r\n": 4407,
      "c.": 4408,
      "ho": 4409,
      "ie": 4410,
      "ities": 4411,
      "ks": 4412,
      "ling": 4413,
      "t-": 4414,
      "ins": 4415,
      "hief": 4416,
      "ement": 4417,
      "105": 4418,
      "▁David": 4419,
      "▁2005": 4420,
      "akhand": 4421,
      "epart": 4422,
      "▁Valley": 4423,
      "▁left": 4424,
      "▁States": 4425,
      "-largest": 4426,
      "-language\\_": 4427,
      "-to-": 4428,
      "epartment": 4429,
      ".world": 4430,
      "110": 4431,
      "2,": 4432,
      "5/": 4433,
      "CL": 4434,
      "Re": 4435,
      "Report": 4436,
      "ey": 4437,
      "eval": 4438,
      "भर": 4439,
      "मध्ये": 4440,
      "ाय": 4441,
      "▁५": 4442,
      "▁50": 4443,
      "▁[पाकिस्तान": 4444,
      "▁C.": 4445,
      "▁Con": 4446,
      "local": 4447,
      "▁maint:": 4448,
      "▁made": 4449,
      "▁Pl": 4450,
      "▁11": 4451,
      "▁2011.": 4452,
      "▁आर्थिक": 4453,
      "▁total": 4454,
      "index": 4455,
      "क्षर": 4456,
      "िस्": 4457,
      "षाण": 4458,
      "▁[\"The": 4459,
      "ंडी": 4460,
      "▁रो": 4461,
      "def": 4462,
      "_Delhi": 4463,
      "▁देश\")": 4464,
      "▁depend": 4465,
      "ालीन": 4466,
      "रुणा": 4467,
      "पीठ": 4468,
      "ुरक्षा": 4469,
      "edieval": 4470,
      "गातील": 4471,
      "▁साम्राज्य\")": 4472,
      "▁पर्वत": 4473,
      "cogni": 4474,
      "Informatics_Centre": 4475,
      "रुणाचल": 4476,
      "-C": 4477,
      ".bn": 4478,
      "124": 4479,
      "1-3": 4480,
      "Congress": 4481,
      "_9": 4482,
      "be": 4483,
      "mal": 4484,
      "pres": 4485,
      "oral": 4486,
      "▁[p": 4487,
      "anor": 4488,
      "thnic": 4489,
      "](https://en.wikipedia.org/wiki/South": 4490,
      "tice": 4491,
      "eries": 4492,
      "arl": 4493,
      "aria": 4494,
      "aldi": 4495,
      "cip": 4496,
      "▁(2006": 4497,
      "asing": 4498,
      "icha": 4499,
      "▁prime": 4500,
      "ament": 4501,
      "lowing": 4502,
      "urch": 4503,
      "states": 4504,
      "003": 4505,
      "▁Be": 4506,
      "sian": 4507,
      "ly,": 4508,
      ".[[3": 4509,
      "▁From": 4510,
      "aputra": 4511,
      "](https://web.archive.org/web/200": 4512,
      "otals": 4513,
      "s](https://en.wikipedia.org/wiki/List_of_": 4514,
      "undament": 4515,
      "avy": 4516,
      "ommonwealth": 4517,
      "_Temple": 4518,
      "order": 4519,
      "rough": 4520,
      "histor": 4521,
      "_East_Asia_Summit": 4522,
      "qual": 4523,
      "](https://en.wikipedia.org/wiki/List_of_countries_by": 4524,
      "/cb": 4525,
      "▁lead": 4526,
      "flu": 4527,
      "▁York": 4528,
      "rahmaputra": 4529,
      "emocracy": 4530,
      "▁(India)\")": 4531,
      "rganization": 4532,
      "aldives": 4533,
      "ichael": 4534,
      "9,": 4535,
      "Wolpert": 4536,
      "_2": 4537,
      "glia": 4538,
      "zed": 4539,
      "पि": 4540,
      "भु": 4541,
      "भ्यता": 4542,
      "शन": 4543,
      "हरा": 4544,
      "१८": 4545,
      "గర": 4546,
      "టక": 4547,
      "టా": 4548,
      "దార": 4549,
      "నీ": 4550,
      "రో": 4551,
      "సభ": 4552,
      "ెద్ద": 4553,
      "▁[ड": 4554,
      "▁[प": 4555,
      "▁\"సి": 4556,
      "▁कुल": 4557,
      "](https://hi.wikipedia.org/wiki/ल": 4558,
      "](https://hi.wikipedia.org/wiki/ह": 4559,
      "ret": 4560,
      "भारत)": 4561,
      "▁सूचना": 4562,
      "as,": 4563,
      "lect": 4564,
      "](https://te.wikipedia.org/wiki/భారత_": 4565,
      "र्ज": 4566,
      "ams": 4567,
      "ata_": 4568,
      "](https://hi.wikipedia.org/wiki/भारत_का_": 4569,
      "▁अव": 4570,
      "▁movement": 4571,
      "▁दशक": 4572,
      "▁పు": 4573,
      "▁Mon": 4574,
      "▁नद": 4575,
      "emon": 4576,
      "तात.": 4577,
      "▁D.": 4578,
      "_सि": 4579,
      "రాజ్య": 4580,
      "▁కేంద్రపాలిత": 4581,
      "elang": 4582,
      "▁शक्ति": 4583,
      "▁[मध्य": 4584,
      "▁మా": 4585,
      "हिमालय": 4586,
      "▁చే": 4587,
      "ము\")": 4588,
      "▁\"मध्य": 4589,
      "▁लोग": 4590,
      "త్స": 4591,
      "▁రాజ్య": 4592,
      "▁क्षेत्रीय": 4593,
      "▁area": 4594,
      "వాతంత్ర": 4595,
      "ivis": 4596,
      "▁जाती": 4597,
      "जनसंख्या": 4598,
      "▁वर्ग": 4599,
      "▁जनसंख्या": 4600,
      "द्वार": 4601,
      "▁దేశాల": 4602,
      "లాదేశ్": 4603,
      "]](https://hi.wikipedia.org/wiki/भारत#cite_note-FOOTNOTEStein1998": 4604,
      "]](https://hi.wikipedia.org/wiki/भारत#cite_note-FOOTNOTESingh2009": 4605,
      "స్తు": 4606,
      "▁సామ్రాజ్యం](https://te.wikipedia.org/wiki/": 4607,
      "ంగ్లాదేశ్": 4608,
      "▁భాషలు": 4609,
      "ారు.": 4610,
      ".svg.png)": 4611,
      ".html)": 4612,
      "_ప్రా": 4613,
      "fication": 4614,
      "त्तराखण्ड": 4615,
      "▁estim": 4616,
      "్రిటి": 4617,
      "▁शिक्षा": 4618,
      "▁అధికార": 4619,
      "▁अर्थव्यवस्था": 4620,
      "ildlife": 4621,
      "etraglia": 4622,
      "ताजमह": 4623,
      "ూర్పు": 4624,
      "▁[हिन्दी](https://hi.wikipedia.org/wiki/हिन्दी": 4625,
      "▁अप्रैल": 4626,
      "ैदराबाद": 4627,
      "3TRtDwAAQBAJ&pg=PA": 4628,
      "కైవు": 4629,
      "ंडीगढ़": 4630,
      "318": 4631,
      "vid": 4632,
      "▁ed.).": 4633,
      "▁[c": 4634,
      "reed": 4635,
      "▁country": 4636,
      "▁Sec": 4637,
      "lopedia": 4638,
      "▁Publishing": 4639,
      "21)": 4640,
      "▁Tamil": 4641,
      "▁Di": 4642,
      "▁Ex": 4643,
      "▁Himalay": 4644,
      "ounci": 4645,
      "imach": 4646,
      "▁Press,": 4647,
      "olitic": 4648,
      "odiversity": 4649,
      "▁2019.\r\n": 4650,
      "cript": 4651,
      "cyclopedia": 4652,
      "apita": 4653,
      "ustralia": 4654,
      "ociety": 4655,
      "document": 4656,
      "-S": 4657,
      "-and": 4658,
      "-29": 4659,
      "129": 4660,
      "7]](https://en.wikipedia.org/wiki/India#cite_note-FOOTNOTE": 4661,
      "IJ": 4662,
      "Library": 4663,
      "Rowland": 4664,
      "SAARC": 4665,
      "Un": 4666,
      "af": 4667,
      "aury": 4668,
      "ject": 4669,
      "kar": 4670,
      "lance": 4671,
      "sur": 4672,
      "shar": 4673,
      "uth": 4674,
      "ym": 4675,
      "ंच": 4676,
      "कालीन": 4677,
      "टा": 4678,
      "बेट": 4679,
      "मो": 4680,
      "ृद्ध": 4681,
      "▁his": 4682,
      "orce": 4683,
      "ortheast": 4684,
      "▁\"[": 4685,
      "onom": 4686,
      "hib": 4687,
      "aries": 4688,
      "20)": 4689,
      "▁काल": 4690,
      "leg": 4691,
      "▁south": 4692,
      "rig": 4693,
      "-135": 4694,
      "▁co": 4695,
      "ages/": 4696,
      "▁अभ": 4697,
      "▁विस्त": 4698,
      "▁mar": 4699,
      "mrits": 4700,
      "olon": 4701,
      "00)": 4702,
      "linkim": 4703,
      "▁River": 4704,
      "](https://mr.wikipedia.org/wiki/अ": 4705,
      "](https://mr.wikipedia.org/wiki/आ": 4706,
      "्वे": 4707,
      "▁काळ": 4708,
      "aylor": 4709,
      "क्षद्वीप": 4710,
      "▁Ge": 4711,
      "force": 4712,
      "▁शहर": 4713,
      "](https://en.wikipedia.org/wiki/India#CITEREFB": 4714,
      "abha": 4715,
      "asting": 4716,
      "▁non-": 4717,
      "काता": 4718,
      "udi": 4719,
      "▁विविध": 4720,
      "ummer": 4721,
      "overty": 4722,
      "ternal": 4723,
      "चेन्न": 4724,
      "ोलकाता": 4725,
      "operation": 4726,
      "ublication": 4727,
      "ज्ज": 4728,
      "तमिळ": 4729,
      "▁२०१": 4730,
      "do-P": 4731,
      "\")*,": 4732,
      "%E0%A4%A": 4733,
      "िवस": 4734,
      "शासित_प्रदेश": 4735,
      "-lead": 4736,
      "NGDP": 4737,
      "nclm.nic.in/shar": 4738,
      "ed/linkim": 4739,
      "भीमबेट": 4740,
      "donesia": 4741,
      "▁सैन्य": 4742,
      "india-glance": 4743,
      "Rowland1970": 4744,
      "चेन्नई": 4745,
      "nclm.nic.in/shared/linkim": 4746,
      "भीमबेटका": 4747,
      "india-glance/": 4748,
      "nclm.nic.in/shared/linkimages/": 4749,
      "-22": 4750,
      "/P": 4751,
      "219": 4752,
      "53": 4753,
      "All": 4754,
      "QAAQBAJ&pg=PA": 4755,
      "dr": 4756,
      "ser": 4757,
      "ors": 4758,
      "arath": 4759,
      "ominal": 4760,
      "educ": 4761,
      "▁(19": 4762,
      "▁S.": 4763,
      "\\_us": 4764,
      "vel": 4765,
      "▁western": 4766,
      "▁Republic": 4767,
      "-30": 4768,
      "▁human": 4769,
      "▁Linguistic": 4770,
      "visions": 4771,
      ".php?": 4772,
      "education": 4773,
      "-n": 4774,
      "-with": 4775,
      ".ni": 4776,
      "09": 4777,
      "DD": 4778,
      "_इ": 4779,
      "ple": 4780,
      "public": 4781,
      "rial": 4782,
      "s\r\n": 4783,
      "ंची": 4784,
      "को": 4785,
      "तृत": 4786,
      "फ्र": 4787,
      "महाद्वीप": 4788,
      "यपुर": 4789,
      "रण": 4790,
      "लों": 4791,
      "लिस": 4792,
      "श्य": 4793,
      "सि": 4794,
      "ంజా": 4795,
      "గి": 4796,
      "టీ": 4797,
      "టాన్": 4798,
      "మంత్రి": 4799,
      "లను": 4800,
      "వె": 4801,
      "వరణ": 4802,
      "హదార": 4803,
      "ూచ": 4804,
      "▁హ": 4805,
      "▁భారతదేశ": 4806,
      ".org": 4807,
      "▁[4": 4808,
      "▁\"व": 4809,
      "▁\"सा": 4810,
      "▁\"तमिल": 4811,
      "on,": 4812,
      "arli": 4813,
      "▁कॉ": 4814,
      "](https://hi.wikipedia.org/wiki/च": 4815,
      "them": 4816,
      "्यों": 4817,
      "్రమ": 4818,
      "ानव": 4819,
      "ing_": 4820,
      "ेंज": 4821,
      "url": 4822,
      "▁P.": 4823,
      "▁दोन": 4824,
      "▁प्रधानमंत्री": 4825,
      "▁प्रौद्योगिकी": 4826,
      "▁आशिया": 4827,
      "▁भारत\")": 4828,
      "्वतंत्रता": 4829,
      "▁ब्रिटिश": 4830,
      "భారతదేశ_": 4831,
      "▁కొ": 4832,
      "-3)": 4833,
      "▁వ్యా": 4834,
      "▁new": 4835,
      "▁J.": 4836,
      "▁మత": 4837,
      "▁మతము": 4838,
      "good": 4839,
      "160": 4840,
      "स्तान": 4841,
      "ियार": 4842,
      "తావరణ": 4843,
      "నాడు": 4844,
      "▁राज्य\")": 4845,
      "ांची": 4846,
      "परमाणु": 4847,
      "ोलन": 4848,
      "▁ఉంది.": 4849,
      "▁राजधान": 4850,
      "▁राजवंश": 4851,
      "गुप्त": 4852,
      "▁life": 4853,
      "▁ఇతర": 4854,
      "▁मेला](https://hi.wikipedia.org/wiki/": 4855,
      "ాయి": 4856,
      "economic": 4857,
      "ship": 4858,
      "ణాసియా": 4859,
      "pringer": 4860,
      "▁right": 4861,
      "▁था।": 4862,
      "టెడ్": 4863,
      "▁ఆర్కైవు": 4864,
      "▁पार्टी": 4865,
      "▁निर्माण": 4866,
      "▁ऑफ": 4867,
      "िंधु": 4868,
      "▁రైలు": 4869,
      "భూటాన్": 4870,
      "pectancy": 4871,
      "▁पहले": 4872,
      "तेलुगू": 4873,
      "_సామ్రాజ్యం": 4874,
      "▁सर्वा": 4875,
      "▁चुनावों": 4876,
      "▁\"पाकिस्तान\")": 4877,
      "Wolpert2003": 4878,
      "వాతంత్ర్య": 4879,
      "\"[[": 4880,
      "2]](https://en.wikipedia.org/wiki/India#cite_note-": 4881,
      "2-4": 4882,
      "Gua": 4883,
      "JIJ": 4884,
      "Zva": 4885,
      "_14": 4886,
      "aha": 4887,
      "ez": 4888,
      "ham": 4889,
      "lurton": 4890,
      "rid": 4891,
      "s_of_India": 4892,
      "▁urban": 4893,
      "ency": 4894,
      "erry": 4895,
      "arendra": 4896,
      "▁them": 4897,
      "icob": 4898,
      "▁India](https://en.wikipedia.org/wiki/G": 4899,
      "▁influ": 4900,
      "rat": 4901,
      "ravi": 4902,
      "▁pre": 4903,
      "▁painting": 4904,
      "-16": 4905,
      "ature": 4906,
      "lief": 4907,
      "▁dire": 4908,
      "▁app": 4909,
      "nium": 4910,
      "▁Data": 4911,
      "ayback": 4912,
      "▁Europe": 4913,
      "▁eastern": 4914,
      "▁1960": 4915,
      "▁[\"A": 4916,
      "uduch": 4917,
      "▁Lank": 4918,
      "-90": 4919,
      "▁Kingdom": 4920,
      "ots": 4921,
      "▁[↑](https://en.wikipedia.org/wiki/India#cite_ref-FOOTNOTEMetcalfMetcalf2006": 4922,
      "avi": 4923,
      "_Nadu": 4924,
      "ikkim": 4925,
      "general_": 4926,
      "amil_Nadu": 4927,
      "▁1994": 4928,
      "▁contrib": 4929,
      "_Indian_general_": 4930,
      "urrent": 4931,
      "▁dispu": 4932,
      "%7C": 4933,
      "%7c": 4934,
      "volution": 4935,
      "▁employ": 4936,
      "quality": 4937,
      "GuaJIJ": 4938,
      "ZvaGuaJIJ": 4939,
      "uducherry": 4940,
      "_Indian_general_election": 4941,
      "ZvaGuaJIJgo": 4942,
      "-50": 4943,
      "/ark": 4944,
      "3,": 4945,
      "320": 4946,
      "9–": 4947,
      "New": 4948,
      "National": 4949,
      "Vu": 4950,
      "ZVu": 4951,
      "_प": 4952,
      "_श": 4953,
      "_on": 4954,
      "_राज्य": 4955,
      "f.fr": 4956,
      "kZVu": 4957,
      "map": 4958,
      "णाली": 4959,
      "दु": 4960,
      "निरपेक्ष": 4961,
      "रि": 4962,
      "र\")": 4963,
      "ुक": 4964,
      "४७": 4965,
      "५०": 4966,
      "▁३": 4967,
      ":/121": 4968,
      "▁[वि": 4969,
      "▁\"य": 4970,
      "208": 4971,
      "▁साल": 4972,
      "▁सभा": 4973,
      "▁मिल": 4974,
      "राम": 4975,
      "▁second": 4976,
      "ripura": 4977,
      "217": 4978,
      "▁भारताच्या": 4979,
      "](https://mr.wikipedia.org/wiki/इ": 4980,
      "](https://mr.wikipedia.org/wiki/ब": 4981,
      "▁नव": 4982,
      "akes": 4983,
      "ियन": 4984,
      "▁\"महाराष्ट्र": 4985,
      "ांत": 4986,
      "anipur": 4987,
      "48/cb": 4988,
      "▁नेतृत": 4989,
      "hya": 4990,
      "शीन": 4991,
      "▁economy": 4992,
      "cyclop": 4993,
      "धुनिक": 4994,
      "Uttarakhand": 4995,
      "hasha": 4996,
      "पूर्ण": 4997,
      "▁Minorities": 4998,
      "▁चित्रपट": 4999,
      ".bnf.fr": 5000,
      "/ark:/121": 5001,
      ".bnf.fr/ark:/121": 5002,
      ".bnf.fr/ark:/12148/cb": 5003,
      "-on-": 5004,
      "3-8": 5005,
      "NA": 5006,
      "bb": 5007,
      "cess": 5008,
      "cise": 5009,
      "gra": 5010,
      "hra": 5011,
      "ii": 5012,
      "▁6.": 5013,
      "tered": 5014,
      "es,": 5015,
      "estic": 5016,
      "▁culture": 5017,
      "▁billion": 5018,
      "urve": 5019,
      "26.": 5020,
      "▁Government": 5021,
      "ritsch": 5022,
      "▁Indus": 5023,
      "▁Ocean": 5024,
      "ource": 5025,
      "ogue": 5026,
      "MetcalfMetcalf2012": 5027,
      "▁[National": 5028,
      "▁2,": 5029,
      "8/8": 5030,
      "duct": 5031,
      ".html).": 5032,
      "cording": 5033,
      "text": 5034,
      "National_Informatics_Centre": 5035,
      "National_Informatics_Centre2005": 5036,
      "/D": 5037,
      "4]](https://en.wikipedia.org/wiki/India#cite_note-": 5038,
      "5]](https://en.wikipedia.org/wiki/India#cite_note-FOOTNOTE": 5039,
      "Kashmir": 5040,
      "Taj": 5041,
      "aut": 5042,
      "each": 5043,
      "iz": 5044,
      "ka": 5045,
      "lood": 5046,
      "oard": 5047,
      "ward": 5048,
      "yer": 5049,
      "yam": 5050,
      "अभि": 5051,
      "एन": 5052,
      "जं": 5053,
      "दि": 5054,
      "ध्या": 5055,
      "नु": 5056,
      "न्तर": 5057,
      "फोर्ड": 5058,
      "मरी": 5059,
      "मिल": 5060,
      "मृत": 5061,
      "यत": 5062,
      "ळी": 5063,
      "शोक": 5064,
      "ी.": 5065,
      "ैंक": 5066,
      "ोली": 5067,
      "ौसेना": 5068,
      "्ह": 5069,
      "२००": 5070,
      "ంశ": 5071,
      "ఆర్": 5072,
      "ఉత్తర": 5073,
      "ఒడి": 5074,
      "కీయ": 5075,
      "గలు": 5076,
      "చు": 5077,
      "జరా": 5078,
      "తూర్పు": 5079,
      "భు": 5080,
      "మన్": 5081,
      "యి": 5082,
      "లస": 5083,
      "ీన": 5084,
      "ేక": 5085,
      "▁,": 5086,
      "▁·": 5087,
      "▁औ": 5088,
      "▁డ": 5089,
      "▁im": 5090,
      "▁జాబితా": 5091,
      "iam": 5092,
      "pecial": 5093,
      "▁[य": 5094,
      "▁[భారతదేశ": 5095,
      "▁\"ड": 5096,
      "esti": 5097,
      "▁किन": 5098,
      "](https://hi.wikipedia.org/wiki/दक्षिण": 5099,
      "](https://hi.wikipedia.org/wiki/पाकिस्तान": 5100,
      "report": 5101,
      "▁सह": 5102,
      "▁मौ": 5103,
      "ootb": 5104,
      "ानगर": 5105,
      "▁summits": 5106,
      "](https://hi.wikipedia.org/wiki/भारत_के": 5107,
      "▁far": 5108,
      "\"),[[": 5109,
      "ver,": 5110,
      "ists": 5111,
      "ular": 5112,
      "uled": 5113,
      "hell": 5114,
      "▁जय": 5115,
      "▁women": 5116,
      "▁పట్ట": 5117,
      "](https://mr.wikipedia.org/wiki/ज": 5118,
      "](https://mr.wikipedia.org/wiki/चित्र:": 5119,
      "▁**జాతీయ": 5120,
      "ర్\")": 5121,
      "▁तर": 5122,
      "न्स": 5123,
      "253": 5124,
      "▁काम": 5125,
      "ित्त": 5126,
      "ecu": 5127,
      "▁Gu": 5128,
      "▁November": 5129,
      "▁Nehru": 5130,
      "architecture": 5131,
      "నిక": 5132,
      "▁report": 5133,
      "▁relations": 5134,
      "थाई": 5135,
      "▁उन": 5136,
      "▁1965": 5137,
      "▁[महाराष्ट्र": 5138,
      "ంగ్రె": 5139,
      "▁సభ": 5140,
      "osp": 5141,
      "▁forest": 5142,
      "ड़ियाँ": 5143,
      "▁gre": 5144,
      "▁विदेश": 5145,
      "తాబ్": 5146,
      "law": 5147,
      "matic": 5148,
      "▁राज्यक्षेत्र": 5149,
      "arty": 5150,
      "aves": 5151,
      "▁ప్రపంచ": 5152,
      "▁ప్రభు": 5153,
      "oreign": 5154,
      "iley": 5155,
      "केन्द्र": 5156,
      "▁अन्त": 5157,
      "▁क्षेत्रों": 5158,
      "_summits": 5159,
      "▁ఆసియా": 5160,
      "▁खास": 5161,
      "▁[Government": 5162,
      "athura": 5163,
      "మ్రాజ్య": 5164,
      "▁जनवरी": 5165,
      "पुरम": 5166,
      "▁मेला\"),": 5167,
      "णिपुरी": 5168,
      "▁हिन्द": 5169,
      "ंग्रेज़ी_भाषा": 5170,
      "▁technology": 5171,
      "ब्ल": 5172,
      "timesofindia": 5173,
      "గుజరా": 5174,
      "](https://en.wikipedia.org/wiki/List_of_SAARC": 5175,
      "ज्ञाप": 5176,
      "▁regions": 5177,
      "▁[![A": 5178,
      "ashmiri": 5179,
      "समिया": 5180,
      "alayal": 5181,
      "ancis": 5182,
      "▁సామ్రాజ్యం\")": 5183,
      "▁Hinduism": 5184,
      "▁State": 5185,
      "▁स्वतंत्रता": 5186,
      "▁मानसून": 5187,
      "ंपनी": 5188,
      "बंधन": 5189,
      "▁पुरालेखित।,": 5190,
      "awahar": 5191,
      "▁युग": 5192,
      "త్యేక": 5193,
      "రాష్ట్రపతి": 5194,
      "kingdom": 5195,
      "ప్ప": 5196,
      "_और_संघ": 5197,
      "▁కాశ్మీ": 5198,
      "▁రాజవంశం": 5199,
      "▁बहुत": 5200,
      "_के_आधार_पर_भारत_के_राज्यों_की_सूची": 5201,
      "▁చెంద": 5202,
      "बांग्लादेश": 5203,
      "▁ఆర్ధిక": 5204,
      "eserve": 5205,
      "%20%20%20%20": 5206,
      "नागाल": 5207,
      "oint": 5208,
      "▁స్థాన": 5209,
      "▁ईसा": 5210,
      "-4020": 5211,
      "తమిళనాడు": 5212,
      "ilgrim": 5213,
      "▁ओर": 5214,
      "क्सफोर्ड": 5215,
      "omason": 5216,
      "_Islands": 5217,
      "ప్రధానమంత్రి": 5218,
      "_BRICS_summit": 5219,
      "గణతంత్ర": 5220,
      "▁క్రీడ": 5221,
      "▁Persian": 5222,
      "छत्तीसगढ़": 5223,
      "▁ఉన్నాయి.": 5224,
      "Provision": 5225,
      "ymbols": 5226,
      "▁कुछ": 5227,
      "overeign": 5228,
      "ेघालय": 5229,
      "ఆఫ్ఘ": 5230,
      "శ్రీలంక": 5231,
      "షియా": 5232,
      "న్‌ఫ": 5233,
      "तेलंगाना": 5234,
      "हरियाणा": 5235,
      "నేపాల్": 5236,
      "▁[अंग्रेज़ी](https://hi.wikipedia.org/wiki/अंग्रेज़ी_भाषा": 5237,
      "icobar": 5238,
      "ZvaGuaJIJgoC&pg=PA": 5239,
      "अभिज्ञाप": 5240,
      "ootball": 5241,
      "▁summits\")": 5242,
      "తాబ్ద": 5243,
      "timesofindia.indiatimes.com/": 5244,
      "](https://en.wikipedia.org/wiki/List_of_SAARC_summits": 5245,
      "awaharl": 5246,
      "अभिज्ञापक": 5247,
      "-D": 5248,
      "123": 5249,
      "52": 5250,
      "7.\r\n": 5251,
      "Ethnologue": 5252,
      "a)": 5253,
      "nc": 5254,
      "ned": 5255,
      "nominal": 5256,
      "que": 5257,
      "tl": 5258,
      "lem": 5259,
      "entury": 5260,
      "\\_articles": 5261,
      "umar": 5262,
      "▁mi": 5263,
      "▁man": 5264,
      "ilk": 5265,
      "▁Territory": 5266,
      "▁Research": 5267,
      "iger": 5268,
      "▁H.": 5269,
      "_St": 5270,
      "archive.org/detail": 5271,
      "166": 5272,
      "▁2024.": 5273,
      "struc": 5274,
      "langoff-1": 5275,
      "hristian": 5276,
      "Pages\\_us": 5277,
      "fferent": 5278,
      "nominal)": 5279,
      "archive.org/details/": 5280,
      "/files/": 5281,
      "125": 5282,
      "7).": 5283,
      "AS": 5284,
      "Bharat": 5285,
      "Con": 5286,
      "_languages": 5287,
      "ime": 5288,
      "most": 5289,
      "voy": 5290,
      "ंदी": 5291,
      "गढ": 5292,
      "गान": 5293,
      "ठार": 5294,
      "ण\")": 5295,
      "पत्त": 5296,
      "शत": 5297,
      "िर्": 5298,
      "▁°": 5299,
      "▁रा": 5300,
      "▁Qu": 5301,
      "▁[व": 5302,
      "▁[श": 5303,
      "▁[प्र": 5304,
      "en,": 5305,
      "hild": 5306,
      "erg": 5307,
      "▁समाज": 5308,
      "▁सीमा": 5309,
      "▁पद": 5310,
      "▁sector": 5311,
      "्तु": 5312,
      "▁Centre": 5313,
      "urity": 5314,
      "्षिक": 5315,
      "▁des": 5316,
      "▁प्रत्य": 5317,
      "▁Rothermund": 5318,
      "▁सेवा": 5319,
      "28.": 5320,
      "_Ass": 5321,
      "aryana": 5322,
      "22-9": 5323,
      "▁name": 5324,
      "▁साहित्य": 5325,
      "▁[Ministry": 5326,
      "▁\"British": 5327,
      "मुळे": 5328,
      "hmed": 5329,
      "feb": 5330,
      "_and_depend": 5331,
      "_128": 5332,
      "▁produc": 5333,
      "_भारतीय_": 5334,
      "official": 5335,
      "▁देख": 5336,
      "ृष्ठ": 5337,
      "▁Plateau": 5338,
      "क्रम": 5339,
      "टिबंध": 5340,
      "▁Wikidata": 5341,
      "▁रोजी": 5342,
      "olitical_": 5343,
      ".\")\r\n": 5344,
      ".](https://upload.wikimedia.org/wikipedia/commons/thumb/": 5345,
      "/India": 5346,
      "1-0": 5347,
      "3–": 5348,
      "313": 5349,
      "4]](https://en.wikipedia.org/wiki/India#cite_note-FOOTNOTE": 5350,
      "577": 5351,
      "74": 5352,
      "8–": 5353,
      "MC": 5354,
      "MID": 5355,
      "_g": 5356,
      "_26": 5357,
      "ate_": 5358,
      "ather": 5359,
      "ced": 5360,
      "code": 5361,
      "casting": 5362,
      "hu": 5363,
      "hat": 5364,
      "had": 5365,
      "ij": 5366,
      "ker": 5367,
      "ncient": 5368,
      "pture": 5369,
      "rust": 5370,
      "yy": 5371,
      "▁low": 5372,
      "▁[U": 5373,
      "▁[f": 5374,
      "th_BRICS_summit": 5375,
      "arlo": 5376,
      "araj": 5377,
      "aland": 5378,
      "alli": 5379,
      "▁caus": 5380,
      "▁Civil": 5381,
      "agari": 5382,
      "▁Schwartzberg": 5383,
      "▁tree": 5384,
      "loth": 5385,
      "▁Punjab": 5386,
      "_of_2011": 5387,
      "▁2014.": 5388,
      "▁This": 5389,
      "▁M.": 5390,
      "ema": 5391,
      "emic": 5392,
      "emographic": 5393,
      "hatt": 5394,
      "oples": 5395,
      "▁only": 5396,
      "ained": 5397,
      "▁rem": 5398,
      "▁these": 5399,
      "](https://en.wikipedia.org/wiki/India#CITEREFM": 5400,
      "22.": 5401,
      "_Paper": 5402,
      "▁[↑](https://en.wikipedia.org/wiki/India#cite_ref-FOOTNOTEB": 5403,
      "a_d": 5404,
      "rief": 5405,
      "ligions": 5406,
      "_Totals": 5407,
      "ociation": 5408,
      "ockey": 5409,
      "opulation_Totals": 5410,
      "▁language\"),": 5411,
      "▁development": 5412,
      "▁Press](https://en.wikipedia.org/wiki/C": 5413,
      "ikhism": 5414,
      "ibcode": 5415,
      "▁[Dyson": 5416,
      "ender": 5417,
      "▁\"Re": 5418,
      "_1_of_2011": 5419,
      "674": 5420,
      "do-European": 5421,
      "▁languages\")": 5422,
      "▁addition": 5423,
      "▁when": 5424,
      "o-operation": 5425,
      "_Lank": 5426,
      "▁Islands\")": 5427,
      "gypt": 5428,
      "uisine": 5429,
      "vanagari": 5430,
      "ighth": 5431,
      "dependence": 5432,
      ".php": 5433,
      "disha": 5434,
      "al_Population_Totals": 5435,
      "JPG": 5436,
      "arnatic": 5437,
      "ynasty": 5438,
      "ological": 5439,
      "](https://en.wikipedia.org/wiki/History_of_": 5440,
      "roadcasting": 5441,
      "mritsar": 5442,
      "Provisional_Population_Totals": 5443,
      "_Paper_1_of_2011": 5444,
      "Provisional_Population_Totals_Paper_1_of_2011": 5445,
      "Provisional_Population_Totals_Paper_1_of_2011_India": 5446,
      "-r": 5447,
      ".uk": 5448,
      "0–": 5449,
      "5).": 5450,
      "AG": 5451,
      "C-0": 5452,
      "EX": 5453,
      "IUCN": 5454,
      "\\*": 5455,
      "_24": 5456,
      "_38": 5457,
      "_एशिया": 5458,
      "_ప్రదేశ్": 5459,
      "ds": 5460,
      "ues": 5461,
      "अंग्रेज़ी": 5462,
      "अनुसार": 5463,
      "गलु": 5464,
      "डिशा": 5465,
      "दरा": 5466,
      "पाली": 5467,
      "भग": 5468,
      "यर": 5469,
      "शा": 5470,
      "ाची": 5471,
      "ैली": 5472,
      "ोड": 5473,
      "ोस": 5474,
      "ोला": 5475,
      "ం,": 5476,
      "ఉప": 5477,
      "కొ": 5478,
      "కేంద్రపాలిత": 5479,
      "జె": 5480,
      "ఢ్": 5481,
      "ది.": 5482,
      "నాల": 5483,
      "లే": 5484,
      "ళు": 5485,
      "ౌద్ధ": 5486,
      "▁४": 5487,
      "▁భా": 5488,
      "▁[ने": 5489,
      "▁[వి": 5490,
      "▁\"द": 5491,
      "▁\"ने": 5492,
      "▁\"दिल्ली": 5493,
      "an-": 5494,
      "tis": 5495,
      "ars": 5496,
      "2025": 5497,
      "▁कम": 5498,
      "](https://hi.wikipedia.org/wiki/ज": 5499,
      "](https://hi.wikipedia.org/wiki/तमिल": 5500,
      "rel": 5501,
      "▁सित": 5502,
      "▁मई": 5503,
      "raj": 5504,
      "ेंगलु": 5505,
      "](https://hi.wikipedia.org/wiki/भारत_के_राज्य": 5506,
      "िकोब": 5507,
      "adhya": 5508,
      "loc": 5509,
      "ాలీ": 5510,
      "▁में,": 5511,
      "▁जब": 5512,
      "▁2012.": 5513,
      "▁प्रेस": 5514,
      "ंग्र": 5515,
      "-0)\r\n": 5516,
      "ర్చ": 5517,
      "न्ह": 5518,
      "_(भारत)": 5519,
      "irth": 5520,
      "_से": 5521,
      "तिब्ब": 5522,
      "_Act": 5523,
      "▁गई": 5524,
      "▁religious": 5525,
      "▁Fund": 5526,
      "ड़िया": 5527,
      "म्भ": 5528,
      "त्तरी": 5529,
      "संधान": 5530,
      "स्त्र": 5531,
      "]](https://hi.wikipedia.org/wiki/भारत#cite_note-pib": 5532,
      "_Pro": 5533,
      "_के_अनुसार": 5534,
      "▁लिये": 5535,
      "▁यूनिवर्सिट": 5536,
      "–సా.శ.18": 5537,
      "▁అత్య": 5538,
      "▁ఆధ": 5539,
      "▁आहेत": 5540,
      "మాఖ్య": 5541,
      "వాణా": 5542,
      "द्यालय": 5543,
      "ంటి": 5544,
      "▁जनजाति": 5545,
      "वेली": 5546,
      "content": 5547,
      "▁घाट": 5548,
      "धील": 5549,
      "▁దేశం": 5550,
      "onstitutional": 5551,
      "शास्त्र": 5552,
      "▁भाषा\")[[": 5553,
      "html).": 5554,
      "డ్డ": 5555,
      "▁జనాభా": 5556,
      "దక్షిణాసియా": 5557,
      "▁\"उत्तर": 5558,
      "▁గల": 5559,
      "▁భారతదేశంలో": 5560,
      "ంగ్లీ": 5561,
      "_नदी": 5562,
      "యునై": 5563,
      "ష్ణ": 5564,
      "_చరిత్ర?action=edit&redlink=1": 5565,
      "%E0%A4%BE": 5566,
      "नाडू": 5567,
      "ोर्ट": 5568,
      "▁రాష్ట్రాలు,": 5569,
      "माजिक": 5570,
      "_देशों_की_सूची": 5571,
      "_మతము": 5572,
      "▁మొద": 5573,
      "_उत्": 5574,
      "▁(2018),": 5575,
      "ंडोनेशिया": 5576,
      "rishnan": 5577,
      "▁చెయ్యబడింది.": 5578,
      "▁[पाकिस्तान](https://hi.wikipedia.org/wiki/पाकिस्तान": 5579,
      "क्षरता": 5580,
      "_सिनेमा": 5581,
      "▁कॉंग्रेस": 5582,
      "kZVuDwAAQBAJ&pg=PA": 5583,
      "▁\"महाराष्ट्र\")": 5584,
      "ेंगलुरु": 5585,
      "िकोबार": 5586,
      "▁यूनिवर्सिटी": 5587,
      "యునైటెడ్": 5588,
      "/b": 5589,
      "/hind": 5590,
      "2)\r\n": 5591,
      "338": 5592,
      "34)": 5593,
      "S.": 5594,
      "day": 5595,
      "dust": 5596,
      "fob": 5597,
      "hut": 5598,
      "iodiversity": 5599,
      "ox": 5600,
      "ption": 5601,
      "s18": 5602,
      "▁z": 5603,
      "▁36": 5604,
      "▁old": 5605,
      "▁[World": 5606,
      "▁\"19": 5607,
      "▁prom": 5608,
      "▁Central": 5609,
      "0000": 5610,
      "1017": 5611,
      "▁2001": 5612,
      "▁near": 5613,
      "407": 5614,
      "27)": 5615,
      "▁[Singh": 5616,
      "▁[British": 5617,
      "ternational_": 5618,
      "▁def": 5619,
      "▁\"Government": 5620,
      "article": 5621,
      "▁[Kulke": 5622,
      "overnment_of_India": 5623,
      "▁use": 5624,
      "▁composed": 5625,
      "▁wide": 5626,
      "▁along": 5627,
      "catal": 5628,
      "Hindustan": 5629,
      "cognized": 5630,
      "reedom": 5631,
      "ouncil": 5632,
      "arliest": 5633,
      "urvey": 5634,
      "-logo": 5635,
      "1-4": 5636,
      "2%": 5637,
      "2)[[": 5638,
      "66": 5639,
      "9/": 5640,
      "ES": 5641,
      "F)": 5642,
      "Fr": 5643,
      "IF": 5644,
      "Language": 5645,
      "_-": 5646,
      "_v": 5647,
      "_pe": 5648,
      "_17": 5649,
      "_43": 5650,
      "ax": 5651,
      "cover": 5652,
      "epend": 5653,
      "i.": 5654,
      "ren": 5655,
      "y-": 5656,
      "ंती": 5657,
      "गध": 5658,
      "जपुरी": 5659,
      "तो": 5660,
      "तुल": 5661,
      "पास": 5662,
      "यो": 5663,
      "लम": 5664,
      "हम": 5665,
      "ाख": 5666,
      "ातील": 5667,
      "ृष": 5668,
      "ैथि": 5669,
      "ॉग": 5670,
      "्न": 5671,
      "–24": 5672,
      "▁United": 5673,
      "iary": 5674,
      "orn": 5675,
      "](Template:": 5676,
      "▁[द": 5677,
      "▁[लोक": 5678,
      "▁\"का": 5679,
      "anat": 5680,
      "ारो": 5681,
      "alit": 5682,
      "▁समा": 5683,
      "anda": 5684,
      "ed,": 5685,
      "▁(199": 5686,
      "asi": 5687,
      "ashi": 5688,
      "▁India.[[": 5689,
      "▁India*.": 5690,
      "▁India](https://en.wikipedia.org/wiki/C": 5691,
      "raz": 5692,
      "र्क": 5693,
      "▁colle": 5694,
      "▁Cooperation": 5695,
      "\\_cont": 5696,
      "▁fam": 5697,
      "adwe": 5698,
      "adras": 5699,
      "▁अमेर": 5700,
      "▁Park": 5701,
      "comm": 5702,
      "▁दी": 5703,
      "]](https://en.wikipedia.org/wiki/India#cite_note-Combined": 5704,
      "▁आक": 5705,
      "▁Man": 5706,
      "▁बौद्ध": 5707,
      "▁B.;": 5708,
      "▁att": 5709,
      "ign_": 5710,
      "igarh": 5711,
      "eccan": 5712,
      "क्षण": 5713,
      "▁Games": 5714,
      "▁religion": 5715,
      "▁through": 5716,
      "▁शु": 5717,
      "ability": 5718,
      "▁संस्थान": 5719,
      "▁hum": 5720,
      "AAJ": 5721,
      "▁growth": 5722,
      "▁\"Mughal": 5723,
      ".gov.in": 5724,
      "a_Empire": 5725,
      "▁within": 5726,
      "-107-0": 5727,
      "▁\"Template:": 5728,
      "▁exp": 5729,
      "%2C_India": 5730,
      "issing": 5731,
      "▁[Dikshit": 5732,
      "49-2": 5733,
      "ports": 5734,
      "दाख": 5735,
      "ahal": 5736,
      "handigarh": 5737,
      "समूह": 5738,
      "_Force": 5739,
      "▁[उत्तर": 5740,
      "AsherTalbot20": 5741,
      "ंग्ल": 5742,
      "india.gov.in/india-glance/": 5743,
      "ynth": 5744,
      "ughal_": 5745,
      "▁ago": 5746,
      "attle": 5747,
      "ediff": 5748,
      "ographical": 5749,
      "Dyson2018),": 5750,
      "mitt": 5751,
      "ote:": 5752,
      "ortal:": 5753,
      "rishna": 5754,
      "▁संगीत": 5755,
      "जयनगर": 5756,
      "▁especial": 5757,
      "▁Buddhist": 5758,
      "▁increased": 5759,
      ".htm)": 5760,
      "▁groups": 5761,
      "culpture": 5762,
      "▁2018](https://en.wikipedia.org/wiki/India#CITEREFDyson2018),": 5763,
      "भोजपुरी": 5764,
      "akshadwe": 5765,
      "प्राचीन": 5766,
      "achine": 5767,
      "violence": 5768,
      "▁भूमिका": 5769,
      "arnataka": 5770,
      "uthority": 5771,
      "तमिळनाडू": 5772,
      "▁नेतृत्व": 5773,
      "▁Quote:": 5774,
      "hattis": 5775,
      "ैथिली": 5776,
      "\\_contain": 5777,
      "▁especially": 5778,
      "akshadweep": 5779,
      "-ex": 5780,
      "-world": 5781,
      "324": 5782,
      "350": 5783,
      "418": 5784,
      "Alig": 5785,
      "CH": 5786,
      "PO": 5787,
      "_h": 5788,
      "lm": 5789,
      "vent": 5790,
      "▁—": 5791,
      "tection": 5792,
      "▁(b": 5793,
      "198": 5794,
      "rest": 5795,
      ".jpe": 5796,
      "115": 5797,
      "50th": 5798,
      "▁Incre": 5799,
      "dex": 5800,
      "emplate_": 5801,
      "709": 5802,
      "iance": 5803,
      "▁[978-0-521": 5804,
      "_population": 5805,
      "▁control": 5806,
      "on-Alig": 5807,
      "ondon": 5808,
      "bi.n": 5809,
      "4/4": 5810,
      ".nih": 5811,
      "ncbi.n": 5812,
      "Pages\\_using\\_": 5813,
      "lm.nih": 5814,
      "on-Aligned": 5815,
      "ncbi.nlm.nih": 5816,
      "\"](http://": 5817,
      ",NGDP": 5818,
      "/s": 5819,
      "226": 5820,
      ":EditPage/": 5821,
      "_న": 5822,
      "_20": 5823,
      "_36": 5824,
      "ek": 5825,
      "eth": 5826,
      "ईसा": 5827,
      "उप": 5828,
      "केंद्र": 5829,
      "गंगा": 5830,
      "चेंज": 5831,
      "जें": 5832,
      "थियार": 5833,
      "फा": 5834,
      "मत": 5835,
      "रिया": 5836,
      "वल": 5837,
      "हू": 5838,
      "ाचे": 5839,
      "ॉक": 5840,
      "्लेट": 5841,
      "२६": 5842,
      "५७": 5843,
      "ఖండ": 5844,
      "గం": 5845,
      "టిక": 5846,
      "డే": 5847,
      "ద్య": 5848,
      "మార్": 5849,
      "మాలయ": 5850,
      "లలో": 5851,
      "లకు": 5852,
      "ళ్": 5853,
      "వ](https://te.wikipedia.org/wiki/": 5854,
      "ానికి": 5855,
      "ాళు": 5856,
      "ీర్": 5857,
      "▁భ": 5858,
      "▁యు": 5859,
      "▁थे": 5860,
      "win": 5861,
      "▁[राज्य": 5862,
      "▁[तमिल": 5863,
      "▁\"వి": 5864,
      "ारम्भ": 5865,
      "alt": 5866,
      "](https://hi.wikipedia.org/wiki/प": 5867,
      "](https://hi.wikipedia.org/wiki/य": 5868,
      "recognized": 5869,
      "thehind": 5870,
      "▁स्तर": 5871,
      "▁सभ्यता": 5872,
      "▁महा": 5873,
      "रात": 5874,
      "ानक": 5875,
      "▁popul": 5876,
      "▁हवा": 5877,
      "ator": 5878,
      "▁Chand": 5879,
      "](https://hi.wikipedia.org/wiki/भारत_स": 5880,
      "](https://hi.wikipedia.org/wiki/भारत_का": 5881,
      "▁असे": 5882,
      "▁अलग": 5883,
      "ాలో": 5884,
      "▁जिन": 5885,
      "స్వ": 5886,
      "స్లా": 5887,
      "ंगीत": 5888,
      "▁పాల": 5889,
      "▁बड़े": 5890,
      "भाजन": 5891,
      "▁त्या": 5892,
      "▁नगर": 5893,
      "న్\")": 5894,
      "▁B.": 5895,
      "▁काही": 5896,
      "267": 5897,
      "वियत": 5898,
      "oung": 5899,
      "▁కార": 5900,
      "▁కలి": 5901,
      "ాలు?action=edit&redlink=1": 5902,
      "_Affairs": 5903,
      "రిహ": 5904,
      "రికత": 5905,
      "క్నాల": 5906,
      "▁गांधी": 5907,
      "ంది.\r\n": 5908,
      "నిమా": 5909,
      "▁సంగీతం": 5910,
      "▁विभाग": 5911,
      "संख्य": 5912,
      "▁रक्षा": 5913,
      "▁./वर्ग:": 5914,
      "▁చి": 5915,
      "](https://hi.wikipedia.org/wiki/भारत#cite_ref-pib": 5916,
      "](https://hi.wikipedia.org/wiki/भारत#cite_ref-langoff": 5917,
      "]](https://hi.wikipedia.org/wiki/भारत#cite_note-langoff-1": 5918,
      "lative": 5919,
      "हाँ": 5920,
      "ndhra": 5921,
      "-7mar": 5922,
      "ులు\"),": 5923,
      "–సా.శ.13": 5924,
      "▁అయ": 5925,
      "▁ప్రధాన": 5926,
      "▁करता": 5927,
      "](https://hi.wikipedia.org/wiki/मध्य": 5928,
      "ప్రదాయ": 5929,
      "ప్రత్యేక": 5930,
      "ద్వీ": 5931,
      "▁ఉప": 5932,
      "aith": 5933,
      "▁రె": 5934,
      "issile": 5935,
      "_GDP": 5936,
      "న్నడ": 5937,
      "वर्ष": 5938,
      "ంటు": 5939,
      "Asher2006": 5940,
      "AsherAsher2006": 5941,
      "▁घोष": 5942,
      "धीश": 5943,
      "धीरे": 5944,
      "▁దేశంలో": 5945,
      "▁निभा": 5946,
      "ल्प": 5947,
      "html)": 5948,
      "120]](https://hi.wikipedia.org/wiki/भारत#cite_note-langoff-1": 5949,
      "కాశ్మీ": 5950,
      "▁पाकिस्तान": 5951,
      "ంధు": 5952,
      "Stein1998),": 5953,
      "Singh2009),": 5954,
      "వర్గం:Harv": 5955,
      "ों_की_सूची?action=edit&redlink=1": 5956,
      "▁CITEREFStein1998": 5957,
      "▁CITEREFSingh2009": 5958,
      "ंपरा": 5959,
      "▁शासित": 5960,
      "▁उपमहाद्वीप": 5961,
      "](https://hi.wikipedia.org/wiki/भारत#CITEREFStein1998),": 5962,
      "](https://hi.wikipedia.org/wiki/भारत#CITEREFSingh2009),": 5963,
      "ద్ధం": 5964,
      "ద్ధి": 5965,
      "ాల్దీవ": 5966,
      "చ్చే": 5967,
      "KulkeRothermund200": 5968,
      "ureau": 5969,
      "దక్షిణ_": 5970,
      "▁मंदिर\")": 5971,
      "▁కాంగ్రె": 5972,
      "रोहर": 5973,
      "▁मोदी": 5974,
      "▁दिसंबर": 5975,
      "▁डॉल": 5976,
      "టెక్నాల": 5977,
      "▁ప్రాంతాలు": 5978,
      "హిమాలయ": 5979,
      "▁2009](https://hi.wikipedia.org/wiki/भारत#CITEREFSingh2009),": 5980,
      "▁वर्षों": 5981,
      "▁व्यवस्था": 5982,
      "▁संस्कृती": 5983,
      "View": 5984,
      "_from": 5985,
      "ौर्य": 5986,
      "▁లే": 5987,
      "త్తరా": 5988,
      "स्लाम": 5989,
      "स्लामी": 5990,
      "నాగరికత": 5991,
      "క్కువ": 5992,
      "troduction": 5993,
      "▁दृश्य": 5994,
      "క్‌సభ": 5995,
      "▁सिनेमा\"),": 5996,
      "▁శాస్త్ర": 5997,
      "tiger": 5998,
      "ెలుగు": 5999,
      "▁1998](https://hi.wikipedia.org/wiki/भारत#CITEREFStein1998),": 6000,
      "bank.org/": 6001,
      "▁पश्चिम": 6002,
      "▁వచ్చింది.": 6003,
      "_ప్రాంత": 6004,
      "पत्ति": 6005,
      "टिबंधीय": 6006,
      "ర్చ:": 6007,
      "dustrial": 6008,
      ":EditPage/మూస:": 6009,
      "ాళుక్య": 6010,
      "](https://hi.wikipedia.org/wiki/भारत#cite_ref-langoff_128": 6011,
      "-7mar2011": 6012,
      "ప్రత్యేక:EditPage/మూస:": 6013,
      "_GDP_(": 6014,
      "120]](https://hi.wikipedia.org/wiki/भारत#cite_note-langoff-128)": 6015,
      "టెక్నాలజీ": 6016,
      "*](http://": 6017,
      "-an": 6018,
      "/).": 6019,
      "3).": 6020,
      "3.\r\n": 6021,
      "6.\r\n": 6022,
      "677": 6023,
      "7%": 6024,
      "7C": 6025,
      "7]](https://en.wikipedia.org/wiki/India#cite_note-": 6026,
      "9]](https://en.wikipedia.org/wiki/India#cite_note-": 6027,
      "9]](https://en.wikipedia.org/wiki/India#cite_note-FOOTNOTE": 6028,
      "Census": 6029,
      "Ex": 6030,
      "IB": 6031,
      "Petraglia": 6032,
      "Raj": 6033,
      "_&": 6034,
      "_2024": 6035,
      "ative": 6036,
      "baki": 6037,
      "c/c": 6038,
      "dic": 6039,
      "henn": 6040,
      "khand": 6041,
      "lue": 6042,
      "rang": 6043,
      "subcontinent": 6044,
      "vil": 6045,
      "wana": 6046,
      "▁ge": 6047,
      "▁eng": 6048,
      "▁histor": 6049,
      "orship": 6050,
      "ences": 6051,
      "▁\"World": 6052,
      "](https://en.wikipedia.org/wiki/World": 6053,
      "erved": 6054,
      "erman": 6055,
      "aro": 6056,
      "artition": 6057,
      "ala": 6058,
      "ederal": 6059,
      "▁(ed.).": 6060,
      "ichell": 6061,
      "▁political": 6062,
      "ately": 6063,
      "▁coast": 6064,
      "uss": 6065,
      "ref-10": 6066,
      "atna": 6067,
      "▁Comp": 6068,
      "▁Affairs": 6069,
      "note-10": 6070,
      "ango": 6071,
      "angam": 6072,
      "lite": 6073,
      "▁bu": 6074,
      "lock": 6075,
      "urry": 6076,
      "very": 6077,
      "▁14.": 6078,
      "iland": 6079,
      "stani": 6080,
      "▁work": 6081,
      "▁dom": 6082,
      "oln": 6083,
      "▁Michael": 6084,
      "identifiers": 6085,
      "▁By": 6086,
      "eck": 6087,
      "india.com/": 6088,
      "hai": 6089,
      "hak": 6090,
      "_Air": 6091,
      "-459": 6092,
      "-85": 6093,
      "harkhand": 6094,
      "oss": 6095,
      "406]](https://en.wikipedia.org/wiki/India#cite_note-": 6096,
      "▁\"Cambridge": 6097,
      "ountain": 6098,
      "▁gen": 6099,
      "▁[Cambridge": 6100,
      "_Comm": 6101,
      "ourbaki": 6102,
      "▁[↑](https://en.wikipedia.org/wiki/India#cite_ref-FOOTNOTEStein2010": 6103,
      "s](https://en.wikipedia.org/wiki/A": 6104,
      "s](https://en.wikipedia.org/wiki/S": 6105,
      "▁before": 6106,
      "](https://en.wikipedia.org/wiki/British": 6107,
      "arden": 6108,
      "▁range": 6109,
      "aking": 6110,
      "akistani": 6111,
      "vention": 6112,
      "class": 6113,
      "▁lite": 6114,
      "ambridge_University_Press": 6115,
      "▁vill": 6116,
      "erves": 6117,
      "aceu": 6118,
      "1971": 6119,
      "ollingham": 6120,
      "hola": 6121,
      "cheduled": 6122,
      "▁People": 6123,
      "▁including": 6124,
      "▁Registrar": 6125,
      "▁[India](https://en.wikipedia.org/wiki/India": 6126,
      "vatsyayan-lord-4": 6127,
      "vatsyayan-lord_43": 6128,
      "nergy": 6129,
      "](https://en.wikipedia.org/wiki/South_Asian_": 6130,
      "owever,": 6131,
      "Articles\\_contain": 6132,
      "harmaceu": 6133,
      "undamental": 6134,
      "olonial": 6135,
      "do-Pakistani": 6136,
      "Allchin": 6137,
      "alayalam": 6138,
      "▁Press](https://en.wikipedia.org/wiki/Cambridge_University_Press": 6139,
      "hutan": 6140,
      "PetragliaAllchin": 6141,
      "hennai": 6142,
      "406]](https://en.wikipedia.org/wiki/India#cite_note-vatsyayan-lord-4": 6143,
      "/india": 6144,
      "6)\r\n": 6145,
      "M50th": 6146,
      "NCL": 6147,
      "_0": 6148,
      "_यु": 6149,
      "_वार": 6150,
      "equality": 6151,
      "kb": 6152,
      "m2": 6153,
      "o-d": 6154,
      "round": 6155,
      "क\")": 6156,
      "ग्वे": 6157,
      "धन": 6158,
      "नत": 6159,
      "ल्त": 6160,
      "लाल": 6161,
      "ुरा": 6162,
      "▁46": 6163,
      "▁[का": 6164,
      "ened": 6165,
      "▁\"राजस्थान": 6166,
      "arth": 6167,
      "▁सुरक्षा": 6168,
      "▁मन": 6169,
      "▁pres": 6170,
      "agen": 6171,
      "\\_(": 6172,
      "\\_in": 6173,
      "▁वृद्ध": 6174,
      "istor": 6175,
      "Southeast": 6176,
      "▁आज": 6177,
      "▁आप": 6178,
      "▁Muslim": 6179,
      "▁बार": 6180,
      "10)": 6181,
      "23.": 6182,
      "▁Dictionary": 6183,
      "▁Health": 6184,
      "▁संख्या": 6185,
      "▁[\"G": 6186,
      "▁[\"P": 6187,
      "%20A": 6188,
      "पूर": 6189,
      "राष्ट्रीय_स": 6190,
      "%E0%A5%": 6191,
      "णिपुर": 6192,
      "▁हिमालय": 6193,
      "▁(2014).": 6194,
      "▁१९९": 6195,
      "▁Chinese": 6196,
      "लिंग": 6197,
      "▁नदी\")": 6198,
      "Report.pdf)": 6199,
      "nclm.nic.in/shared/linkimages/NCL": 6200,
      "▁प्रत्येक": 6201,
      "M50thReport.pdf)": 6202,
      "ल्तनत": 6203,
      "▁\"राजस्थान\")": 6204,
      "nclm.nic.in/shared/linkimages/NCLM50thReport.pdf)": 6205,
      "2),": 6206,
      "5_": 6207,
      ";[[": 6208,
      "C)": 6209,
      "Pakistan": 6210,
      "Th": 6211,
      "aul": 6212,
      "ead": 6213,
      "ece": 6214,
      "s:": 6215,
      "▁[n": 6216,
      "▁\"U": 6217,
      "of\\_": 6218,
      "asht": 6219,
      "1967": 6220,
      "id-": 6221,
      "ets": 6222,
      "-1\").\r\n": 6223,
      "atab": 6224,
      "▁Ad": 6225,
      "▁Society": 6226,
      "\\_of\\_": 6227,
      "loped": 6228,
      "_of_Congress": 6229,
      "▁Minister": 6230,
      "bert": 6231,
      "▁2007.": 6232,
      "opland": 6233,
      "▁1962": 6234,
      "ody": 6235,
      "▁house": 6236,
      "48)": 6237,
      "▁[New": 6238,
      "type": 6239,
      "onstitution_of_India": 6240,
      "▁contin": 6241,
      "▁Programme": 6242,
      "▁different": 6243,
      "▁estimate": 6244,
      "hmedabad": 6245,
      "%3": 6246,
      "-w": 6247,
      "-the": 6248,
      "-24": 6249,
      ".పూ.": 6250,
      "221": 6251,
      "4,": 6252,
      "5]](https://en.wikipedia.org/wiki/India#cite_note-": 6253,
      "8]](https://en.wikipedia.org/wiki/India#cite_note-FOOTNOTE": 6254,
      "=20": 6255,
      "Collingham": 6256,
      "GDP": 6257,
      "S$": 6258,
      "Tarlo": 6259,
      "_industry": 6260,
      "aos": 6261,
      "business": 6262,
      "business/": 6263,
      "der": 6264,
      "eat": 6265,
      "lar": 6266,
      "mand": 6267,
      "mill": 6268,
      "odia": 6269,
      "rune": 6270,
      "sc": 6271,
      "s_in_India": 6272,
      "tate": 6273,
      "via": 6274,
      "yth": 6275,
      "ंस": 6276,
      "ंद्र": 6277,
      "ंचा": 6278,
      "इन": 6279,
      "ईद": 6280,
      "ऊर्जा": 6281,
      "ऍथ": 6282,
      "ऑक्सफोर्ड": 6283,
      "कणी": 6284,
      "जपा": 6285,
      "जिस्ट": 6286,
      "टिका": 6287,
      "ताल": 6288,
      "दान": 6289,
      "नोल": 6290,
      "पीय": 6291,
      "बू": 6292,
      "मक": 6293,
      "माल": 6294,
      "लोर": 6295,
      "लैंड": 6296,
      "वान": 6297,
      "शि": 6298,
      "सर": 6299,
      "ाटी": 6300,
      "िरा": 6301,
      "ुम्ब": 6302,
      "ूबर": 6303,
      "ॉकी": 6304,
      "्स": 6305,
      "ంతం": 6306,
      "ఆగ": 6307,
      "కళ": 6308,
      "ఖండ్": 6309,
      "గ్": 6310,
      "గిన": 6311,
      "గఢ్": 6312,
      "జో": 6313,
      "ట్ర": 6314,
      "తెలుగు": 6315,
      "ద్రా": 6316,
      "పద": 6317,
      "భి": 6318,
      "యో": 6319,
      "లక్ష": 6320,
      "వర": 6321,
      "శో": 6322,
      "షా": 6323,
      "హు": 6324,
      "హార్": 6325,
      "హాయ": 6326,
      "ాష్ట్ర": 6327,
      "ీక": 6328,
      "ీహార్": 6329,
      "ుల": 6330,
      "ుల్": 6331,
      "ోల్": 6332,
      "ోత్స": 6333,
      "ౌర్య": 6334,
      "–4": 6335,
      "▁kingdom": 6336,
      "iated": 6337,
      "](Special:BookSources/978-81": 6338,
      "▁[Y": 6339,
      "▁[హ": 6340,
      "▁[राजस्थान": 6341,
      "en:": 6342,
      "▁\"హ": 6343,
      "▁\"पु": 6344,
      "▁\"प्र": 6345,
      "▁\"साँचा": 6346,
      "▁\"साँचा:": 6347,
      "▁\"ఢిల్లీ": 6348,
      "▁\"Special:BookSources/978-81": 6349,
      "ino-": 6350,
      "inema": 6351,
      "ants": 6352,
      "tile": 6353,
      "him": 6354,
      "hir": 6355,
      "ester": 6356,
      "es.[[": 6357,
      "्रार": 6358,
      "](https://hi.wikipedia.org/wiki/ड": 6359,
      "](https://hi.wikipedia.org/wiki/व": 6360,
      "](https://hi.wikipedia.org/wiki/साँचा": 6361,
      "](https://hi.wikipedia.org/wiki/पूर्व": 6362,
      "](https://hi.wikipedia.org/wiki/साँचा:": 6363,
      "ofker": 6364,
      "▁सक": 6365,
      "▁सम्": 6366,
      "omo": 6367,
      "्यूरो": 6368,
      "itation": 6369,
      "asthan": 6370,
      "▁मन्दिर": 6371,
      "▁पास": 6372,
      "▁पड़": 6373,
      "▁पहा": 6374,
      "▁पठार": 6375,
      "▁प्लेट": 6376,
      "్రూ": 6377,
      "idy": 6378,
      "ratic": 6379,
      "](https://te.wikipedia.org/wiki/సి": 6380,
      "entr": 6381,
      "▁school": 6382,
      "etry": 6383,
      "ries/": 6384,
      "▁हथियार": 6385,
      "ingap": 6386,
      "amy": 6387,
      "ating": 6388,
      "▁Asher": 6389,
      "▁Sabha": 6390,
      "acmill": 6391,
      "\\_क": 6392,
      "▁fol": 6393,
      "▁four": 6394,
      "angered": 6395,
      "urk": 6396,
      "uran": 6397,
      "▁main": 6398,
      "ాలా": 6399,
      "ాలలో": 6400,
      "well": 6401,
      "్యం": 6402,
      "▁ज़": 6403,
      "ेशिया\")": 6404,
      "ोंकणी": 6405,
      "त्री": 6406,
      "fir": 6407,
      "▁would": 6408,
      "▁प्रभा": 6409,
      "ंगला": 6410,
      "▁Temple": 6411,
      "▁आन्द": 6412,
      "▁Routledge": 6413,
      "_केंद्र": 6414,
      "▁बने": 6415,
      "▁बड़ा": 6416,
      "भाष": 6417,
      "ర్ణా": 6418,
      "ర్మే": 6419,
      "▁तो": 6420,
      "▁नौसेना": 6421,
      "्टॉक": 6422,
      "s.\"\r\n": 6423,
      "igved": 6424,
      "igration": 6425,
      "indhi": 6426,
      "▁led": 6427,
      "ास्त": 6428,
      "▁*India": 6429,
      "विद्यालय": 6430,
      "ional": 6431,
      "upt": 6432,
      "లోక్‌సభ": 6433,
      "hap": 6434,
      "hailand": 6435,
      "_in_New": 6436,
      "tudi": 6437,
      "▁Greek": 6438,
      "▁N.": 6439,
      "▁Nicobar": 6440,
      "-345": 6441,
      "ले.": 6442,
      "_A7C": 6443,
      "▁गठ": 6444,
      "▁వంశ": 6445,
      "▁third": 6446,
      "▁शुरू": 6447,
      "ablish": 6448,
      "कांक": 6449,
      "▁संस्कृत": 6450,
      "aph": 6451,
      "▁परंपरा": 6452,
      "]](https://hi.wikipedia.org/wiki/भारत#cite_note-10": 6453,
      "▁\"Chin": 6454,
      "ountries/": 6455,
      "ंडमान": 6456,
      "▁विज्ञान": 6457,
      "ండర్": 6458,
      "▁Languages": 6459,
      "▁Organization": 6460,
      "▁सागर": 6461,
      "राष्ट्रीय_": 6462,
      "_Pradesh": 6463,
      "ngineering": 6464,
      "▁[Central": 6465,
      "](https://books.google.com/books?id=3TRtDwAAQBAJ&pg=PA": 6466,
      "▁\"महा": 6467,
      "▁\"मुंबई": 6468,
      "otal": 6469,
      "▁लिया": 6470,
      "త్మా": 6471,
      "मीरात": 6472,
      "▁[↑](https://en.wikipedia.org/wiki/India#cite_ref-FOOTNOTEM": 6473,
      "▁राज्ये": 6474,
      "a_1": 6475,
      "▁అతి": 6476,
      "ికి": 6477,
      "▁करना": 6478,
      "](https://en.wikipedia.org/wiki/Mughal_": 6479,
      "ogri": 6480,
      "▁१२": 6481,
      "](https://hi.wikipedia.org/wiki/महाराष्ट्र": 6482,
      "परेशन": 6483,
      "▁now": 6484,
      "ద్దు": 6485,
      "▁\"En": 6486,
      "%2C5": 6487,
      "हारजिस्ट": 6488,
      "▁రహదార": 6489,
      "▁areas": 6490,
      "మాచల్": 6491,
      "▁సామ్రాజ్య": 6492,
      "_River": 6493,
      "▁\"कु": 6494,
      "_Bank": 6495,
      "రువా": 6496,
      "రుణా": 6497,
      "मान्य": 6498,
      "](https://en.wikipedia.org/wiki/En": 6499,
      "▁Ved": 6500,
      "▁[कु": 6501,
      "న్నో": 6502,
      "▁[2](https://hi.wikipedia.org/wiki/भारत#cite_ref-FOOTNOTE": 6503,
      "▁जाते": 6504,
      "33-7": 6505,
      "▁[1](https://hi.wikipedia.org/wiki/भारत#cite_ref-FOOTNOTE": 6506,
      "ameez": 6507,
      "ष्ठ": 6508,
      "▁घरेलू": 6509,
      "▁घाटी": 6510,
      "](https://en.wikipedia.org/wiki/National_": 6511,
      "మిజో": 6512,
      "▁like": 6513,
      "दादरा": 6514,
      "▁ఇది": 6515,
      "egistrar": 6516,
      "do-G": 6517,
      "▁Urdu": 6518,
      "▁2007\r\n": 6519,
      "▁[![The": 6520,
      "DwAAQBAJ": 6521,
      "alaysia": 6522,
      "ूचकांक": 6523,
      "▁జరి": 6524,
      "▁విస్త": 6525,
      "न्नड़": 6526,
      "▁millen": 6527,
      "क्के": 6528,
      "मेन": 6529,
      "ukesh": 6530,
      "श्मीरी": 6531,
      "▁सिंह": 6532,
      "▁శతాబ్ద": 6533,
      "▁change": 6534,
      "ట్టు": 6535,
      "▁river": 6536,
      "आईएस": 6537,
      "▁agriculture": 6538,
      "▁था,": 6539,
      "PPP": 6540,
      "రాష్ట్రాలు": 6541,
      "▁पूर्वी": 6542,
      "_न्याया": 6543,
      "भूट": 6544,
      "▁Pradesh\")": 6545,
      "athematics": 6546,
      "వేద": 6547,
      "▁[Archived](https://web.archive.org/web/20210": 6548,
      "▁రాజకీయ": 6549,
      "mirate": 6550,
      "▁[↑](https://hi.wikipedia.org/wiki/भारत#cite_ref-10": 6551,
      "–123": 6552,
      "pib.nic.in/": 6553,
      "▁subcontinent\")": 6554,
      "ually": 6555,
      "ambodia": 6556,
      "tected": 6557,
      "హిమాచల్": 6558,
      "▁तटीय": 6559,
      "హాత్మా": 6560,
      "▁Force": 6561,
      "ृष्ण": 6562,
      "▁अपने": 6563,
      "▁These": 6564,
      "िज़ोर": 6565,
      "▁species": 6566,
      "chedule": 6567,
      "emocratic": 6568,
      "▁ప్రదేశ్\")": 6569,
      "▁rock": 6570,
      "హారాష్ట్ర": 6571,
      "पातकाल": 6572,
      "ominion": 6573,
      "▁2025.": 6574,
      "శాస్త్ర": 6575,
      "ataraj": 6576,
      "olkata": 6577,
      "రాజస్థాన్": 6578,
      "▁दृष्ट": 6579,
      "▁వాతావరణ": 6580,
      "janta": 6581,
      "▁जलवायु": 6582,
      "దినోత్స": 6583,
      "▁वार्ता:": 6584,
      "బెంగాలీ": 6585,
      "धिराज्य": 6586,
      "యన్మార్": 6587,
      "▁ముఖ్య": 6588,
      "▁[978-81": 6589,
      "▁[पंजाब](https://hi.wikipedia.org/wiki/पंजाब": 6590,
      "ार्कटिका": 6591,
      "▁emerg": 6592,
      "▁majority": 6593,
      "_राजवंश": 6594,
      "खनऊ": 6595,
      "▁सदस": 6596,
      "▁लगभग": 6597,
      "▁occup": 6598,
      "लयालम": 6599,
      "Sharma2007": 6600,
      "aranth": 6601,
      "▁राजनीतिक": 6602,
      "भरत": 6603,
      "▁Before": 6604,
      "elangana": 6605,
      "फ्रां": 6606,
      "ంజాబ్": 6607,
      "▁दोनों": 6608,
      "▁వ్యాస": 6609,
      "▁राजधानी": 6610,
      "lurton199": 6611,
      "ravidian": 6612,
      "▁appro": 6613,
      "▁employed": 6614,
      "_राज्यक्षेत्र": 6615,
      "▁[महाराष्ट्र](https://hi.wikipedia.org/wiki/महाराष्ट्र": 6616,
      "osphere": 6617,
      "గుజరాత్": 6618,
      "नागालैंड": 6619,
      "ఆఫ్ఘనిస్తాన్": 6620,
      "న్‌ఫర్మే": 6621,
      "tlas": 6622,
      "voyage": 6623,
      "lothing": 6624,
      "Front": 6625,
      "IFT": 6626,
      "तुल्य": 6627,
      "ृषि": 6628,
      "razil": 6629,
      "फाएं": 6630,
      "వ](https://te.wikipedia.org/wiki/List_of_": 6631,
      "రిహద్దు": 6632,
      "▁निभाई": 6633,
      "చ్చేరి": 6634,
      "▁डॉलर": 6635,
      "olnar": 6636,
      "_Commission": 6637,
      "_वार्ता:": 6638,
      "▁वृद्धि": 6639,
      "Tarlo1996": 6640,
      "business-": 6641,
      "runei": 6642,
      "ऍथनोल": 6643,
      "ुम्बई": 6644,
      "](https://hi.wikipedia.org/wiki/साँचा_वार्ता:": 6645,
      "ingapore": 6646,
      "▁Asher,": 6647,
      "acmillan": 6648,
      "ర్ణాటక": 6649,
      "_in_New_Delhi": 6650,
      "tudies": 6651,
      "हारजिस्ट्रार": 6652,
      "రుణాచల్": 6653,
      "న్‌ఫర్మేషన్": 6654,
      "ऍथनोलॉग": 6655,
      "-T": 6656,
      ".ed": 6657,
      "Forest": 6658,
      "Jha": 6659,
      "TO": 6660,
      "ault": 6661,
      "hl": 6662,
      "mil": 6663,
      "ott": 6664,
      "ogo": 6665,
      "tou": 6666,
      "orm": 6667,
      "](https://id": 6668,
      "onk": 6669,
      "tification": 6670,
      "▁(c": 6671,
      "▁(a)": 6672,
      "19.": 6673,
      "▁sq": 6674,
      "ager": 6675,
      "▁Policy": 6676,
      "rowing": 6677,
      "▁Day": 6678,
      "17.": 6679,
      "▁Asia:": 6680,
      "1):": 6681,
      "angetic": 6682,
      "▁leg": 6683,
      "isease": 6684,
      "parame": 6685,
      "▁Short": 6686,
      "▁commun": 6687,
      "▁2020.": 6688,
      "▁km2": 6689,
      "f/f": 6690,
      "d/d": 6691,
      "Wikipedia\\_articles": 6692,
      "itzel": 6693,
      "▁Conservation": 6694,
      "...]": 6695,
      "ield": 6696,
      "▁Minorities,": 6697,
      "▁(b)": 6698,
      "▁Increase": 6699,
      ".edu": 6700,
      "\"](http://www.": 6701,
      ")\"),": 6702,
      "-27": 6703,
      "2nd": 6704,
      "41": 6705,
      "First": 6706,
      "Home": 6707,
      "Official": 6708,
      "_201": 6709,
      "_2004": 6710,
      "ethnologue": 6711,
      "g)": 6712,
      "gu": 6713,
      "went": 6714,
      "}}": 6715,
      "कु": 6716,
      "ग्": 6717,
      "घर": 6718,
      "डे": 6719,
      "पया": 6720,
      "मधील": 6721,
      "ये": 6722,
      "र्य": 6723,
      "सार": 6724,
      "िष": 6725,
      "ोह": 6726,
      "▁:": 6727,
      "▁९": 6728,
      "▁web": 6729,
      "▁9.": 6730,
      "orig": 6731,
      "▁[ए": 6732,
      "▁[पु": 6733,
      "▁[धर्म": 6734,
      "▁[दिल्ली": 6735,
      "▁\"श": 6736,
      "▁\"राष्ट्रीय": 6737,
      "▁\"लोक": 6738,
      "\")\"": 6739,
      "▁सूर": 6740,
      "▁मिळ": 6741,
      "▁म्ह": 6742,
      "▁पै": 6743,
      "र्त": 6744,
      "-138": 6745,
      "▁can": 6746,
      "\\_country": 6747,
      "▁fig": 6748,
      "78.": 6749,
      "▁अति": 6750,
      "▁वन": 6751,
      "▁men": 6752,
      "_of_S": 6753,
      "▁जै": 6754,
      "▁जात": 6755,
      "illi": 6756,
      "ilbert": 6757,
      "ंगड": 6758,
      "▁Mar": 6759,
      "्याय": 6760,
      "▁Br": 6761,
      "ता\")": 6762,
      "1016": 6763,
      "indic": 6764,
      "▁Economy": 6765,
      "ldlife": 6766,
      "▁गे": 6767,
      "aks": 6768,
      "▁उद्योग": 6769,
      "▁ne": 6770,
      "प्रदेश": 6771,
      "नेट": 6772,
      "▁पर्यटन": 6773,
      "_महासागर": 6774,
      "▁[SAARC": 6775,
      "▁Hindus": 6776,
      "_Gandhi": 6777,
      "▁चार": 6778,
      "वंट": 6779,
      "_and_union_territ": 6780,
      "▁\"ब्रिटिश": 6781,
      "iteracy": 6782,
      "गणतंत्र": 6783,
      "_Fund": 6784,
      "स्थाप": 6785,
      "▁[संयुक्त": 6786,
      "_आणि": 6787,
      "▁झाले": 6788,
      "countries_and_depend": 6789,
      "▁\"संस्कृत": 6790,
      "ctorate": 6791,
      "encies_by": 6792,
      "▁Environmental": 6793,
      "jection": 6794,
      ".worldbank.org/": 6795,
      "▁dependencies": 6796,
      "imachal": 6797,
      "_उत्पाद": 6798,
      "fobox": 6799,
      "▁widely": 6800,
      "hattisgarh": 6801,
      "▁प्रभाव": 6802,
      "ethnologue.com/": 6803,
      "▁म्हण": 6804,
      "_and_union_territories": 6805,
      "countries_and_dependencies_by": 6806,
      "*](https://": 6807,
      "-e": 6808,
      "-k": 6809,
      "1]](https://en.wikipedia.org/wiki/India#cite_note-": 6810,
      "220": 6811,
      "5-3": 6812,
      "7-8": 6813,
      "Countries": 6814,
      "Wright": 6815,
      "_un": 6816,
      "_2011": 6817,
      "_Union": 6818,
      "cu": 6819,
      "cod": 6820,
      "ctive": 6821,
      "caste": 6822,
      "men": 6823,
      "mall": 6824,
      "ocal": 6825,
      "ppe": 6826,
      "page": 6827,
      "put": 6828,
      "rban": 6829,
      "s\").": 6830,
      "search": 6831,
      "u,": 6832,
      "uries": 6833,
      "upee": 6834,
      "wat": 6835,
      "▁7.": 6836,
      "▁known": 6837,
      "org": 6838,
      "orpor": 6839,
      "tte": 6840,
      "](Special:EditPage/Template:": 6841,
      "](https://www": 6842,
      "▁[History": 6843,
      "enj": 6844,
      "▁\"Special:EditPage/Template:": 6845,
      "anchi": 6846,
      "ties/": 6847,
      "alace": 6848,
      "alk:": 6849,
      "reen": 6850,
      "▁(S": 6851,
      "▁(2007": 6852,
      "▁(India)": 6853,
      "itar": 6854,
      "ick": 6855,
      "▁independence": 6856,
      "raman": 6857,
      "-05": 6858,
      "-0\").\r\n": 6859,
      "▁prac": 6860,
      "▁cre": 6861,
      "ation,": 6862,
      "▁Agency": 6863,
      "▁Sub": 6864,
      "acred": 6865,
      "▁talk:": 6866,
      "lima": 6867,
      "lose": 6868,
      "umeration": 6869,
      "istent": 6870,
      "▁[↑](https://en.wikipedia.org/wiki/India#cite_": 6871,
      "_of_South_Asia": 6872,
      "rove": 6873,
      "rocod": 6874,
      "una": 6875,
      "▁divis": 6876,
      "](https://en.wikipedia.org/wiki/India#cite_ref-vatsyayan-lord_43": 6877,
      "▁Tim": 6878,
      "▁Trade": 6879,
      "ola": 6880,
      "igen": 6881,
      "▁Dance": 6882,
      "▁Dyson": 6883,
      "2649": 6884,
      "269,": 6885,
      "▁last": 6886,
      "ayana": 6887,
      "lymp": 6888,
      "▁[↑](https://en.wikipedia.org/wiki/India#cite_ref-4": 6889,
      "▁Emer": 6890,
      "287,": 6891,
      "upreme": 6892,
      "beral": 6893,
      "▁east": 6894,
      "▁Ganges": 6895,
      "-349": 6896,
      "-4\").\r\n": 6897,
      "▁republic": 6898,
      "▁though": 6899,
      "akers": 6900,
      "establish": 6901,
      "osa": 6902,
      "40px-": 6903,
      "▁International": 6904,
      "_and_N": 6905,
      "_and_Development": 6906,
      "▁\"Central": 6907,
      "▁\"Climate": 6908,
      "▁On": 6909,
      "▁[China": 6910,
      "](https://en.wikipedia.org/wiki/China": 6911,
      "▁\"Ministry": 6912,
      "ourism": 6913,
      "s](https://en.wikipedia.org/wiki/B": 6914,
      "▁become": 6915,
      "▁[Mughal": 6916,
      "▁str": 6917,
      "rchitecture": 6918,
      "lled": 6919,
      "orea": 6920,
      "▁\"Template": 6921,
      "▁ancient": 6922,
      "_Ram": 6923,
      "▁\"Delhi": 6924,
      "▁Vedic": 6925,
      "](https://en.wikipedia.org/wiki/Template_": 6926,
      "](https://en.wikipedia.org/wiki/Delhi": 6927,
      "▁2011](https://en.wikipedia.org/wiki/India#CITEREF": 6928,
      "▁\"Routledge": 6929,
      "▁[Routledge": 6930,
      "▁[Tamil": 6931,
      "](Special:BookSources/978-0-521": 6932,
      "▁\"Special:BookSources/978-0-521": 6933,
      "](https://en.wikipedia.org/wiki/Routledge": 6934,
      "hyan": 6935,
      "_Economic": 6936,
      "▁2014](https://en.wikipedia.org/wiki/India#CITEREF": 6937,
      "▁tea": 6938,
      "▁US$": 6939,
      "▁centuries": 6940,
      "▁2007](https://en.wikipedia.org/wiki/India#CITEREF": 6941,
      "▁(2017).": 6942,
      "▁milk": 6943,
      "▁military": 6944,
      "prof": 6945,
      "▁[Fisher": 6946,
      "▁plain": 6947,
      "▁parliament": 6948,
      "▁[t](https://en.wikipedia.org/wiki/Template_": 6949,
      "▁China": 6950,
      "▁sever": 6951,
      "place": 6952,
      "talk:": 6953,
      "230-345": 6954,
      "▁Talbot,": 6955,
      "▁[e](Special:EditPage/Template:": 6956,
      "▁[v](Template:": 6957,
      "Fisher2018),": 6958,
      "▁Buddha": 6959,
      "▁upper": 6960,
      "Environment": 6961,
      "▁2025.\r\n": 6962,
      "arliamentary": 6963,
      "Hindustani": 6964,
      "▁2018](https://en.wikipedia.org/wiki/India#CITEREFFisher2018),": 6965,
      "rofile": 6966,
      "merican": 6967,
      "olden_Temple": 6968,
      "▁(1,269,": 6969,
      "▁3,287,": 6970,
      "▁Francis": 6971,
      "ibetan": 6972,
      "present": 6973,
      "▁(2006).": 6974,
      "forcement": 6975,
      "▁India](https://en.wikipedia.org/wiki/Government_of_India": 6976,
      "▁direct": 6977,
      "▁1994](https://en.wikipedia.org/wiki/India#CITEREF": 6978,
      "estival": 6979,
      "▁mi)": 6980,
      "struction": 6981,
      "▁Games\")": 6982,
      "-107-02649": 6983,
      "▁engineering": 6984,
      "▁village": 6985,
      "harmaceutical": 6986,
      "first": 6987,
      "▁millennium": 6988,
      "touch": 6989,
      "Wright2010": 6990,
      "▁(2007).": 6991,
      "limate_": 6992,
      "▁Dyson,": 6993,
      "▁[China](https://en.wikipedia.org/wiki/China": 6994,
      "▁\"Routledge\").": 6995,
      "▁[Routledge](https://en.wikipedia.org/wiki/Routledge": 6996,
      "▁[t](https://en.wikipedia.org/wiki/Template_talk:": 6997,
      "230-34549-2": 6998,
      "▁3,287,26": 6999,
      "-107-02649-0": 7000,
      "\"](https://web.archive.org/web/20": 7001,
      "*](https://web.archive.org/web/201": 7002,
      "-पूर्व": 7003,
      "-गंगा": 7004,
      "/g": 7005,
      "1200": 7006,
      "3-1": 7007,
      "528": 7008,
      "B0%": 7009,
      "OLA": 7010,
      "_त": 7011,
      "gar": 7012,
      "hdr": 7013,
      "sources": 7014,
      "tation": 7015,
      "zer": 7016,
      "ँकि": 7017,
      "ऋतु": 7018,
      "ऑपरेशन": 7019,
      "चार": 7020,
      "जल": 7021,
      "ण्यात": 7022,
      "तमान": 7023,
      "थाली": 7024,
      "प्": 7025,
      "म](https://hi.wikipedia.org/wiki/": 7026,
      "ऱ्या": 7027,
      "वड": 7028,
      "वत": 7029,
      "स,": 7030,
      "सत": 7031,
      "ంతి": 7032,
      "కాల": 7033,
      "కారం": 7034,
      "ఖ్": 7035,
      "గంగా": 7036,
      "టో": 7037,
      "డిన": 7038,
      "తీ": 7039,
      "ధి": 7040,
      "ధించ": 7041,
      "నల్": 7042,
      "మన": 7043,
      "మర": 7044,
      "ర్యా": 7045,
      "లం": 7046,
      "లతో": 7047,
      "లమె": 7048,
      "ీస్": 7049,
      "ూప": 7050,
      "ూరు": 7051,
      "ెనీ": 7052,
      "ౌక": 7053,
      "▁`": 7054,
      "▁ऐ": 7055,
      "▁६": 7056,
      "▁७": 7057,
      "▁ద": 7058,
      "▁ఫ": 7059,
      "▁దక్షిణ": 7060,
      "▁హిందూ": 7061,
      "▁గాంధీ": 7062,
      "tter": 7063,
      "▁[ना": 7064,
      "▁[భారతదేశం": 7065,
      "▁[राष्ट्रीय": 7066,
      "▁[ఢిల్లీ": 7067,
      "▁[गुजरात": 7068,
      "ene": 7069,
      "▁\"ची": 7070,
      "▁\"गुजरात": 7071,
      "▁\"विशेष:EditPage/साँचा:": 7072,
      "arak": 7073,
      "्रह": 7074,
      "▁कर्ज": 7075,
      "](https://hi.wikipedia.org/wiki/द": 7076,
      "](https://hi.wikipedia.org/wiki/प्र": 7077,
      "](https://hi.wikipedia.org/wiki/ने": 7078,
      "](https://hi.wikipedia.org/wiki/दिल्ली": 7079,
      "](https://hi.wikipedia.org/wiki/विशेष:EditPage/साँचा:": 7080,
      "reater": 7081,
      "भारत)\")": 7082,
      "▁सर्वोच्च": 7083,
      "▁सल्तनत": 7084,
      "▁(भारत)\")": 7085,
      "asp?": 7086,
      "▁मह": 7087,
      "▁मील": 7088,
      "▁पहु": 7089,
      "राक": 7090,
      "lease": 7091,
      "ानुसार": 7092,
      "▁pri": 7093,
      "▁हवेली": 7094,
      "ారస": 7095,
      "्त्री": 7096,
      "▁capita": 7097,
      "यास": 7098,
      "\\_identifiers": 7099,
      "▁वै": 7100,
      "ume": 7101,
      "ాలను": 7102,
      "नाइ": 7103,
      "ोंड": 7104,
      "స్](https://te.wikipedia.org/wiki/": 7105,
      "राजनी": 7106,
      "▁प्रजा": 7107,
      "▁प्रणाली": 7108,
      "▁प्रारम्भ": 7109,
      "21.": 7110,
      "▁పెద్ద": 7111,
      "▁आधुनिक": 7112,
      "00–సా.శ.పూ.": 7113,
      "▁Report": 7114,
      "लावा": 7115,
      "▁बनी": 7116,
      "▁बड़ी": 7117,
      "ర్లు": 7118,
      "▁निय": 7119,
      "s.com": 7120,
      "238": 7121,
      "ित्व": 7122,
      "24.": 7123,
      "లు\")": 7124,
      "िसी": 7125,
      "पुत्र": 7126,
      "माय": 7127,
      "-45": 7128,
      "▁गए": 7129,
      "ంది": 7130,
      "▁వే": 7131,
      "काश": 7132,
      "▁[महा": 7133,
      "▁परमाणु": 7134,
      "सां": 7135,
      "साय": 7136,
      "त्ता": 7137,
      "▁विवाद": 7138,
      "▁रहे": 7139,
      "द्रा": 7140,
      "स्ता": 7141,
      "▁सामाजिक": 7142,
      "14.": 7143,
      "ियान": 7144,
      "monsoon": 7145,
      "_के_देश": 7146,
      "जापान": 7147,
      "త్తం": 7148,
      "▁\"Sanskrit": 7149,
      "▁भाषाएँ": 7150,
      "▁(సా.శ.13": 7151,
      "▁(సా.శ.15": 7152,
      "चा:": 7153,
      "▁అనే": 7154,
      "▁ప్రజ": 7155,
      "తం\")": 7156,
      "0%E0%A": 7157,
      "▁१५": 7158,
      "▁१८": 7159,
      "](https://hi.wikipedia.org/wiki/महा": 7160,
      "ंदर": 7161,
      "ంచి": 7162,
      "▁[भारत](https://hi.wikipedia.org/wiki/भारत": 7163,
      "▁ఆఫ్": 7164,
      "भिन्न": 7165,
      "▁సాం": 7166,
      "ातंत्र": 7167,
      "ార్లమె": 7168,
      "द्यान": 7169,
      "▁Vol": 7170,
      "కిస్థాన్": 7171,
      "▁यादी": 7172,
      "▁जनता": 7173,
      "-symbols": 7174,
      "newsite": 7175,
      "](https://hi.wikipedia.org/wiki/कु": 7176,
      "▁घे": 7177,
      "▁నే": 7178,
      "▁నగర": 7179,
      "general": 7180,
      "द्वित": 7181,
      "▁इसी": 7182,
      "ాయి.": 7183,
      "▁२००": 7184,
      "టిబె": 7185,
      "▁1997": 7186,
      "్రీ.పూ.": 7187,
      "▁समूह": 7188,
      "पीए": 7189,
      "](https://hi.wikipedia.org/wiki/ब्रिटिश": 7190,
      "शील": 7191,
      "ैनिक": 7192,
      "ालाँकि": 7193,
      "ండియా": 7194,
      ".jpg/250px-S": 7195,
      "▁ఎక్కువ": 7196,
      "▁ఎన్నో": 7197,
      "िक्षा": 7198,
      "▁अधिकार": 7199,
      "▁जिसके": 7200,
      "हिन्द_महासागर": 7201,
      "्यटन\")": 7202,
      "](https://hi.wikipedia.org/wiki/उत्तर": 7203,
      "▁वायु": 7204,
      "▁./వర్గం:Wikipedia\\_articles": 7205,
      "_సం": 7206,
      "▁भूगोल": 7207,
      "national-symbols": 7208,
      "ారు.\r\n": 7209,
      "▁./श्रेणी:CS1\\_": 7210,
      "▁[t](https://hi.wikipedia.org/wiki/साँचा_वार्ता:": 7211,
      "श्रीनगर": 7212,
      "టుంబ": 7213,
      "▁\"जम्मू": 7214,
      "_का_खाना": 7215,
      "▁अपनी": 7216,
      "▁భారత్": 7217,
      "▁एशिया\")": 7218,
      "2001),": 7219,
      "धु-गंगा": 7220,
      "▁[e](https://hi.wikipedia.org/wiki/विशेष:EditPage/साँचा:": 7221,
      "▁[v](https://hi.wikipedia.org/wiki/साँचा:": 7222,
      "▁माध्य": 7223,
      "మెరి": 7224,
      "](https://hi.wikipedia.org/wiki/संस्कृत": 7225,
      "▁ऊँ": 7226,
      "▁ऊर्जा": 7227,
      "▁మొత్తం": 7228,
      "▁हुआ।": 7229,
      "▁सुधार": 7230,
      "బాద్": 7231,
      "▁प्रतिशत": 7232,
      "▁2004](https://hi.wikipedia.org/wiki/भारत#CITEREF": 7233,
      "_एवं": 7234,
      "ంపెనీ": 7235,
      "Wikipedia:": 7236,
      "ूरोपीय": 7237,
      "▁उद्यान": 7238,
      "▁उद्यान\")": 7239,
      "హ్మ": 7240,
      "▁व्यापार": 7241,
      ".aspx?rel": 7242,
      "▁ఏర్": 7243,
      "▁\"हिन्दी\")": 7244,
      "-language\\_sources": 7245,
      "१८५७": 7246,
      "retary": 7247,
      "▁शक्तिपीठ": 7248,
      "్రిటిషు": 7249,
      "-22)": 7250,
      "▁राजवंश\")": 7251,
      "▁किन्तु": 7252,
      "▁सहयोग": 7253,
      "▁विदेशी": 7254,
      "_और_संघ_क्षेत्र": 7255,
      "_Lanka": 7256,
      "AGE": 7257,
      "▁सितंबर": 7258,
      "▁जबकि": 7259,
      "तिब्बत": 7260,
      "_के_अनुसार_देशों_की_सूची": 7261,
      "▁అత్యధిక": 7262,
      "ईसाई": 7263,
      "ీర్ణ": 7264,
      "దక్షిణ_ఆసియా": 7265,
      "▁गठबंधन": 7266,
      "pib.nic.in/newsite": 7267,
      "र्तग": 7268,
      "▁\"गुजरात\")": 7269,
      "lease.aspx?rel": 7270,
      "▁प्रजाती": 7271,
      "-language\\_sources\\_(": 7272,
      "-asia": 7273,
      "2.\r\n": 7274,
      "3-": 7275,
      "4-3": 7276,
      "BRICS": 7277,
      "Mon": 7278,
      "Mumbai": 7279,
      "States": 7280,
      "Web": 7281,
      "_15": 7282,
      "_45": 7283,
      "_dom": 7284,
      "gion": 7285,
      "hā": 7286,
      "les/": 7287,
      "var": 7288,
      "wa": 7289,
      "{{": 7290,
      "▁Z": 7291,
      "▁40": 7292,
      "▁ob": 7293,
      "istered": 7294,
      "▁(2011": 7295,
      "ices": 7296,
      "19)": 7297,
      "rak": 7298,
      "▁poll": 7299,
      "▁census": 7300,
      "atch": 7301,
      "▁Singh": 7302,
      "▁based": 7303,
      "vert": 7304,
      "ily": 7305,
      "▁top": 7306,
      "▁Book": 7307,
      "103": 7308,
      "108": 7309,
      "links": 7310,
      "tud": 7311,
      "▁Gujarat": 7312,
      "-39": 7313,
      "ell": 7314,
      "opal": 7315,
      "2221": 7316,
      ".[[23": 7317,
      "▁1980": 7318,
      "▁nation": 7319,
      "▁John": 7320,
      "270": 7321,
      "170": 7322,
      "▁West": 7323,
      "-519": 7324,
      "_Times": 7325,
      "489": 7326,
      "▁expectancy": 7327,
      "▁\"International": 7328,
      "857": 7329,
      "times.indiatimes.com/": 7330,
      "orthographic": 7331,
      "▁[Ludden": 7332,
      "▁adop": 7333,
      "unjabi": 7334,
      "▁[*An": 7335,
      "/articles/": 7336,
      "▁2022.\r\n": 7337,
      "cms).": 7338,
      "KulkeRothermund2004),": 7339,
      "▁(2018).": 7340,
      "resident_of_India": 7341,
      "_projection": 7342,
      "ksai": 7343,
      "Library_of_Congress": 7344,
      "economictimes.indiatimes.com/": 7345,
      "▁zone": 7346,
      "onkani": 7347,
      "indicator": 7348,
      "orthographic_projection": 7349,
      "&ss": 7350,
      "-O": 7351,
      "-R": 7352,
      "-j": 7353,
      "-th": 7354,
      "2-0": 7355,
      "3]](https://en.wikipedia.org/wiki/India#cite_note-": 7356,
      "3-7": 7357,
      "8+": 7358,
      "9-6": 7359,
      ":**": 7360,
      "=`": 7361,
      "David": 7362,
      "MAAJ": 7363,
      "SN": 7364,
      "Sanskrit": 7365,
      "_10": 7366,
      "_28": 7367,
      "_50": 7368,
      "_18": 7369,
      "_1.": 7370,
      "bhasha": 7371,
      "cted": 7372,
      "ees": 7373,
      "even": 7374,
      "evanagari": 7375,
      "fun": 7376,
      "iosphere": 7377,
      "ji": 7378,
      "mas": 7379,
      "more": 7380,
      "oz": 7381,
      "rian": 7382,
      "rince": 7383,
      "ten": 7384,
      "top": 7385,
      "tain": 7386,
      "vin": 7387,
      "xim": 7388,
      "डु": 7389,
      "दारी": 7390,
      "पदी": 7391,
      "बे": 7392,
      "लिम": 7393,
      "ळ\")": 7394,
      "वरा": 7395,
      "श्र": 7396,
      "सव": 7397,
      "सित": 7398,
      "ृष्ट": 7399,
      "ोण": 7400,
      "ोत्तर": 7401,
      "ौपदी": 7402,
      "६६": 7403,
      "▁ve": 7404,
      "▁education": 7405,
      "▁establish": 7406,
      "pen": 7407,
      "▁[पश्चिम": 7408,
      "▁\"विश्व": 7409,
      "inan": 7410,
      "an,": 7411,
      "anada": 7412,
      "](https://en.wikipedia.org/wiki/U": 7413,
      "till": 7414,
      "India_G": 7415,
      "eri": 7416,
      "ers,": 7417,
      "ergy": 7418,
      "arrow": 7419,
      "alla": 7420,
      "ising": 7421,
      "isted": 7422,
      "cid": 7423,
      "▁समुद्र": 7424,
      "▁often": 7425,
      "▁महाराष्ट्र": 7426,
      "▁पक्ष": 7427,
      "ico": 7428,
      "▁India\"](https://web.archive.org/web/201": 7429,
      "रामाय": 7430,
      "lex": 7431,
      "▁inte": 7432,
      "▁inter": 7433,
      "raw": 7434,
      "र्ट": 7435,
      "र्न": 7436,
      "▁su": 7437,
      "▁sou": 7438,
      "▁set": 7439,
      "▁served": 7440,
      "▁pur": 7441,
      "am\")": 7442,
      "uscript": 7443,
      "▁Cather": 7444,
      "▁After": 7445,
      "▁See": 7446,
      "ad-": 7447,
      "adakh": 7448,
      "▁trade": 7449,
      "▁middle": 7450,
      "▁market": 7451,
      "▁Publication": 7452,
      "comp": 7453,
      "cha": 7454,
      "hek": 7455,
      "style": 7456,
      "▁दि": 7457,
      "unle": 7458,
      "fied": 7459,
      "▁where": 7460,
      "]](https://en.wikipedia.org/wiki/India#cite_note-1": 7461,
      "▁dist": 7462,
      "ंगोल": 7463,
      "00–": 7464,
      "लाओ": 7465,
      "▁तसे": 7466,
      "▁तुल": 7467,
      "▁निकोबार": 7468,
      "emen": 7469,
      "तात": 7470,
      "107": 7471,
      "▁India\").[[": 7472,
      "ayashi": 7473,
      "▁*A": 7474,
      "haw": 7475,
      "_in_M": 7476,
      "_in_the": 7477,
      "bercu": 7478,
      "▁ele": 7479,
      "▁even": 7480,
      "▁early": 7481,
      "▁Nuclear": 7482,
      "स्थ": 7483,
      "स्लिम": 7484,
      "elated": 7485,
      "_Agency": 7486,
      "-405": 7487,
      "508": 7488,
      "▁religions": 7489,
      "abel": 7490,
      "astron": 7491,
      "वाहर": 7492,
      "1857": 7493,
      "ली.": 7494,
      "ghts": 7495,
      "AAMAAJ": 7496,
      "_मु": 7497,
      "▁विषय": 7498,
      "▁Indians": 7499,
      "▁Law": 7500,
      "▁रू": 7501,
      "▁रे": 7502,
      "ensive": 7503,
      "द्रौपदी": 7504,
      "s/p": 7505,
      "▁Wiley": 7506,
      "lated": 7507,
      "▁[Craven": 7508,
      "s](https://en.wikipedia.org/wiki/P": 7509,
      "ajasthan": 7510,
      "-2\").": 7511,
      "undarb": 7512,
      "dira": 7513,
      "र्मू": 7514,
      "द्दाख": 7515,
      "▁ass": 7516,
      "_Modi": 7517,
      "_Mahal": 7518,
      "ommaraj": 7519,
      "_Tamil_Nadu": 7520,
      "▁\"Tamil": 7521,
      "▁[Pakistan": 7522,
      "hinese": 7523,
      "2011religion": 7524,
      "kee": 7525,
      "ublisher": 7526,
      "▁नेहर": 7527,
      "▁deve": 7528,
      "त्न": 7529,
      "त्मा": 7530,
      "▁rise": 7531,
      "▁rural": 7532,
      "▁rupee": 7533,
      "ically": 7534,
      "issions": 7535,
      "▁\"Ge": 7536,
      "▁V.": 7537,
      "▁[Delhi": 7538,
      "▁31": 7539,
      "वर्ती": 7540,
      "जनप": 7541,
      "neworld": 7542,
      "ष्क": 7543,
      "दाबाद": 7544,
      "](https://en.wikipedia.org/wiki/Re": 7545,
      "▁\"बंगाल": 7546,
      "म्राट": 7547,
      "▁\"Indus": 7548,
      "amily": 7549,
      "▁central": 7550,
      "uggle": 7551,
      "%E0%A4%9": 7552,
      "ohan": 7553,
      "ohenj": 7554,
      "न्नड": 7555,
      "ational_P": 7556,
      "▁[उर्दू": 7557,
      "▁१९७": 7558,
      "▁१९८": 7559,
      "-in-india": 7560,
      "▁\"उर्दू": 7561,
      "▁whose": 7562,
      "arch_2004": 7563,
      "2014-p": 7564,
      "▁Islands": 7565,
      "raditional": 7566,
      "▁[संस्कृत": 7567,
      "_dance": 7568,
      "oorkee": 7569,
      "▁बहुमत": 7570,
      "son2014-p": 7571,
      "ropped": 7572,
      "▁Shankar": 7573,
      "_War": 7574,
      "▁century,": 7575,
      "▁numbers": 7576,
      "cott": 7577,
      "▁speakers": 7578,
      "▁शिक्षण": 7579,
      "rupee": 7580,
      "▁include": 7581,
      "▁2008](https://en.wikipedia.org/wiki/India#CITEREF": 7582,
      "हाय्य": 7583,
      "athakali": 7584,
      "sites/": 7585,
      "lag_of_India": 7586,
      "▁mathematic": 7587,
      "-of-india-": 7588,
      "Ludden2014": 7589,
      "riage": 7590,
      "▁longer": 7591,
      "inistry_of_Home": 7592,
      "▁Africa": 7593,
      "▁major": 7594,
      "union_territory": 7595,
      "▁cities": 7596,
      "lackb": 7597,
      "losis": 7598,
      "▁द्वीपसमूह": 7599,
      "anorama": 7600,
      "arlung": 7601,
      "rigonom": 7602,
      "▁contribu": 7603,
      "Taj_Mahal": 7604,
      "ecutive": 7605,
      "awaharlal": 7606,
      "▁caused": 7607,
      "a_dynasty": 7608,
      "rajbhasha": 7609,
      "▁oldest": 7610,
      "हमदाबाद": 7611,
      "Census2011religion": 7612,
      "▁[India](https://en.wikipedia.org/wiki/India)": 7613,
      "o-daro": 7614,
      "entral_": 7615,
      "Tarlo1996-26": 7616,
      "▁[↑](https://en.wikipedia.org/wiki/India#cite_ref-1": 7617,
      "](https://en.wikipedia.org/wiki/India#cite_ref-vatsyayan-lord_432": 7618,
      "igenous": 7619,
      "beralisation": 7620,
      "Davidson2014-p": 7621,
      "inancial": 7622,
      "▁Catherine": 7623,
      "▁तसेच": 7624,
      "_in_March_2004": 7625,
      "berculosis": 7626,
      "astronom": 7627,
      "वाहरलाल": 7628,
      "undarbans": 7629,
      "ohenjo-daro": 7630,
      "inistry_of_Home_Affairs": 7631,
      "Taj_Mahal_in_March_2004": 7632,
      "\";\r\n": 7633,
      "/M": 7634,
      "223": 7635,
      "534": 7636,
      "AQAAQBAJ&pg=PA": 7637,
      "St": 7638,
      "_per": 7639,
      "_history": 7640,
      "aci": 7641,
      "egh": 7642,
      "maint:": 7643,
      "▁<": 7644,
      "](Special:BookSources/": 7645,
      "](Special:BookSources/978": 7646,
      "inated": 7647,
      "Indian_": 7648,
      "▁(1):": 7649,
      "etwork": 7650,
      "▁Century": 7651,
      "\\_parame": 7652,
      "library": 7653,
      "▁Movement": 7654,
      "emor": 7655,
      "25.": 7656,
      "1999": 7657,
      "Univers": 7658,
      "▁Ne": 7659,
      "forest": 7660,
      "▁198": 7661,
      "40.": 7662,
      "27.": 7663,
      "▁London": 7664,
      "▁([link": 7665,
      "▁[*M": 7666,
      "_maint:": 7667,
      "alaya": 7668,
      "ervice": 7669,
      "ukh": 7670,
      "CS1_maint:": 7671,
      "orities/": 7672,
      "▁consid": 7673,
      "/08/": 7674,
      "a/a": 7675,
      "-level": 7676,
      "AsherTalbot2008),": 7677,
      "cms)": 7678,
      "▁Monetary": 7679,
      "▁domestic": 7680,
      "maint:\\_": 7681,
      "\\_parameters": 7682,
      ".t": 7683,
      "/we": 7684,
      "2%29": 7685,
      "3-3": 7686,
      "428": 7687,
      "520": 7688,
      ":IN": 7689,
      "British": 7690,
      "E﻿": 7691,
      "KI": 7692,
      "Pe": 7693,
      "_ग": 7694,
      "_या": 7695,
      "_30": 7696,
      "_39": 7697,
      "_जन": 7698,
      "_జాబితా": 7699,
      "aver": 7700,
      "a-b": 7701,
      "bu": 7702,
      "cia": 7703,
      "gration": 7704,
      "music": 7705,
      "sci": 7706,
      "uin": 7707,
      "ंनी": 7708,
      "ंजन": 7709,
      "ंच्या": 7710,
      "अरब": 7711,
      "इव": 7712,
      "कटिबंधीय": 7713,
      "ख्": 7714,
      "घा": 7715,
      "टना": 7716,
      "ण्या": 7717,
      "मूल": 7718,
      "यार": 7719,
      "लेशिया": 7720,
      "शाली": 7721,
      "शक्ति": 7722,
      "हते": 7723,
      "ाचा": 7724,
      "ुस्तान": 7725,
      "ूटी": 7726,
      "ूनाइ": 7727,
      "ोसी": 7728,
      "२०१": 7729,
      "ఆంధ": 7730,
      "కీ": 7731,
      "కాలు": 7732,
      "క్రమ": 7733,
      "గర్": 7734,
      "డో": 7735,
      "థి": 7736,
      "నె": 7737,
      "నాలు": 7738,
      "పించ": 7739,
      "బడ్డ": 7740,
      "భర": 7741,
      "మహ": 7742,
      "మై": 7743,
      "యన": 7744,
      "రంగ": 7745,
      "లయా": 7746,
      "వార": 7747,
      "శీ": 7748,
      "షనల్": 7749,
      "స్య": 7750,
      "ృద్ధి": 7751,
      "ెంగ": 7752,
      "ేర": 7753,
      "–17": 7754,
      "–120": 7755,
      "▁దా": 7756,
      "▁local": 7757,
      "▁धीरे": 7758,
      "▁నాగరికత": 7759,
      "▁టెక్నాలజీ": 7760,
      "tten": 7761,
      "](https://catal": 7762,
      "▁[ख": 7763,
      "▁[चीन": 7764,
      "▁\"बा": 7765,
      "▁\"पश्चिम": 7766,
      "▁\"केर": 7767,
      "\")1": 7768,
      "tives": 7769,
      "ारे": 7770,
      "es.": 7771,
      "▁कला": 7772,
      "](https://hi.wikipedia.org/wiki/राजस्थान": 7773,
      "▁सश": 7774,
      "▁सी": 7775,
      "▁सो": 7776,
      "▁समान": 7777,
      "्यपालिका": 7778,
      "▁मशीन": 7779,
      "▁पृष्ठ": 7780,
      "▁India\r\n": 7781,
      "राइ": 7782,
      "let": 7783,
      "్రై": 7784,
      "్రప్రదేశ్": 7785,
      "rame": 7786,
      "](https://te.wikipedia.org/wiki/ఢిల్లీ": 7787,
      "ानून": 7788,
      "र्ण": 7789,
      "र्भ": 7790,
      "र्मा": 7791,
      "▁sim": 7792,
      "20085": 7793,
      "▁policy": 7794,
      "ritten": 7795,
      "▁हिल्": 7796,
      "▁हालाँकि": 7797,
      "ing,": 7798,
      "\\_template": 7799,
      "िकेट": 7800,
      "▁अभी": 7801,
      "▁वी": 7802,
      "ालर": 7803,
      "▁12.": 7804,
      "▁जिन्": 7805,
      "ilar": 7806,
      "stre": 7807,
      "దేశం": 7808,
      "దేశాల": 7809,
      "దేశాలు": 7810,
      "▁do": 7811,
      "▁प्रमाण": 7812,
      "▁Te": 7813,
      "olia": 7814,
      "▁आम": 7815,
      "▁आय": 7816,
      "▁आंद": 7817,
      "▁आदि": 7818,
      "▁Modi": 7819,
      "▁Machine": 7820,
      "▁Ram": 7821,
      "](https://mr.wikipedia.org/wiki/उ": 7822,
      "्वज": 7823,
      "▁बल": 7824,
      "▁बदल": 7825,
      "▁बैंक": 7826,
      "ర్‌": 7827,
      "▁ती": 7828,
      "▁तीस": 7829,
      "▁air": 7830,
      "s.jpg": 7831,
      "▁से](https://": 7832,
      "_स्": 7833,
      "_सागर": 7834,
      "లు?action=edit&redlink=1": 7835,
      "्रेल": 7836,
      "1991": 7837,
      "రాఠ": 7838,
      "विजयनगर": 7839,
      "▁Home": 7840,
      "▁కి": 7841,
      "▁కో": 7842,
      "स्चेंज": 7843,
      "रीक्षण": 7844,
      "క్టో": 7845,
      "▁गति": 7846,
      "నియా": 7847,
      "▁వర్": 7848,
      "▁వారస": 7849,
      "▁शांति": 7850,
      "abin": 7851,
      "geoh": 7852,
      "▁उस": 7853,
      "वाँ": 7854,
      "ల్వే": 7855,
      "ap_en": 7856,
      "▁సరిహద్దు": 7857,
      "साठी": 7858,
      "▁మన": 7859,
      "▁మూ": 7860,
      "os/": 7861,
      "ड़िशा": 7862,
      "पांड": 7863,
      "15/": 7864,
      "_and_T": 7865,
      "▁around": 7866,
      "म्प": 7867,
      "म्प्र": 7868,
      "ंडल": 7869,
      "ండమా": 7870,
      "▁रु": 7871,
      "▁చిన్న": 7872,
      "]](https://hi.wikipedia.org/wiki/भारत#cite_note-Combined": 7873,
      "తాన": 7874,
      "uccess": 7875,
      "ముఖ": 7876,
      "త్వం": 7877,
      "▁being": 7878,
      "▁भाषाएं": 7879,
      "कार्यपालिका": 7880,
      "▁(సా.శ.14": 7881,
      "dire": 7882,
      "ులు,": 7883,
      "–సా.శ.15": 7884,
      "–సా.శ.17": 7885,
      "▁ప్రతి": 7886,
      "▁ప్రస్తు": 7887,
      "▁ప్రకారం": 7888,
      "▁ప్రముఖ": 7889,
      "_Data_": 7890,
      "▁१०": 7891,
      "ంచిన": 7892,
      "కుడు": 7893,
      "▁[↑](https://hi.wikipedia.org/wiki/भारत#cite_ref-Combined": 7894,
      "▁प्रदेश](https://hi.wikipedia.org/wiki/मध्य": 7895,
      "నుమ": 7896,
      ".jpg)](https://mr.wikipedia.org/wiki/चित्र:": 7897,
      "irectorate": 7898,
      "ंत्रिक": 7899,
      "ंत्रिम": 7900,
      "▁पुलिस": 7901,
      "ింది.\r\n": 7902,
      "▁any": 7903,
      "▁deb": 7904,
      "▁రో": 7905,
      "▁రంగ": 7906,
      "▁రవాణా": 7907,
      "▁होते": 7908,
      "▁సాధించ": 7909,
      "▁\"कर्नाटक": 7910,
      "ష్టు": 7911,
      "▁[कर्नाटक": 7912,
      "E0%B0%": 7913,
      "▁[GDP": 7914,
      "▁चल": 7915,
      "वर्ल्": 7916,
      ",_కేంద్రపాలిత": 7917,
      "▁वर्ण": 7918,
      "▁वर्तमान": 7919,
      "ంతో": 7920,
      "रेन्द्र": 7921,
      "▁తరువా": 7922,
      "పాలన": 7923,
      "▁नागर": 7924,
      "ం](https://te.wikipedia.org/wiki/భారతీయ": 7925,
      "▁uni": 7926,
      "_map_en": 7927,
      "గుర్": 7928,
      "నేషనల్": 7929,
      "ूचियाँ": 7930,
      "anced": 7931,
      "▁ప్రాంతం": 7932,
      "[![](https://upload.wikimedia.org/wikipedia/commons/thumb/7/": 7933,
      "వందే": 7934,
      "तिहासिक": 7935,
      "▁किया।": 7936,
      "▁రాజ్యం](https://te.wikipedia.org/wiki/": 7937,
      "▁[International": 7938,
      "AsherTalbot20085": 7939,
      "▁బా": 7940,
      "▁బహు": 7941,
      "▁బెంగ": 7942,
      "▁गया।[[": 7943,
      "▁मानव": 7944,
      "▁CITEREFKulkeRothermund2004": 7945,
      "684": 7946,
      "_संविधान": 7947,
      "टेड": 7948,
      "आई.": 7949,
      "ాల్లో": 7950,
      "data.worldbank.org/": 7951,
      "](https://hi.wikipedia.org/wiki/उर्दू": 7952,
      "knowin": 7953,
      "▁notation": 7954,
      "శ్వా": 7955,
      "ूचना-विज्ञान": 7956,
      "ారిటీ": 7957,
      "स्ट्रेल": 7958,
      "एस.": 7959,
      "▁[↑](https://hi.wikipedia.org/wiki/भारत#cite_ref-FOOTNOTEStein1998": 7960,
      "-report": 7961,
      "ministered": 7962,
      "▁टक्के": 7963,
      "▁\"Official": 7964,
      "గోళ": 7965,
      "▁2016.\r\n": 7966,
      "ड़ीसा": 7967,
      "▁धरोहर": 7968,
      "▁across": 7969,
      "▁पार्ट": 7970,
      "कल_घ": 7971,
      "బడిన": 7972,
      "▁28.": 7973,
      "▁अपना": 7974,
      "▁Thomas": 7975,
      "▁संग्रा": 7976,
      "▁इतिहास\")": 7977,
      "त्तराखंड": 7978,
      "▁Art": 7979,
      "తున్న": 7980,
      "న్నిక": 7981,
      "▁స్వాతంత్ర్య": 7982,
      "▁కాలంలో": 7983,
      "▁संविधान\")": 7984,
      "१९४७": 7985,
      "राष्ट्रपति\")": 7986,
      ".net": 7987,
      "cat.org/": 7988,
      "▁थी।": 7989,
      "िन्धु-गंगा": 7990,
      "हायक": 7991,
      "▁स्थापना": 7992,
      "ంపి": 7993,
      "▁वार्षिक": 7994,
      "బెంగాల్": 7995,
      "विकि": 7996,
      "विकास": 7997,
      "▁According": 7998,
      "ెలవు": 7999,
      "▁लाख": 8000,
      "▁नीति": 8001,
      "](https://te.wikipedia.org/wiki/భారతదేశంలో_": 8002,
      "▁अनुसंधान": 8003,
      "▁लेकर": 8004,
      "ीपी)": 8005,
      "रेलू_उत्पाद": 8006,
      "ष्णकटिबंधीय": 8007,
      "britannica.com/place": 8008,
      "-India.pdf)": 8009,
      "▁सूचना-विज्ञान": 8010,
      "▁అధికారిక": 8011,
      "▁विस्तृत": 8012,
      "MetcalfMetcalf2012-26": 8013,
      "ఆర్ధిక": 8014,
      "▁मौसम": 8015,
      "▁పట్టణ": 8016,
      "▁కాశ్మీరు": 8017,
      "▁\"दिल्ली\")": 8018,
      "_सेना": 8019,
      "ంగ్లీషు": 8020,
      "▁अमेरिका": 8021,
      "thehindu": 8022,
      "▁हवामान": 8023,
      "संख्ये": 8024,
      "▁అయిన": 8025,
      "▁రెండు": 8026,
      "ాల్దీవులు": 8027,
      "ట్రో": 8028,
      "ుల్తాన": 8029,
      "▁[राजस्थान](https://hi.wikipedia.org/wiki/राजस्थान": 8030,
      "\\_कड़ियाँ": 8031,
      "రాష్ట్రాలు,_కేంద్రపాలిత": 8032,
      "भूटान": 8033,
      "దినోత్సవం": 8034,
      "▁వ్యాసం:": 8035,
      "्यायपालिका": 8036,
      "_and_union_territories_of_India": 8037,
      "0%E0%A4%": 8038,
      "▁[भारत](https://hi.wikipedia.org/wiki/भारत)": 8039,
      "ార్లమెంట": 8040,
      "▁./వర్గం:Wikipedia\\_articles\\_with\\_": 8041,
      "▁2004](https://hi.wikipedia.org/wiki/भारत#CITEREFKulkeRothermund2004),": 8042,
      "▁ఏర్ప": 8043,
      "-language\\_sources\\_(en": 8044,
      "▁तुलना": 8045,
      "▁[उर्दू](https://hi.wikipedia.org/wiki/उर्दू": 8046,
      "_यादी": 8047,
      "मूल्य": 8048,
      "ूनाइटेड": 8049,
      "ఆంధ్రప్రదేశ్": 8050,
      "లయాళ": 8051,
      "▁similar": 8052,
      "geohack": 8053,
      "▁प्रदेश](https://hi.wikipedia.org/wiki/मध्य_प्रदेश": 8054,
      "वर्ल्ड": 8055,
      "data.worldbank.org/indicator": 8056,
      "knowindia": 8057,
      "कल_घरेलू_उत्पाद": 8058,
      "రాష్ట్రాలు,_కేంద్రపాలిత_ప్రాంత": 8059,
      "*](https://www.": 8060,
      "*](https://web.archive.org/web/200": 8061,
      ",_India": 8062,
      "/news/": 8063,
      "0/": 8064,
      "0-0)": 8065,
      "1b": 8066,
      "1)\r\n": 8067,
      "4_": 8068,
      "4-0": 8069,
      "6%": 8070,
      "6-1": 8071,
      "8%": 8072,
      "8]](https://en.wikipedia.org/wiki/India#cite_note-": 8073,
      "AL": 8074,
      "BI": 8075,
      "CIA": 8076,
      "Constituent": 8077,
      "Flag_of_India": 8078,
      "Ge": 8079,
      "K:": 8080,
      "Navy": 8081,
      "OV": 8082,
      "PT": 8083,
      "Zor": 8084,
      "_ci": 8085,
      "_con": 8086,
      "_2008": 8087,
      "aur": 8088,
      "ahib": 8089,
      "audi": 8090,
      "bird": 8091,
      "b/b": 8092,
      "cutt": 8093,
      "dministrative": 8094,
      "digenous": 8095,
      "ealand": 8096,
      "ful": 8097,
      "hag": 8098,
      "io": 8099,
      "jha": 8100,
      "jayan": 8101,
      "lé": 8102,
      "mon": 8103,
      "pi": 8104,
      "pub": 8105,
      "sol": 8106,
      "spect": 8107,
      "tle": 8108,
      "water": 8109,
      "ypr": 8110,
      "–11": 8111,
      "–Pakistan": 8112,
      "▁X": 8113,
      "▁35": 8114,
      "▁4.": 8115,
      "▁5.": 8116,
      "▁8.": 8117,
      "▁times": 8118,
      "ora": 8119,
      "orary": 8120,
      "orne": 8121,
      ".wikidata": 8122,
      ".org/wiki/Q": 8123,
      "▁[Harle": 8124,
      "teri": 8125,
      "▁\"Special:BookSources/978": 8126,
      "in-O": 8127,
      "anal": 8128,
      "anch": 8129,
      "though": 8130,
      "hili": 8131,
      "ardian": 8132,
      "alak": 8133,
      "alcutt": 8134,
      "isa": 8135,
      "ison": 8136,
      "istic": 8137,
      "isak": 8138,
      "tion,": 8139,
      "anding": 8140,
      "▁(in": 8141,
      "▁(union": 8142,
      "▁(nominal)": 8143,
      "ito": 8144,
      "itor": 8145,
      "ital": 8146,
      "itchi": 8147,
      "asar": 8148,
      "ases": 8149,
      "asian": 8150,
      "](https://en.wikipedia.org/wiki/Indian": 8151,
      "▁India](https://en.wikipedia.org/wiki/P": 8152,
      "now": 8153,
      "▁ins": 8154,
      "▁so": 8155,
      "▁sultanate": 8156,
      "▁small": 8157,
      "▁plate": 8158,
      "etnam": 8159,
      "riy": 8160,
      "▁char": 8161,
      "▁cap": 8162,
      "ustice": 8163,
      "aten": 8164,
      "atri": 8165,
      "▁Cynth": 8166,
      "▁Am": 8167,
      "▁As": 8168,
      "▁Age": 8169,
      "▁Affair": 8170,
      "▁Schedule": 8171,
      "acher": 8172,
      "▁festival": 8173,
      "▁trib": 8174,
      "▁turn": 8175,
      "urg": 8176,
      "urasia": 8177,
      "urasian": 8178,
      "▁mark": 8179,
      "▁Prin": 8180,
      "_of_N": 8181,
      "ially": 8182,
      "ilt": 8183,
      "uns": 8184,
      "▁2016.": 8185,
      "]](https://en.wikipedia.org/wiki/India#cite_note-Dyson2018": 8186,
      "olice": 8187,
      "emi": 8188,
      "▁Bharat": 8189,
      "mentin-O": 8190,
      "nific": 8191,
      "ignific": 8192,
      "_(union_territory": 8193,
      "ir_S": 8194,
      "▁Desert": 8195,
      "24_A7C": 8196,
      "▁[↑](https://en.wikipedia.org/wiki/India#cite_ref-3": 8197,
      "▁[↑](https://en.wikipedia.org/wiki/India#cite_ref-Combined": 8198,
      "▁E.": 8199,
      "_in_A": 8200,
      "_in_T": 8201,
      "▁eaten": 8202,
      "▁2000": 8203,
      "elug": 8204,
      "_Ag": 8205,
      "▁three": 8206,
      "](https://en.wikipedia.org/wiki/India#CITEREFCraven1997": 8207,
      "abour": 8208,
      "▁1970": 8209,
      "▁1971": 8210,
      "29)": 8211,
      "▁[\"M": 8212,
      "▁Journal": 8213,
      "Harmand": 8214,
      "epali": 8215,
      "▁[Sri": 8216,
      "16]](https://en.wikipedia.org/wiki/India#cite_note-": 8217,
      "▁L.": 8218,
      "▁Organisation": 8219,
      "▁Olymp": 8220,
      "ension": 8221,
      "-9\").\r\n": 8222,
      "-981": 8223,
      "_Census": 8224,
      "](https://en.wikipedia.org/wiki/Climate_": 8225,
      "laci": 8226,
      "dog": 8227,
      ".gov.": 8228,
      "Harvard": 8229,
      "▁[↑](https://en.wikipedia.org/wiki/India#cite_ref-FOOTNOTECraven1997": 8230,
      "s](https://en.wikipedia.org/wiki/United": 8231,
      "-2\").\r\n": 8232,
      "-2](Special:BookSources/978-1": 8233,
      "artial": 8234,
      "ysis": 8235,
      "alled": 8236,
      "▁original](http://www.": 8237,
      "2006),": 8238,
      "temporary": 8239,
      "39)": 8240,
      "▁\"East": 8241,
      "▁\"Economic": 8242,
      "_Re": 8243,
      "_Nations": 8244,
      "_November": 8245,
      "_National_P": 8246,
      "ians": 8247,
      "_Games": 8248,
      "_Golden_Temple": 8249,
      "ible": 8250,
      "▁[978-0-19-9": 8251,
      "▁[978-0-521-80904-7": 8252,
      "ultures": 8253,
      "_pilgrim": 8254,
      "▁\"Russia": 8255,
      "▁[Russia": 8256,
      "](Special:BookSources/978-0-19-9": 8257,
      "▁\"Special:BookSources/978-0-19-9": 8258,
      "](https://en.wikipedia.org/wiki/Russia": 8259,
      "economy": 8260,
      "▁centre": 8261,
      "▁(2016).": 8262,
      "](https://en.wikipedia.org/wiki/Indus": 8263,
      "atis": 8264,
      "▁subject": 8265,
      "Stein201011": 8266,
      "58)": 8267,
      "_Indian_subcontinent": 8268,
      "▁./Category:Articles\\_contain": 8269,
      "_relations": 8270,
      "_des": 8271,
      "▁2023.": 8272,
      "▁2023](https://en.wikipedia.org/wiki/India#CITEREF": 8273,
      "ortality": 8274,
      "crimin": 8275,
      "oastrian": 8276,
      "ppines": 8277,
      "ample": 8278,
      "▁music\")": 8279,
      "ujarati": 8280,
      "▁about": 8281,
      "▁common": 8282,
      "▁diversity": 8283,
      "ID-19": 8284,
      "▁election\"),": 8285,
      "IAF": 8286,
      "_of_the_": 8287,
      "Vijayan": 8288,
      "Vietnam": 8289,
      "▁traditional": 8290,
      "▁well": 8291,
      "ikh_pilgrim": 8292,
      "al_Pradesh": 8293,
      "aharasht": 8294,
      "▁mathematics": 8295,
      "Harle1994),": 8296,
      "_Shankar": 8297,
      "rmy": 8298,
      "_at_the_Golden_Temple": 8299,
      ".svg/40px-": 8300,
      "hanghai": 8301,
      "▁player": 8302,
      "Robb2011": 8303,
      "ilies": 8304,
      "▁highest": 8305,
      "-language\\_text": 8306,
      "default": 8307,
      "anoram": 8308,
      "lectri": 8309,
      ".svg.png)](File:": 8310,
      "▁Publishing\").": 8311,
      "▁Europe*](https://books.google.com/books?id=": 8312,
      "otsp": 8313,
      "bbc": 8314,
      "izor": 8315,
      "hristianity": 8316,
      "▁remain": 8317,
      "▁colleges": 8318,
      "▁popular": 8319,
      "67733-7": 8320,
      "ichell2000": 8321,
      "_Air_Force": 8322,
      "kbar": 8323,
      "▁following": 8324,
      "▁\"China\")": 8325,
      "do-Gangetic": 8326,
      "ataraja": 8327,
      "▁emerged": 8328,
      "▁approxim": 8329,
      "IFTY": 8330,
      "▁legis": 8331,
      "orporation": 8332,
      "](https://www.wikidata": 8333,
      "▁divisions": 8334,
      "▁1994](https://en.wikipedia.org/wiki/India#CITEREFHarle1994),": 8335,
      "touchability": 8336,
      "▁1997](https://en.wikipedia.org/wiki/India#CITEREFCraven1997": 8337,
      "wait": 8338,
      "Library_of_Congress2004": 8339,
      "8+5": 8340,
      "rincely": 8341,
      "▁developed": 8342,
      "OVID-19": 8343,
      "Zoroastrian": 8344,
      "lémentin-O": 8345,
      "yprus": 8346,
      "hilippines": 8347,
      "alakrishnan": 8348,
      "alcutta": 8349,
      "itchison": 8350,
      "▁Cynthia": 8351,
      "_(union_territory)": 8352,
      "ir_Sahib": 8353,
      "Harmandir_Sahib": 8354,
      "_National_Park": 8355,
      "ikh_pilgrim_at_the_Golden_Temple": 8356,
      "aharashtra": 8357,
      "](https://www.wikidata.org/wiki/Q": 8358,
      "▁1997](https://en.wikipedia.org/wiki/India#CITEREFCraven1997),": 8359,
      "lémentin-Ojha": 8360,
      "#P": 8361,
      "-H": 8362,
      "-for": 8363,
      "-24)": 8364,
      "._": 8365,
      ".स": 8366,
      "/india/": 8367,
      "1%20": 8368,
      "613": 8369,
      "96": 8370,
      "CCN": 8371,
      "DR": 8372,
      "Economic": 8373,
      "RA": 8374,
      "_ध": 8375,
      "_he": 8376,
      "_ex": 8377,
      "bd": 8378,
      "culture": 8379,
      "gi": 8380,
      "hhattisgarh": 8381,
      "p)": 8382,
      "p.org/": 8383,
      "post": 8384,
      "y=": 8385,
      "इतिहास": 8386,
      "गी": 8387,
      "गरा": 8388,
      "जास": 8389,
      "डो": 8390,
      "तः": 8391,
      "तपु": 8392,
      "नै": 8393,
      "पीप": 8394,
      "मोर": 8395,
      "वणी": 8396,
      "सरी": 8397,
      "ैस": 8398,
      "्म": 8399,
      "्मार": 8400,
      "▁%": 8401,
      "▁ढ": 8402,
      "▁har": 8403,
      "▁टे": 8404,
      "▁[28": 8405,
      "▁[विश्व": 8406,
      "▁[केर": 8407,
      "▁[श्रीलंका": 8408,
      "▁\"धर्म": 8409,
      "▁\"श्रीलंका": 8410,
      "▁\"en:": 8411,
      "2020": 8412,
      "्रु": 8413,
      "▁कंपनी": 8414,
      "ispu": 8415,
      "्यु": 8416,
      "▁(J": 8417,
      "asu": 8418,
      "▁माना": 8419,
      "ica": 8420,
      "▁India\"](https://": 8421,
      "▁India\".": 8422,
      "राव": 8423,
      "राठा": 8424,
      "rah": 8425,
      "-13": 8426,
      "▁Court": 8427,
      "▁केले": 8428,
      "\\_देश": 8429,
      "▁birth": 8430,
      "urmu": 8431,
      "▁mo": 8432,
      "▁Portal": 8433,
      "▁दर्": 8434,
      "▁दिवस": 8435,
      "▁प्रशास": 8436,
      "▁Mana": 8437,
      "▁Mani": 8438,
      "▁ताप": 8439,
      "▁तीन": 8440,
      "▁Britannica": 8441,
      "▁Barb": 8442,
      "▁Bengali": 8443,
      "266": 8444,
      "240": 8445,
      "▁Gana": 8446,
      "113": 8447,
      "▁2002": 8448,
      "▁गा": 8449,
      "▁शा": 8450,
      "▁शहरी": 8451,
      "▁उदा": 8452,
      "▁Food": 8453,
      "▁Factbook": 8454,
      "▁संयुक्त": 8455,
      "▁इतर": 8456,
      "135": 8457,
      "_मो": 8458,
      "त्ताक": 8459,
      "▁growing": 8460,
      "▁Ludden": 8461,
      "laim": 8462,
      "मी2": 8463,
      "▁करते": 8464,
      "ंदिरा": 8465,
      "ंत्रण": 8466,
      "%2C_A": 8467,
      "%2C_M": 8468,
      "▁आहे.\r\n": 8469,
      "▁आहे.[[": 8470,
      "](https://mr.wikipedia.org/wiki/भारतीय_": 8471,
      "जीवन": 8472,
      "ार्थ": 8473,
      "▁[ब्रिटिश": 8474,
      "▁[बौद्ध": 8475,
      "▁[बिहार": 8476,
      "▁\"बिहार": 8477,
      "▁नाव": 8478,
      "ख्यिकी": 8479,
      "ल्स": 8480,
      "ल्पा": 8481,
      "▁History*](https://books.google.com/books?id=": 8482,
      "IND": 8483,
      "puri": 8484,
      "/countries/": 8485,
      "roupadi": 8486,
      "मेव": 8487,
      "34238": 8488,
      "68–": 8489,
      "▁Present": 8490,
      "त्यमेव": 8491,
      "_नृत्य": 8492,
      "्यांची": 8493,
      "▁विकसित": 8494,
      "flict": 8495,
      "▁केंद्रशासित": 8496,
      "▁मोठ": 8497,
      "▁झाला": 8498,
      "▁टा": 8499,
      "1947)": 8500,
      "▁\"संयुक्त": 8501,
      "▁न्यायाधीश": 8502,
      "▁ईस्ट": 8503,
      "aedia": 8504,
      "तेलुगु": 8505,
      "▁\"पंजाबी": 8506,
      "ause": 8507,
      "दर्भ": 8508,
      "▁[पंजाबी": 8509,
      "11934238": 8510,
      "्यानमार": 8511,
      "arathi": 8512,
      "▁dispute": 8513,
      "cyclopaedia": 8514,
      "▁आकर्ष": 8515,
      "ग्वेद": 8516,
      "िषद": 8517,
      "s.com/": 8518,
      "ातंत्र्य": 8519,
      "रामायण": 8520,
      "eghalaya": 8521,
      "जासत्ताक": 8522,
      "▁\"श्रीलंका\")": 8523,
      "▁Ludden,": 8524,
      "▁\"बिहार\")": 8525,
      "*[": 8526,
      "-hind": 8527,
      "/)": 8528,
      "1st": 8529,
      "126": 8530,
      "2-10": 8531,
      "310": 8532,
      "425": 8533,
      "623": 8534,
      "6-9": 8535,
      "Ali": 8536,
      "CA": 8537,
      "Col": 8538,
      "G20": 8539,
      "Republic": 8540,
      "ize": 8541,
      "lc": 8542,
      "rance": 8543,
      "ster": 8544,
      "vanced": 8545,
      "–29": 8546,
      "▁ter": 8547,
      "people": 8548,
      ".org/w": 8549,
      "thme": 8550,
      "▁India](https://en.wikipedia.org/wiki/D": 8551,
      "▁inequality": 8552,
      "id=1": 8553,
      "▁sec": 8554,
      "▁size": 8555,
      "ation)": 8556,
      "▁Council": 8557,
      "▁Ag": 8558,
      "▁Ste": 8559,
      "▁Sikh": 8560,
      "[[14": 8561,
      "▁ful": 8562,
      "789": 8563,
      "chol": 8564,
      "▁11.": 8565,
      "▁2015.": 8566,
      "ficient": 8567,
      "261": 8568,
      "▁India\")*.": 8569,
      "▁Har": 8570,
      "▁2009.": 8571,
      "18.": 8572,
      "▁[\"H": 8573,
      "▁Informatics": 8574,
      "▁[Ar": 8575,
      "16.": 8576,
      "▁Library": 8577,
      "_President_of_India": 8578,
      "ummary": 8579,
      ")[[3": 8580,
      ")[[13": 8581,
      "35.": 8582,
      "47)": 8583,
      "▁[BRICS": 8584,
      "▁\"BRICS": 8585,
      "▁II": 8586,
      "_Mar": 8587,
      "7080": 8588,
      "39.": 8589,
      "▁\"New": 8590,
      "▁provid": 8591,
      "\"](https://web.archive.org/web/20140": 8592,
      "iterature": 8593,
      "▁(2019).": 8594,
      "efence": 8595,
      "data.bnf.fr/ark:/12148/cb": 8596,
      "atter": 8597,
      "▁regional": 8598,
      "edicine": 8599,
      "▁above": 8600,
      "CON": 8601,
      "ustralian": 8602,
      "Ludden200": 8603,
      ".com/news/world": 8604,
      "index.php?": 8605,
      "▁Himalayas": 8606,
      "ogue.bnf.fr/ark:/12148/cb": 8607,
      "istorical": 8608,
      "atabase": 8609,
      "▁continu": 8610,
      "](https://id.": 8611,
      ".edu/": 8612,
      "profile": 8613,
      "rakash": 8614,
      "▁adopted": 8615,
      "thmetic": 8616,
      "#S": 8617,
      "-Y": 8618,
      "-v": 8619,
      "-ve": 8620,
      "-पाकिस्तान": 8621,
      ".JPG": 8622,
      "0/0": 8623,
      "0&s": 8624,
      "1.\r\n": 8625,
      "122": 8626,
      "3%": 8627,
      "478": 8628,
      "5.pdf)": 8629,
      "728": 8630,
      "7)[[": 8631,
      "72.": 8632,
      "748": 8633,
      "Atlas": 8634,
      "Business": 8635,
      "Curry": 8636,
      "Chennai": 8637,
      "Copland": 8638,
      "DS": 8639,
      "Gum": 8640,
      "Garg": 8641,
      "HQ": 8642,
      "Kumar": 8643,
      "L.": 8644,
      "Nehru": 8645,
      "OP": 8646,
      "SE": 8647,
      "Search": 8648,
      "Template": 8649,
      "Tritsch": 8650,
      "US": 8651,
      "Women": 8652,
      "YS": 8653,
      "Yum": 8654,
      "Young": 8655,
      "[https": 8656,
      "_Z": 8657,
      "_ह": 8658,
      "_te": 8659,
      "_21": 8660,
      "_वि": 8661,
      "_di": 8662,
      "_వి": 8663,
      "_2009": 8664,
      "_2007": 8665,
      "_World": 8666,
      "_val": 8667,
      "_पार": 8668,
      "_खाना": 8669,
      "_కాశ్మీ": 8670,
      "_monsoon": 8671,
      "_विकास": 8672,
      "a](https://en.wikipedia.org/wiki/A": 8673,
      "aze": 8674,
      "aidy": 8675,
      "dhy": 8676,
      "d=20": 8677,
      "fos": 8678,
      "fall": 8679,
      "gions": 8680,
      "iote": 8681,
      "jol": 8682,
      "k-e": 8683,
      "lation": 8684,
      "lla": 8685,
      "mc": 8686,
      "mt": 8687,
      "nus": 8688,
      "nins": 8689,
      "nathura": 8690,
      "oal": 8691,
      "ochi": 8692,
      "rh": 8693,
      "ride": 8694,
      "s)": 8695,
      "s_in_South_Asia": 8696,
      "tripura": 8697,
      "uff": 8698,
      "yr": 8699,
      "zard": 8700,
      "ædia": 8701,
      "ंज़": 8702,
      "ंपर": 8703,
      "अतुल्य": 8704,
      "आर्": 8705,
      "इप्र": 8706,
      "उद्यान": 8707,
      "ऋग्वेद": 8708,
      "ओआई": 8709,
      "कूल": 8710,
      "ख़": 8711,
      "चित": 8712,
      "जे": 8713,
      "जना": 8714,
      "जवा": 8715,
      "थम": 8716,
      "थुरा": 8717,
      "दून": 8718,
      "दयपुर": 8719,
      "धाक": 8720,
      "धोला": 8721,
      "निव": 8722,
      "नत्व": 8723,
      "नजं": 8724,
      "बलि": 8725,
      "मआई": 8726,
      "रिया\")": 8727,
      "ल-": 8728,
      "लब्": 8729,
      "व\")": 8730,
      "शहरा": 8731,
      "सू": 8732,
      "सों": 8733,
      "सैनिक": 8734,
      "हान": 8735,
      "़तर": 8736,
      "िझ": 8737,
      "िली": 8738,
      "ीकरण": 8739,
      "ुट": 8740,
      "ूड": 8741,
      "ैम्ब": 8742,
      "ो-": 8743,
      "ोढ़": 8744,
      "ोटे": 8745,
      "ोडिया": 8746,
      "१५": 8747,
      "४.": 8748,
      "ంస్కృ": 8749,
      "ఉత్తరా": 8750,
      "ఖో": 8751,
      "ఘాలయ": 8752,
      "చ్": 8753,
      "టై": 8754,
      "టర్": 8755,
      "డమ్": 8756,
      "డఖ్": 8757,
      "ణే": 8758,
      "ణంగా": 8759,
      "తే": 8760,
      "తెల": 8761,
      "దరంగ": 8762,
      "నో": 8763,
      "నంద": 8764,
      "బర్": 8765,
      "బార్": 8766,
      "యె": 8767,
      "రె": 8768,
      "లడఖ్": 8769,
      "ళా": 8770,
      "ళి": 8771,
      "శు": 8772,
      "హించ": 8773,
      "ుకు": 8774,
      "ెన్న": 8775,
      "ెట్రో": 8776,
      "ేతి": 8777,
      "ేఘాలయ": 8778,
      "ైనిక": 8779,
      "ొగలు": 8780,
      "ోళ": 8781,
      "‌కా": 8782,
      "‌మహ": 8783,
      "▁x": 8784,
      "▁y": 8785,
      "▁ठ": 8786,
      "▁८": 8787,
      "▁ఐ": 8788,
      "▁ఖ": 8789,
      "▁ki": 8790,
      "▁er": 8791,
      "▁enti": 8792,
      "▁go": 8793,
      "▁op": 8794,
      "▁rit": 8795,
      "▁–సా.శ.": 8796,
      "▁భారతీయ": 8797,
      "▁very": 8798,
      "kid=20": 8799,
      "orse": 8800,
      "orbe": 8801,
      "ttac": 8802,
      "perc": 8803,
      "▁[g": 8804,
      "▁[రాష్ట్ర": 8805,
      "▁[జన": 8806,
      "▁[बांग्ला": 8807,
      "▁[గో": 8808,
      "▁[...]": 8809,
      "enced": 8810,
      "tesv": 8811,
      "▁\"Y": 8812,
      "▁\"ना": 8813,
      "▁\"పా": 8814,
      "▁\"జన": 8815,
      "▁\"बांग्ला": 8816,
      "▁\"గో": 8817,
      "▁\"మూస:": 8818,
      "▁\"Hinduism": 8819,
      "▁\"पूर्वी": 8820,
      "▁\"हिमाचल": 8821,
      "▁\"ISO": 8822,
      "Infos": 8823,
      "thang": 8824,
      "th_East_Asia_Summit": 8825,
      "](https://en.wikipedia.org/wiki/United": 8826,
      "til": 8827,
      "hic": 8828,
      "hip": 8829,
      "er-": 8830,
      "erce": 8831,
      "arc": 8832,
      "arayan": 8833,
      "algh": 8834,
      "्रिज": 8835,
      "▁किल्": 8836,
      "](https://hi.wikipedia.org/wiki/पु": 8837,
      "](https://hi.wikipedia.org/wiki/का": 8838,
      "](https://hi.wikipedia.org/wiki/धर्म": 8839,
      "](https://hi.wikipedia.org/wiki/लोक": 8840,
      "](https://hi.wikipedia.org/wiki/बांग्ला": 8841,
      "](https://hi.wikipedia.org/wiki/विश्व": 8842,
      "](https://hi.wikipedia.org/wiki/गुजरात": 8843,
      "](https://hi.wikipedia.org/wiki/राष्ट्रीय_स": 8844,
      "भारत_के_राज्य": 8845,
      "▁सहायक": 8846,
      "andy": 8847,
      "andoor": 8848,
      "andemic": 8849,
      "oms": 8850,
      "omic": 8851,
      "edary": 8852,
      "▁(2010": 8853,
      "▁(2003": 8854,
      "▁(2005": 8855,
      "▁(अभिज्ञापक": 8856,
      "▁मत": 8857,
      "▁मध्ये": 8858,
      "▁मिला": 8859,
      "▁महारजिस्ट्रार": 8860,
      "▁पड": 8861,
      "▁पी": 8862,
      "▁पत्र": 8863,
      "▁पब्ल": 8864,
      "▁India](https://en.wikipedia.org/wiki/E": 8865,
      "रान": 8866,
      "19-1": 8867,
      "nold": 8868,
      "ooking": 8869,
      "▁institu": 8870,
      "](https://te.wikipedia.org/wiki/భారతదేశ": 8871,
      "](https://te.wikipedia.org/wiki/గో": 8872,
      "](https://te.wikipedia.org/wiki/మూస:": 8873,
      "entin": 8874,
      "▁sur": 8875,
      "▁shar": 8876,
[...]
