{
  "version": "1.0",
  "truncation": null,
  "padding": null,
  "added_tokens": [
    {
      "id": 0,
      "content": "<0x00>",
      "single_word": false,
      "lstrip": false,
      "rstrip": false,
      "normalized": false,
      "special": true
    },
    {
      "id": 1,
      "content": "<0x01>",
      "single_word": false,
      "lstrip": false,
      "rstrip": false,
      "normalized": false,
      "special": true
    },
    {
      "id": 2,
      "content": "<0x02>",
      "single_word": false,
      "lstrip": false,
      "rstrip": false,
      "normalized": false,
      "special": true
    },
    {
      "id": 3,
      "content": "<0x03>",
      "single_word": false,
      "lstrip": false,
      "rstrip": false,
      "normalized": false,
      "special": true
    },
    {
      "id": 4,
      "content": "<0x04>",
      "single_word": false,
      "lstrip": false,
      "rstrip": false,
      "normalized": false,
      "special": true
    },
    {
      "id": 5,
      "content": "<0x05>",
      "single_word": false,
      "lstrip": false,
      "rstrip": false,
      "normalized": false,
      "special": true
    },
    {
      "id": 6,
      "content": "<0x06>",
      "single_word": false,
      "lstrip": false,
      "rstrip": false,
      "normalized": false,
      "special": true
    },
    {
      "id": 7,
      "content": "<0x07>",
      "single_word": false,
      "lstrip": false,
      "rstrip": false,
      "normalized": false,
      "special": true
    },
    {
      "id": 8,
      "content": "<0x08>",
      "single_word": false,
      "lstrip": false,
      "rstrip": false,
      "normalized": false,
      "special": true
    },
    {
      "id": 9,
      "content": "<0x09>",
      "single_word": false,
      "lstrip": false,
      "rstrip": false,
      "normalized": false,
      "special": true
    },
    {
      "id": 10,
      "content": "<0x0A>",
      "single_word": false,
      "lstrip": false,
      "rstrip": false,
      "normalized": false,
      "special": true
    },
    {
      "id": 11,
      "content": "<0x0B>",
      "single_word": false,
      "lstrip": false,
      "rstrip": false,
      "normalized": false,
      "special": true
    },
    {
      "id": 12,
      "content": "<0x0C>",
      "single_word": false,
      "lstrip": false,
      "rstrip": false,
      "normalized": false,
      "special": true
    },
    {
      "id": 13,
      "content": "<0x0D>",
      "single_word": false,
      "lstrip": false,
      "rstrip": false,
      "normalized": false,
      "special": true
    },
    {
      "id": 14,
      "content": "<0x0E>",
      "single_word": false,
      "lstrip": false,
      "rstrip": false,
      "normalized": false,
      "special": true
    },
    {
      "id": 15,
      "content": "<0x0F>",
      "single_word": false,
      "lstrip": false,
      "rstrip": false,
      "normalized": false,
      "special": true
    },
    {
      "id": 16,
      "content": "<0x10>",
      "single_word": false,
      "lstrip": false,
      "rstrip": false,
      "normalized": false,
      "special": true
    },
    {
      "id": 17,
      "content": "<0x11>",
      "single_word": false,
      "lstrip": false,
      "rstrip": false,
      "normalized": false,
      "special": true
    },
    {
      "id": 18,
      "content": "<0x12>",
      "single_word": false,
      "lstrip": false,
      "rstrip": false,
      "normalized": false,
      "special": true
    },
    {
      "id": 19,
      "content": "<0x13>",
      "single_word": false,
      "lstrip": false,
      "rstrip": false,
      "normalized": false,
      "special": true
    },
    {
      "id": 20,
      "content": "<0x14>",
      "single_word": false,
      "lstrip": false,
      "rstrip": false,
      "normalized": false,
      "special": true
    },
    {
      "id": 21,
      "content": "<0x15>",
      "single_word": false,
      "lstrip": false,
      "rstrip": false,
      "normalized": false,
      "special": true
    },
    {
      "id": 22,
      "content": "<0x16>",
      "single_word": false,
      "lstrip": false,
      "rstrip": false,
      "normalized": false,
      "special": true
    },
    {
      "id": 23,
      "content": "<0x17>",
      "single_word": false,
      "lstrip": false,
      "rstrip": false,
      "normalized": false,
      "special": true
    },
    {
      "id": 24,
      "content": "<0x18>",
      "single_word": false,
      "lstrip": false,
      "rstrip": false,
      "normalized": false,
      "special": true
    },
    {
      "id": 25,
      "content": "<0x19>",
      "single_word": false,
      "lstrip": false,
      "rstrip": false,
      "normalized": false,
      "special": true
    },
    {
      "id": 26,
      "content": "<0x1A>",
      "single_word": false,
      "lstrip": false,
      "rstrip": false,
      "normalized": false,
      "special": true
    },
    {
      "id": 27,
      "content": "<0x1B>",
      "single_word": false,
      "lstrip": false,
      "rstrip": false,
      "normalized": false,
      "special": true
    },
    {
      "id": 28,
      "content": "<0x1C>",
      "single_word": false,
      "lstrip": false,
      "rstrip": false,
      "normalized": false,
      "special": true
    },
    {
      "id": 29,
      "content": "<0x1D>",
      "single_word": false,
      "lstrip": false,
      "rstrip": false,
      "normalized": false,
      "special": true
    },
    {
      "id": 30,
      "content": "<0x1E>",
      "single_word": false,
      "lstrip": false,
      "rstrip": false,
      "normalized": false,
      "special": true
    },
    {
      "id": 31,
      "content": "<0x1F>",
      "single_word": false,
      "lstrip": false,
      "rstrip": false,
      "normalized": false,
      "special": true
    },
    {
      "id": 32,
      "content": "<0x20>",
      "single_word": false,
      "lstrip": false,
      "rstrip": false,
      "normalized": false,
      "special": true
    },
    {
      "id": 33,
      "content": "<0x21>",
      "single_word": false,
      "lstrip": false,
      "rstrip": false,
      "normalized": false,
      "special": true
    },
    {
      "id": 34,
      "content": "<0x22>",
      "single_word": false,
      "lstrip": false,
      "rstrip": false,
      "normalized": false,
      "special": true
    },
    {
      "id": 35,
      "content": "<0x23>",
      "single_word": false,
      "lstrip": false,
      "rstrip": false,
      "normalized": false,
      "special": true
    },
    {
      "id": 36,
      "content": "<0x24>",
      "single_word": false,
      "lstrip": false,
      "rstrip": false,
      "normalized": false,
      "special": true
    },
    {
      "id": 37,
      "content": "<0x25>",
      "single_word": false,
      "lstrip": false,
      "rstrip": false,
      "normalized": false,
      "special": true
    },
    {
      "id": 38,
      "content": "<0x26>",
      "single_word": false,
      "lstrip": false,
      "rstrip": false,
      "normalized": false,
      "special": true
    },
    {
      "id": 39,
      "content": "<0x27>",
      "single_word": false,
      "lstrip": false,
      "rstrip": false,
      "normalized": false,
      "special": true
    },
    {
      "id": 40,
      "content": "<0x28>",
      "single_word": false,
      "lstrip": false,
      "rstrip": false,
      "normalized": false,
      "special": true
    },
    {
      "id": 41,
      "content": "<0x29>",
      "single_word": false,
      "lstrip": false,
      "rstrip": false,
      "normalized": false,
      "special": true
    },
    {
      "id": 42,
      "content": "<0x2A>",
      "single_word": false,
      "lstrip": false,
      "rstrip": false,
      "normalized": false,
      "special": true
    },
    {
      "id": 43,
      "content": "<0x2B>",
      "single_word": false,
      "lstrip": false,
      "rstrip": false,
      "normalized": false,
      "special": true
    },
    {
      "id": 44,
      "content": "<0x2C>",
      "single_word": false,
      "lstrip": false,
      "rstrip": false,
      "normalized": false,
      "special": true
    },
    {
      "id": 45,
      "content": "<0x2D>",
      "single_word": false,
      "lstrip": false,
      "rstrip": false,
      "normalized": false,
      "special": true
    },
    {
      "id": 46,
      "content": "<0x2E>",
      "single_word": false,
      "lstrip": false,
      "rstrip": false,
      "normalized": false,
      "special": true
    },
    {
      "id": 47,
      "content": "<0x2F>",
      "single_word": false,
      "lstrip": false,
      "rstrip": false,
      "normalized": false,
      "special": true
    },
    {
      "id": 48,
      "content": "<0x30>",
      "single_word": false,
      "lstrip": false,
      "rstrip": false,
      "normalized": false,
      "special": true
    },
    {
      "id": 49,
      "content": "<0x31>",
      "single_word": false,
      "lstrip": false,
      "rstrip": false,
      "normalized": false,
      "special": true
    },
    {
      "id": 50,
      "content": "<0x32>",
      "single_word": false,
      "lstrip": false,
      "rstrip": false,
      "normalized": false,
      "special": true
    },
    {
      "id": 51,
      "content": "<0x33>",
      "single_word": false,
      "lstrip": false,
      "rstrip": false,
      "normalized": false,
      "special": true
    },
    {
      "id": 52,
      "content": "<0x34>",
      "single_word": false,
      "lstrip": false,
      "rstrip": false,
      "normalized": false,
      "special": true
    },
    {
      "id": 53,
      "content": "<0x35>",
      "single_word": false,
      "lstrip": false,
      "rstrip": false,
      "normalized": false,
      "special": true
    },
    {
      "id": 54,
      "content": "<0x36>",
      "single_word": false,
      "lstrip": false,
      "rstrip": false,
      "normalized": false,
      "special": true
    },
    {
      "id": 55,
      "content": "<0x37>",
      "single_word": false,
      "lstrip": false,
      "rstrip": false,
      "normalized": false,
      "special": true
    },
    {
      "id": 56,
      "content": "<0x38>",
      "single_word": false,
      "lstrip": false,
      "rstrip": false,
      "normalized": false,
      "special": true
    },
    {
      "id": 57,
      "content": "<0x39>",
      "single_word": false,
      "lstrip": false,
      "rstrip": false,
      "normalized": false,
      "special": true
    },
    {
      "id": 58,
      "content": "<0x3A>",
      "single_word": false,
      "lstrip": false,
      "rstrip": false,
      "normalized": false,
      "special": true
    },
    {
      "id": 59,
      "content": "<0x3B>",
      "single_word": false,
      "lstrip": false,
      "rstrip": false,
      "normalized": false,
      "special": true
    },
    {
      "id": 60,
      "content": "<0x3C>",
      "single_word": false,
      "lstrip": false,
      "rstrip": false,
      "normalized": false,
      "special": true
    },
    {
      "id": 61,
      "content": "<0x3D>",
      "single_word": false,
      "lstrip": false,
      "rstrip": false,
      "normalized": false,
      "special": true
    },
    {
      "id": 62,
      "content": "<0x3E>",
      "single_word": false,
      "lstrip": false,
      "rstrip": false,
      "normalized": false,
      "special": true
    },
    {
      "id": 63,
      "content": "<0x3F>",
      "single_word": false,
      "lstrip": false,
      "rstrip": false,
      "normalized": false,
      "special": true
    },
    {
      "id": 64,
      "content": "<0x40>",
      "single_word": false,
      "lstrip": false,
      "rstrip": false,
      "normalized": false,
      "special": true
    },
    {
      "id": 65,
      "content": "<0x41>",
      "single_word": false,
      "lstrip": false,
      "rstrip": false,
      "normalized": false,
      "special": true
    },
    {
      "id": 66,
      "content": "<0x42>",
      "single_word": false,
      "lstrip": false,
      "rstrip": false,
      "normalized": false,
      "special": true
    },
    {
      "id": 67,
      "content": "<0x43>",
      "single_word": false,
      "lstrip": false,
      "rstrip": false,
      "normalized": false,
      "special": true
    },
    {
      "id": 68,
      "content": "<0x44>",
      "single_word": false,
      "lstrip": false,
      "rstrip": false,
      "normalized": false,
      "special": true
    },
    {
      "id": 69,
      "content": "<0x45>",
      "single_word": false,
      "lstrip": false,
      "rstrip": false,
      "normalized": false,
      "special": true
    },
    {
      "id": 70,
      "content": "<0x46>",
      "single_word": false,
      "lstrip": false,
      "rstrip": false,
      "normalized": false,
      "special": true
    },
    {
      "id": 71,
      "content": "<0x47>",
      "single_word": false,
      "lstrip": false,
      "rstrip": false,
      "normalized": false,
      "special": true
    },
    {
      "id": 72,
      "content": "<0x48>",
      "single_word": false,
      "lstrip": false,
      "rstrip": false,
      "normalized": false,
      "special": true
    },
    {
      "id": 73,
      "content": "<0x49>",
      "single_word": false,
      "lstrip": false,
      "rstrip": false,
      "normalized": false,
      "special": true
    },
    {
      "id": 74,
      "content": "<0x4A>",
      "single_word": false,
      "lstrip": false,
      "rstrip": false,
      "normalized": false,
      "special": true
    },
    {
      "id": 75,
      "content": "<0x4B>",
      "single_word": false,
      "lstrip": false,
      "rstrip": false,
      "normalized": false,
      "special": true
    },
    {
      "id": 76,
      "content": "<0x4C>",
      "single_word": false,
      "lstrip": false,
      "rstrip": false,
      "normalized": false,
      "special": true
    },
    {
      "id": 77,
      "content": "<0x4D>",
      "single_word": false,
      "lstrip": false,
      "rstrip": false,
      "normalized": false,
      "special": true
    },
    {
      "id": 78,
      "content": "<0x4E>",
      "single_word": false,
      "lstrip": false,
      "rstrip": false,
      "normalized": false,
      "special": true
    },
    {
      "id": 79,
      "content": "<0x4F>",
      "single_word": false,
      "lstrip": false,
      "rstrip": false,
      "normalized": false,
      "special": true
    },
    {
      "id": 80,
      "content": "<0x50>",
      "single_word": false,
      "lstrip": false,
      "rstrip": false,
      "normalized": false,
      "special": true
    },
    {
      "id": 81,
      "content": "<0x51>",
      "single_word": false,
      "lstrip": false,
      "rstrip": false,
      "normalized": false,
      "special": true
    },
    {
      "id": 82,
      "content": "<0x52>",
      "single_word": false,
      "lstrip": false,
      "rstrip": false,
      "normalized": false,
      "special": true
    },
    {
      "id": 83,
      "content": "<0x53>",
      "single_word": false,
      "lstrip": false,
      "rstrip": false,
      "normalized": false,
      "special": true
    },
    {
      "id": 84,
      "content": "<0x54>",
      "single_word": false,
      "lstrip": false,
      "rstrip": false,
      "normalized": false,
      "special": true
    },
    {
      "id": 85,
      "content": "<0x55>",
      "single_word": false,
      "lstrip": false,
      "rstrip": false,
      "normalized": false,
      "special": true
    },
    {
      "id": 86,
      "content": "<0x56>",
      "single_word": false,
      "lstrip": false,
      "rstrip": false,
      "normalized": false,
      "special": true
    },
    {
      "id": 87,
      "content": "<0x57>",
      "single_word": false,
      "lstrip": false,
      "rstrip": false,
      "normalized": false,
      "special": true
    },
    {
      "id": 88,
      "content": "<0x58>",
      "single_word": false,
      "lstrip": false,
      "rstrip": false,
      "normalized": false,
      "special": true
    },
    {
      "id": 89,
      "content": "<0x59>",
      "single_word": false,
      "lstrip": false,
      "rstrip": false,
      "normalized": false,
      "special": true
    },
    {
      "id": 90,
      "content": "<0x5A>",
      "single_word": false,
      "lstrip": false,
      "rstrip": false,
      "normalized": false,
      "special": true
    },
    {
      "id": 91,
      "content": "<0x5B>",
      "single_word": false,
      "lstrip": false,
      "rstrip": false,
      "normalized": false,
      "special": true
    },
    {
      "id": 92,
      "content": "<0x5C>",
      "single_word": false,
      "lstrip": false,
      "rstrip": false,
      "normalized": false,
      "special": true
    },
    {
      "id": 93,
      "content": "<0x5D>",
      "single_word": false,
      "lstrip": false,
      "rstrip": false,
      "normalized": false,
      "special": true
    },
    {
      "id": 94,
      "content": "<0x5E>",
      "single_word": false,
      "lstrip": false,
      "rstrip": false,
      "normalized": false,
      "special": true
    },
    {
      "id": 95,
      "content": "<0x5F>",
      "single_word": false,
      "lstrip": false,
      "rstrip": false,
      "normalized": false,
      "special": true
    },
    {
      "id": 96,
      "content": "<0x60>",
      "single_word": false,
      "lstrip": false,
      "rstrip": false,
      "normalized": false,
      "special": true
    },
    {
      "id": 97,
      "content": "<0x61>",
      "single_word": false,
      "lstrip": false,
      "rstrip": false,
      "normalized": false,
      "special": true
    },
    {
      "id": 98,
      "content": "<0x62>",
      "single_word": false,
      "lstrip": false,
      "rstrip": false,
      "normalized": false,
      "special": true
    },
    {
      "id": 99,
      "content": "<0x63>",
      "single_word": false,
      "lstrip": false,
      "rstrip": false,
      "normalized": false,
      "special": true
    },
    {
      "id": 100,
      "content": "<0x64>",
      "single_word": false,
      "lstrip": false,
      "rstrip": false,
      "normalized": false,
      "special": true
    },
    {
      "id": 101,
      "content": "<0x65>",
      "single_word": false,
      "lstrip": false,
      "rstrip": false,
      "normalized": false,
      "special": true
    },
    {
      "id": 102,
      "content": "<0x66>",
      "single_word": false,
      "lstrip": false,
      "rstrip": false,
      "normalized": false,
      "special": true
    },
    {
      "id": 103,
      "content": "<0x67>",
      "single_word": false,
      "lstrip": false,
      "rstrip": false,
      "normalized": false,
      "special": true
    },
    {
      "id": 104,
      "content": "<0x68>",
      "single_word": false,
      "lstrip": false,
      "rstrip": false,
      "normalized": false,
      "special": true
    },
    {
      "id": 105,
      "content": "<0x69>",
      "single_word": false,
      "lstrip": false,
      "rstrip": false,
      "normalized": false,
      "special": true
    },
    {
      "id": 106,
      "content": "<0x6A>",
      "single_word": false,
      "lstrip": false,
      "rstrip": false,
      "normalized": false,
      "special": true
    },
    {
      "id": 107,
      "content": "<0x6B>",
      "single_word": false,
      "lstrip": false,
      "rstrip": false,
      "normalized": false,
      "special": true
    },
    {
      "id": 108,
      "content": "<0x6C>",
      "single_word": false,
      "lstrip": false,
      "rstrip": false,
      "normalized": false,
      "special": true
    },
    {
      "id": 109,
      "content": "<0x6D>",
      "single_word": false,
      "lstrip": false,
      "rstrip": false,
      "normalized": false,
      "special": true
    },
    {
      "id": 110,
      "content": "<0x6E>",
      "single_word": false,
      "lstrip": false,
      "rstrip": false,
      "normalized": false,
      "special": true
    },
    {
      "id": 111,
      "content": "<0x6F>",
      "single_word": false,
      "lstrip": false,
      "rstrip": false,
      "normalized": false,
      "special": true
    },
    {
      "id": 112,
      "content": "<0x70>",
      "single_word": false,
      "lstrip": false,
      "rstrip": false,
      "normalized": false,
      "special": true
    },
    {
      "id": 113,
      "content": "<0x71>",
      "single_word": false,
      "lstrip": false,
      "rstrip": false,
      "normalized": false,
      "special": true
    },
    {
      "id": 114,
      "content": "<0x72>",
      "single_word": false,
      "lstrip": false,
      "rstrip": false,
      "normalized": false,
      "special": true
    },
    {
      "id": 115,
      "content": "<0x73>",
      "single_word": false,
      "lstrip": false,
      "rstrip": false,
      "normalized": false,
      "special": true
    },
    {
      "id": 116,
      "content": "<0x74>",
      "single_word": false,
      "lstrip": false,
      "rstrip": false,
      "normalized": false,
      "special": true
    },
    {
      "id": 117,
      "content": "<0x75>",
      "single_word": false,
      "lstrip": false,
      "rstrip": false,
      "normalized": false,
      "special": true
    },
    {
      "id": 118,
      "content": "<0x76>",
      "single_word": false,
      "lstrip": false,
      "rstrip": false,
      "normalized": false,
      "special": true
    },
    {
      "id": 119,
      "content": "<0x77>",
      "single_word": false,
      "lstrip": false,
      "rstrip": false,
      "normalized": false,
      "special": true
    },
    {
      "id": 120,
      "content": "<0x78>",
      "single_word": false,
      "lstrip": false,
      "rstrip": false,
      "normalized": false,
      "special": true
    },
    {
      "id": 121,
      "content": "<0x79>",
      "single_word": false,
      "lstrip": false,
      "rstrip": false,
      "normalized": false,
      "special": true
    },
    {
      "id": 122,
      "content": "<0x7A>",
      "single_word": false,
      "lstrip": false,
      "rstrip": false,
      "normalized": false,
      "special": true
    },
    {
      "id": 123,
      "content": "<0x7B>",
      "single_word": false,
      "lstrip": false,
      "rstrip": false,
      "normalized": false,
      "special": true
    },
    {
      "id": 124,
      "content": "<0x7C>",
      "single_word": false,
      "lstrip": false,
      "rstrip": false,
      "normalized": false,
      "special": true
    },
    {
      "id": 125,
      "content": "<0x7D>",
      "single_word": false,
      "lstrip": false,
      "rstrip": false,
      "normalized": false,
      "special": true
    },
    {
      "id": 126,
      "content": "<0x7E>",
      "single_word": false,
      "lstrip": false,
      "rstrip": false,
      "normalized": false,
      "special": true
    },
    {
      "id": 127,
      "content": "<0x7F>",
      "single_word": false,
      "lstrip": false,
      "rstrip": false,
      "normalized": false,
      "special": true
    },
    {
      "id": 128,
      "content": "<0x80>",
      "single_word": false,
      "lstrip": false,
      "rstrip": false,
      "normalized": false,
      "special": true
    },
    {
      "id": 129,
      "content": "<0x81>",
      "single_word": false,
      "lstrip": false,
      "rstrip": false,
      "normalized": false,
      "special": true
    },
    {
      "id": 130,
      "content": "<0x82>",
      "single_word": false,
      "lstrip": false,
      "rstrip": false,
      "normalized": false,
      "special": true
    },
    {
      "id": 131,
      "content": "<0x83>",
      "single_word": false,
      "lstrip": false,
      "rstrip": false,
      "normalized": false,
      "special": true
    },
    {
      "id": 132,
      "content": "<0x84>",
      "single_word": false,
      "lstrip": false,
      "rstrip": false,
      "normalized": false,
      "special": true
    },
    {
      "id": 133,
      "content": "<0x85>",
      "single_word": false,
      "lstrip": false,
      "rstrip": false,
      "normalized": false,
      "special": true
    },
    {
      "id": 134,
      "content": "<0x86>",
      "single_word": false,
      "lstrip": false,
      "rstrip": false,
      "normalized": false,
      "special": true
    },
    {
      "id": 135,
      "content": "<0x87>",
      "single_word": false,
      "lstrip": false,
      "rstrip": false,
      "normalized": false,
      "special": true
    },
    {
      "id": 136,
      "content": "<0x88>",
      "single_word": false,
      "lstrip": false,
      "rstrip": false,
      "normalized": false,
      "special": true
    },
    {
      "id": 137,
      "content": "<0x89>",
      "single_word": false,
      "lstrip": false,
      "rstrip": false,
      "normalized": false,
      "special": true
    },
    {
      "id": 138,
      "content": "<0x8A>",
      "single_word": false,
      "lstrip": false,
      "rstrip": false,
      "normalized": false,
      "special": true
    },
    {
      "id": 139,
      "content": "<0x8B>",
      "single_word": false,
      "lstrip": false,
      "rstrip": false,
      "normalized": false,
      "special": true
    },
    {
      "id": 140,
      "content": "<0x8C>",
      "single_word": false,
      "lstrip": false,
      "rstrip": false,
      "normalized": false,
      "special": true
    },
    {
      "id": 141,
      "content": "<0x8D>",
      "single_word": false,
      "lstrip": false,
      "rstrip": false,
      "normalized": false,
      "special": true
    },
    {
      "id": 142,
      "content": "<0x8E>",
      "single_word": false,
      "lstrip": false,
      "rstrip": false,
      "normalized": false,
      "special": true
    },
    {
      "id": 143,
      "content": "<0x8F>",
      "single_word": false,
      "lstrip": false,
      "rstrip": false,
      "normalized": false,
      "special": true
    },
    {
      "id": 144,
      "content": "<0x90>",
      "single_word": false,
      "lstrip": false,
      "rstrip": false,
      "normalized": false,
      "special": true
    },
    {
      "id": 145,
      "content": "<0x91>",
      "single_word": false,
      "lstrip": false,
      "rstrip": false,
      "normalized": false,
      "special": true
    },
    {
      "id": 146,
      "content": "<0x92>",
      "single_word": false,
      "lstrip": false,
      "rstrip": false,
      "normalized": false,
      "special": true
    },
    {
      "id": 147,
      "content": "<0x93>",
      "single_word": false,
      "lstrip": false,
      "rstrip": false,
      "normalized": false,
      "special": true
    },
    {
      "id": 148,
      "content": "<0x94>",
      "single_word": false,
      "lstrip": false,
      "rstrip": false,
      "normalized": false,
      "special": true
    },
    {
      "id": 149,
      "content": "<0x95>",
      "single_word": false,
      "lstrip": false,
      "rstrip": false,
      "normalized": false,
      "special": true
    },
    {
      "id": 150,
      "content": "<0x96>",
      "single_word": false,
      "lstrip": false,
      "rstrip": false,
      "normalized": false,
      "special": true
    },
    {
      "id": 151,
      "content": "<0x97>",
      "single_word": false,
      "lstrip": false,
      "rstrip": false,
      "normalized": false,
      "special": true
    },
    {
      "id": 152,
      "content": "<0x98>",
      "single_word": false,
      "lstrip": false,
      "rstrip": false,
      "normalized": false,
      "special": true
    },
    {
      "id": 153,
      "content": "<0x99>",
      "single_word": false,
      "lstrip": false,
      "rstrip": false,
      "normalized": false,
      "special": true
    },
    {
      "id": 154,
      "content": "<0x9A>",
      "single_word": false,
      "lstrip": false,
      "rstrip": false,
      "normalized": false,
      "special": true
    },
    {
      "id": 155,
      "content": "<0x9B>",
      "single_word": false,
      "lstrip": false,
      "rstrip": false,
      "normalized": false,
      "special": true
    },
    {
      "id": 156,
      "content": "<0x9C>",
      "single_word": false,
      "lstrip": false,
      "rstrip": false,
      "normalized": false,
      "special": true
    },
    {
      "id": 157,
      "content": "<0x9D>",
      "single_word": false,
      "lstrip": false,
      "rstrip": false,
      "normalized": false,
      "special": true
    },
    {
      "id": 158,
      "content": "<0x9E>",
      "single_word": false,
      "lstrip": false,
      "rstrip": false,
      "normalized": false,
      "special": true
    },
    {
      "id": 159,
      "content": "<0x9F>",
      "single_word": false,
      "lstrip": false,
      "rstrip": false,
      "normalized": false,
      "special": true
    },
    {
      "id": 160,
      "content": "<0xA0>",
      "single_word": false,
      "lstrip": false,
      "rstrip": false,
      "normalized": false,
      "special": true
    },
    {
      "id": 161,
      "content": "<0xA1>",
      "single_word": false,
      "lstrip": false,
      "rstrip": false,
      "normalized": false,
      "special": true
    },
    {
      "id": 162,
      "content": "<0xA2>",
      "single_word": false,
      "lstrip": false,
      "rstrip": false,
      "normalized": false,
      "special": true
    },
    {
      "id": 163,
      "content": "<0xA3>",
      "single_word": false,
      "lstrip": false,
      "rstrip": false,
      "normalized": false,
      "special": true
    },
    {
      "id": 164,
      "content": "<0xA4>",
      "single_word": false,
      "lstrip": false,
      "rstrip": false,
      "normalized": false,
      "special": true
    },
    {
      "id": 165,
      "content": "<0xA5>",
      "single_word": false,
      "lstrip": false,
      "rstrip": false,
      "normalized": false,
      "special": true
    },
    {
      "id": 166,
      "content": "<0xA6>",
      "single_word": false,
      "lstrip": false,
      "rstrip": false,
      "normalized": false,
      "special": true
    },
    {
      "id": 167,
      "content": "<0xA7>",
      "single_word": false,
      "lstrip": false,
      "rstrip": false,
      "normalized": false,
      "special": true
    },
    {
      "id": 168,
      "content": "<0xA8>",
      "single_word": false,
      "lstrip": false,
      "rstrip": false,
      "normalized": false,
      "special": true
    },
    {
      "id": 169,
      "content": "<0xA9>",
      "single_word": false,
      "lstrip": false,
      "rstrip": false,
      "normalized": false,
      "special": true
    },
    {
      "id": 170,
      "content": "<0xAA>",
      "single_word": false,
      "lstrip": false,
      "rstrip": false,
      "normalized": false,
      "special": true
    },
    {
      "id": 171,
      "content": "<0xAB>",
      "single_word": false,
      "lstrip": false,
      "rstrip": false,
      "normalized": false,
      "special": true
    },
    {
      "id": 172,
      "content": "<0xAC>",
      "single_word": false,
      "lstrip": false,
      "rstrip": false,
      "normalized": false,
      "special": true
    },
    {
      "id": 173,
      "content": "<0xAD>",
      "single_word": false,
      "lstrip": false,
      "rstrip": false,
      "normalized": false,
      "special": true
    },
    {
      "id": 174,
      "content": "<0xAE>",
      "single_word": false,
      "lstrip": false,
      "rstrip": false,
      "normalized": false,
      "special": true
    },
    {
      "id": 175,
      "content": "<0xAF>",
      "single_word": false,
      "lstrip": false,
      "rstrip": false,
      "normalized": false,
      "special": true
    },
    {
      "id": 176,
      "content": "<0xB0>",
      "single_word": false,
      "lstrip": false,
      "rstrip": false,
      "normalized": false,
      "special": true
    },
    {
      "id": 177,
      "content": "<0xB1>",
      "single_word": false,
      "lstrip": false,
      "rstrip": false,
      "normalized": false,
      "special": true
    },
    {
      "id": 178,
      "content": "<0xB2>",
      "single_word": false,
      "lstrip": false,
      "rstrip": false,
      "normalized": false,
      "special": true
    },
    {
      "id": 179,
      "content": "<0xB3>",
      "single_word": false,
      "lstrip": false,
      "rstrip": false,
      "normalized": false,
      "special": true
    },
    {
      "id": 180,
      "content": "<0xB4>",
      "single_word": false,
      "lstrip": false,
      "rstrip": false,
      "normalized": false,
      "special": true
    },
    {
      "id": 181,
      "content": "<0xB5>",
      "single_word": false,
      "lstrip": false,
      "rstrip": false,
      "normalized": false,
      "special": true
    },
    {
      "id": 182,
      "content": "<0xB6>",
      "single_word": false,
      "lstrip": false,
      "rstrip": false,
      "normalized": false,
      "special": true
    },
    {
      "id": 183,
      "content": "<0xB7>",
      "single_word": false,
      "lstrip": false,
      "rstrip": false,
      "normalized": false,
      "special": true
    },
    {
      "id": 184,
      "content": "<0xB8>",
      "single_word": false,
      "lstrip": false,
      "rstrip": false,
      "normalized": false,
      "special": true
    },
    {
      "id": 185,
      "content": "<0xB9>",
      "single_word": false,
      "lstrip": false,
      "rstrip": false,
      "normalized": false,
      "special": true
    },
    {
      "id": 186,
      "content": "<0xBA>",
      "single_word": false,
      "lstrip": false,
      "rstrip": false,
      "normalized": false,
      "special": true
    },
    {
      "id": 187,
      "content": "<0xBB>",
      "single_word": false,
      "lstrip": false,
      "rstrip": false,
      "normalized": false,
      "special": true
    },
    {
      "id": 188,
      "content": "<0xBC>",
      "single_word": false,
      "lstrip": false,
      "rstrip": false,
      "normalized": false,
      "special": true
    },
    {
      "id": 189,
      "content": "<0xBD>",
      "single_word": false,
      "lstrip": false,
      "rstrip": false,
      "normalized": false,
      "special": true
    },
    {
      "id": 190,
      "content": "<0xBE>",
      "single_word": false,
      "lstrip": false,
      "rstrip": false,
      "normalized": false,
      "special": true
    },
    {
      "id": 191,
      "content": "<0xBF>",
      "single_word": false,
      "lstrip": false,
      "rstrip": false,
      "normalized": false,
      "special": true
    },
    {
      "id": 192,
      "content": "<0xC0>",
      "single_word": false,
      "lstrip": false,
      "rstrip": false,
      "normalized": false,
      "special": true
    },
    {
      "id": 193,
      "content": "<0xC1>",
      "single_word": false,
      "lstrip": false,
      "rstrip": false,
      "normalized": false,
      "special": true
    },
    {
      "id": 194,
      "content": "<0xC2>",
      "single_word": false,
      "lstrip": false,
      "rstrip": false,
      "normalized": false,
      "special": true
    },
    {
      "id": 195,
      "content": "<0xC3>",
      "single_word": false,
      "lstrip": false,
      "rstrip": false,
      "normalized": false,
      "special": true
    },
    {
      "id": 196,
      "content": "<0xC4>",
      "single_word": false,
      "lstrip": false,
      "rstrip": false,
      "normalized": false,
      "special": true
    },
    {
      "id": 197,
      "content": "<0xC5>",
      "single_word": false,
      "lstrip": false,
      "rstrip": false,
      "normalized": false,
      "special": true
    },
    {
      "id": 198,
      "content": "<0xC6>",
      "single_word": false,
      "lstrip": false,
      "rstrip": false,
      "normalized": false,
      "special": true
    },
    {
      "id": 199,
      "content": "<0xC7>",
      "single_word": false,
      "lstrip": false,
      "rstrip": false,
      "normalized": false,
      "special": true
    },
    {
      "id": 200,
      "content": "<0xC8>",
      "single_word": false,
      "lstrip": false,
      "rstrip": false,
      "normalized": false,
      "special": true
    },
    {
      "id": 201,
      "content": "<0xC9>",
      "single_word": false,
      "lstrip": false,
      "rstrip": false,
      "normalized": false,
      "special": true
    },
    {
      "id": 202,
      "content": "<0xCA>",
      "single_word": false,
      "lstrip": false,
      "rstrip": false,
      "normalized": false,
      "special": true
    },
    {
      "id": 203,
      "content": "<0xCB>",
      "single_word": false,
      "lstrip": false,
      "rstrip": false,
      "normalized": false,
      "special": true
    },
    {
      "id": 204,
      "content": "<0xCC>",
      "single_word": false,
      "lstrip": false,
      "rstrip": false,
      "normalized": false,
      "special": true
    },
    {
      "id": 205,
      "content": "<0xCD>",
      "single_word": false,
      "lstrip": false,
      "rstrip": false,
      "normalized": false,
      "special": true
    },
    {
      "id": 206,
      "content": "<0xCE>",
      "single_word": false,
      "lstrip": false,
      "rstrip": false,
      "normalized": false,
      "special": true
    },
    {
      "id": 207,
      "content": "<0xCF>",
      "single_word": false,
      "lstrip": false,
      "rstrip": false,
      "normalized": false,
      "special": true
    },
    {
      "id": 208,
      "content": "<0xD0>",
      "single_word": false,
      "lstrip": false,
      "rstrip": false,
      "normalized": false,
      "special": true
    },
    {
      "id": 209,
      "content": "<0xD1>",
      "single_word": false,
      "lstrip": false,
      "rstrip": false,
      "normalized": false,
      "special": true
    },
    {
      "id": 210,
      "content": "<0xD2>",
      "single_word": false,
      "lstrip": false,
      "rstrip": false,
      "normalized": false,
      "special": true
    },
    {
      "id": 211,
      "content": "<0xD3>",
      "single_word": false,
      "lstrip": false,
      "rstrip": false,
      "normalized": false,
      "special": true
    },
    {
      "id": 212,
      "content": "<0xD4>",
      "single_word": false,
      "lstrip": false,
      "rstrip": false,
      "normalized": false,
      "special": true
    },
    {
      "id": 213,
      "content": "<0xD5>",
      "single_word": false,
      "lstrip": false,
      "rstrip": false,
      "normalized": false,
      "special": true
    },
    {
      "id": 214,
      "content": "<0xD6>",
      "single_word": false,
      "lstrip": false,
      "rstrip": false,
      "normalized": false,
      "special": true
    },
    {
      "id": 215,
      "content": "<0xD7>",
      "single_word": false,
      "lstrip": false,
      "rstrip": false,
      "normalized": false,
      "special": true
    },
    {
      "id": 216,
      "content": "<0xD8>",
      "single_word": false,
      "lstrip": false,
      "rstrip": false,
      "normalized": false,
      "special": true
    },
    {
      "id": 217,
      "content": "<0xD9>",
      "single_word": false,
      "lstrip": false,
      "rstrip": false,
      "normalized": false,
      "special": true
    },
    {
      "id": 218,
      "content": "<0xDA>",
      "single_word": false,
      "lstrip": false,
      "rstrip": false,
      "normalized": false,
      "special": true
    },
    {
      "id": 219,
      "content": "<0xDB>",
      "single_word": false,
      "lstrip": false,
      "rstrip": false,
      "normalized": false,
      "special": true
    },
    {
      "id": 220,
      "content": "<0xDC>",
      "single_word": false,
      "lstrip": false,
      "rstrip": false,
      "normalized": false,
      "special": true
    },
    {
      "id": 221,
      "content": "<0xDD>",
      "single_word": false,
      "lstrip": false,
      "rstrip": false,
      "normalized": false,
      "special": true
    },
    {
      "id": 222,
      "content": "<0xDE>",
      "single_word": false,
      "lstrip": false,
      "rstrip": false,
      "normalized": false,
      "special": true
    },
    {
      "id": 223,
      "content": "<0xDF>",
      "single_word": false,
      "lstrip": false,
      "rstrip": false,
      "normalized": false,
      "special": true
    },
    {
      "id": 224,
      "content": "<0xE0>",
      "single_word": false,
      "lstrip": false,
      "rstrip": false,
      "normalized": false,
      "special": true
    },
    {
      "id": 225,
      "content": "<0xE1>",
      "single_word": false,
      "lstrip": false,
      "rstrip": false,
      "normalized": false,
      "special": true
    },
    {
      "id": 226,
      "content": "<0xE2>",
      "single_word": false,
      "lstrip": false,
      "rstrip": false,
      "normalized": false,
      "special": true
    },
    {
      "id": 227,
      "content": "<0xE3>",
      "single_word": false,
      "lstrip": false,
      "rstrip": false,
      "normalized": false,
      "special": true
    },
    {
      "id": 228,
      "content": "<0xE4>",
      "single_word": false,
      "lstrip": false,
      "rstrip": false,
      "normalized": false,
      "special": true
    },
    {
      "id": 229,
      "content": "<0xE5>",
      "single_word": false,
      "lstrip": false,
      "rstrip": false,
      "normalized": false,
      "special": true
    },
    {
      "id": 230,
      "content": "<0xE6>",
      "single_word": false,
      "lstrip": false,
      "rstrip": false,
      "normalized": false,
      "special": true
    },
    {
      "id": 231,
      "content": "<0xE7>",
      "single_word": false,
      "lstrip": false,
      "rstrip": false,
      "normalized": false,
      "special": true
    },
    {
      "id": 232,
      "content": "<0xE8>",
      "single_word": false,
      "lstrip": false,
      "rstrip": false,
      "normalized": false,
      "special": true
    },
    {
      "id": 233,
      "content": "<0xE9>",
      "single_word": false,
      "lstrip": false,
      "rstrip": false,
      "normalized": false,
      "special": true
    },
    {
      "id": 234,
      "content": "<0xEA>",
      "single_word": false,
      "lstrip": false,
      "rstrip": false,
      "normalized": false,
      "special": true
    },
    {
      "id": 235,
      "content": "<0xEB>",
      "single_word": false,
      "lstrip": false,
      "rstrip": false,
      "normalized": false,
      "special": true
    },
    {
      "id": 236,
      "content": "<0xEC>",
      "single_word": false,
      "lstrip": false,
      "rstrip": false,
      "normalized": false,
      "special": true
    },
    {
      "id": 237,
      "content": "<0xED>",
      "single_word": false,
      "lstrip": false,
      "rstrip": false,
      "normalized": false,
      "special": true
    },
    {
      "id": 238,
      "content": "<0xEE>",
      "single_word": false,
      "lstrip": false,
      "rstrip": false,
      "normalized": false,
      "special": true
    },
    {
      "id": 239,
      "content": "<0xEF>",
      "single_word": false,
      "lstrip": false,
      "rstrip": false,
      "normalized": false,
      "special": true
    },
    {
      "id": 240,
      "content": "<0xF0>",
      "single_word": false,
      "lstrip": false,
      "rstrip": false,
      "normalized": false,
      "special": true
    },
    {
      "id": 241,
      "content": "<0xF1>",
      "single_word": false,
      "lstrip": false,
      "rstrip": false,
      "normalized": false,
      "special": true
    },
    {
      "id": 242,
      "content": "<0xF2>",
      "single_word": false,
      "lstrip": false,
      "rstrip": false,
      "normalized": false,
      "special": true
    },
    {
      "id": 243,
      "content": "<0xF3>",
      "single_word": false,
      "lstrip": false,
      "rstrip": false,
      "normalized": false,
      "special": true
    },
    {
      "id": 244,
      "content": "<0xF4>",
      "single_word": false,
      "lstrip": false,
      "rstrip": false,
      "normalized": false,
      "special": true
    },
    {
      "id": 245,
      "content": "<0xF5>",
      "single_word": false,
      "lstrip": false,
      "rstrip": false,
      "normalized": false,
      "special": true
    },
    {
      "id": 246,
      "content": "<0xF6>",
      "single_word": false,
      "lstrip": false,
      "rstrip": false,
      "normalized": false,
      "special": true
    },
    {
      "id": 247,
      "content": "<0xF7>",
      "single_word": false,
      "lstrip": false,
      "rstrip": false,
      "normalized": false,
      "special": true
    },
    {
      "id": 248,
      "content": "<0xF8>",
      "single_word": false,
      "lstrip": false,
      "rstrip": false,
      "normalized": false,
      "special": true
    },
    {
      "id": 249,
      "content": "<0xF9>",
      "single_word": false,
      "lstrip": false,
      "rstrip": false,
      "normalized": false,
      "special": true
    },
    {
      "id": 250,
      "content": "<0xFA>",
      "single_word": false,
      "lstrip": false,
      "rstrip": false,
      "normalized": false,
      "special": true
    },
    {
      "id": 251,
      "content": "<0xFB>",
      "single_word": false,
      "lstrip": false,
      "rstrip": false,
      "normalized": false,
      "special": true
    },
    {
      "id": 252,
      "content": "<0xFC>",
      "single_word": false,
      "lstrip": false,
      "rstrip": false,
      "normalized": false,
      "special": true
    },
    {
      "id": 253,
      "content": "<0xFD>",
      "single_word": false,
      "lstrip": false,
      "rstrip": false,
      "normalized": false,
      "special": true
    },
    {
      "id": 254,
      "content": "<0xFE>",
      "single_word": false,
      "lstrip": false,
      "rstrip": false,
      "normalized": false,
      "special": true
    },
    {
      "id": 255,
      "content": "<0xFF>",
      "single_word": false,
      "lstrip": false,
      "rstrip": false,
      "normalized": false,
      "special": true
    }
  ],
  "normalizer": null,
  "pre_tokenizer": {
    "type": "Metaspace",
    "replacement": "▁",
    "prepend_scheme": "never",
    "split": true
  },
  "post_processor": null,
  "decoder": {
    "type": "Sequence",
    "decoders": [
      {
        "type": "ByteFallback"
      },
      {
        "type": "Metaspace",
        "replacement": "▁",
        "prepend_scheme": "never",
        "split": true
      }
    ]
  },
  "model": {
    "type": "BPE",
    "dropout": null,
    "unk_token": null,
    "continuing_subword_prefix": null,
    "end_of_word_suffix": null,
    "fuse_unk": false,
    "byte_fallback": true,
    "ignore_merges": false,
    "vocab": {
      "<0x00>": 0,
      "<0x01>": 1,
      "<0x02>": 2,
      "<0x03>": 3,
      "<0x04>": 4,
      "<0x05>": 5,
      "<0x06>": 6,
      "<0x07>": 7,
      "<0x08>": 8,
      "<0x09>": 9,
      "<0x0A>": 10,
      "<0x0B>": 11,
      "<0x0C>": 12,
      "<0x0D>": 13,
      "<0x0E>": 14,
      "<0x0F>": 15,
      "<0x10>": 16,
      "<0x11>": 17,
      "<0x12>": 18,
      "<0x13>": 19,
      "<0x14>": 20,
      "<0x15>": 21,
      "<0x16>": 22,
      "<0x17>": 23,
      "<0x18>": 24,
      "<0x19>": 25,
      "<0x1A>": 26,
      "<0x1B>": 27,
      "<0x1C>": 28,
      "<0x1D>": 29,
      "<0x1E>": 30,
      "<0x1F>": 31,
      "<0x20>": 32,
      "<0x21>": 33,
      "<0x22>": 34,
      "<0x23>": 35,
      "<0x24>": 36,
      "<0x25>": 37,
      "<0x26>": 38,
      "<0x27>": 39,
      "<0x28>": 40,
      "<0x29>": 41,
      "<0x2A>": 42,
      "<0x2B>": 43,
      "<0x2C>": 44,
      "<0x2D>": 45,
      "<0x2E>": 46,
      "<0x2F>": 47,
      "<0x30>": 48,
      "<0x31>": 49,
      "<0x32>": 50,
      "<0x33>": 51,
      "<0x34>": 52,
      "<0x35>": 53,
      "<0x36>": 54,
      "<0x37>": 55,
      "<0x38>": 56,
      "<0x39>": 57,
      "<0x3A>": 58,
      "<0x3B>": 59,
      "<0x3C>": 60,
      "<0x3D>": 61,
      "<0x3E>": 62,
      "<0x3F>": 63,
      "<0x40>": 64,
      "<0x41>": 65,
      "<0x42>": 66,
      "<0x43>": 67,
      "<0x44>": 68,
      "<0x45>": 69,
      "<0x46>": 70,
      "<0x47>": 71,
      "<0x48>": 72,
      "<0x49>": 73,
      "<0x4A>": 74,
      "<0x4B>": 75,
      "<0x4C>": 76,
      "<0x4D>": 77,
      "<0x4E>": 78,
      "<0x4F>": 79,
      "<0x50>": 80,
      "<0x51>": 81,
      "<0x52>": 82,
      "<0x53>": 83,
      "<0x54>": 84,
      "<0x55>": 85,
      "<0x56>": 86,
      "<0x57>": 87,
      "<0x58>": 88,
      "<0x59>": 89,
      "<0x5A>": 90,
      "<0x5B>": 91,
      "<0x5C>": 92,
      "<0x5D>": 93,
      "<0x5E>": 94,
      "<0x5F>": 95,
      "<0x60>": 96,
      "<0x61>": 97,
      "<0x62>": 98,
      "<0x63>": 99,
      "<0x64>": 100,
      "<0x65>": 101,
      "<0x66>": 102,
      "<0x67>": 103,
      "<0x68>": 104,
      "<0x69>": 105,
      "<0x6A>": 106,
      "<0x6B>": 107,
      "<0x6C>": 108,
      "<0x6D>": 109,
      "<0x6E>": 110,
      "<0x6F>": 111,
      "<0x70>": 112,
      "<0x71>": 113,
      "<0x72>": 114,
      "<0x73>": 115,
      "<0x74>": 116,
      "<0x75>": 117,
      "<0x76>": 118,
      "<0x77>": 119,
      "<0x78>": 120,
      "<0x79>": 121,
      "<0x7A>": 122,
      "<0x7B>": 123,
      "<0x7C>": 124,
      "<0x7D>": 125,
      "<0x7E>": 126,
      "<0x7F>": 127,
      "<0x80>": 128,
      "<0x81>": 129,
      "<0x82>": 130,
      "<0x83>": 131,
      "<0x84>": 132,
      "<0x85>": 133,
      "<0x86>": 134,
      "<0x87>": 135,
      "<0x88>": 136,
      "<0x89>": 137,
      "<0x8A>": 138,
      "<0x8B>": 139,
      "<0x8C>": 140,
      "<0x8D>": 141,
      "<0x8E>": 142,
      "<0x8F>": 143,
      "<0x90>": 144,
      "<0x91>": 145,
      "<0x92>": 146,
      "<0x93>": 147,
      "<0x94>": 148,
      "<0x95>": 149,
      "<0x96>": 150,
      "<0x97>": 151,
      "<0x98>": 152,
      "<0x99>": 153,
      "<0x9A>": 154,
      "<0x9B>": 155,
      "<0x9C>": 156,
      "<0x9D>": 157,
      "<0x9E>": 158,
      "<0x9F>": 159,
      "<0xA0>": 160,
      "<0xA1>": 161,
      "<0xA2>": 162,
      "<0xA3>": 163,
      "<0xA4>": 164,
      "<0xA5>": 165,
      "<0xA6>": 166,
      "<0xA7>": 167,
      "<0xA8>": 168,
      "<0xA9>": 169,
      "<0xAA>": 170,
      "<0xAB>": 171,
      "<0xAC>": 172,
      "<0xAD>": 173,
      "<0xAE>": 174,
      "<0xAF>": 175,
      "<0xB0>": 176,
      "<0xB1>": 177,
      "<0xB2>": 178,
      "<0xB3>": 179,
      "<0xB4>": 180,
      "<0xB5>": 181,
      "<0xB6>": 182,
      "<0xB7>": 183,
      "<0xB8>": 184,
      "<0xB9>": 185,
      "<0xBA>": 186,
      "<0xBB>": 187,
      "<0xBC>": 188,
      "<0xBD>": 189,
      "<0xBE>": 190,
      "<0xBF>": 191,
      "<0xC0>": 192,
      "<0xC1>": 193,
      "<0xC2>": 194,
      "<0xC3>": 195,
      "<0xC4>": 196,
      "<0xC5>": 197,
      "<0xC6>": 198,
      "<0xC7>": 199,
      "<0xC8>": 200,
      "<0xC9>": 201,
      "<0xCA>": 202,
      "<0xCB>": 203,
      "<0xCC>": 204,
      "<0xCD>": 205,
      "<0xCE>": 206,
      "<0xCF>": 207,
      "<0xD0>": 208,
      "<0xD1>": 209,
      "<0xD2>": 210,
      "<0xD3>": 211,
      "<0xD4>": 212,
      "<0xD5>": 213,
      "<0xD6>": 214,
      "<0xD7>": 215,
      "<0xD8>": 216,
      "<0xD9>": 217,
      "<0xDA>": 218,
      "<0xDB>": 219,
      "<0xDC>": 220,
      "<0xDD>": 221,
      "<0xDE>": 222,
      "<0xDF>": 223,
      "<0xE0>": 224,
      "<0xE1>": 225,
      "<0xE2>": 226,
      "<0xE3>": 227,
      "<0xE4>": 228,
      "<0xE5>": 229,
      "<0xE6>": 230,
      "<0xE7>": 231,
      "<0xE8>": 232,
      "<0xE9>": 233,
      "<0xEA>": 234,
      "<0xEB>": 235,
      "<0xEC>": 236,
      "<0xED>": 237,
      "<0xEE>": 238,
      "<0xEF>": 239,
      "<0xF0>": 240,
      "<0xF1>": 241,
      "<0xF2>": 242,
      "<0xF3>": 243,
      "<0xF4>": 244,
      "<0xF5>": 245,
      "<0xF6>": 246,
      "<0xF7>": 247,
      "<0xF8>": 248,
      "<0xF9>": 249,
      "<0xFA>": 250,
      "<0xFB>": 251,
      "<0xFC>": 252,
      "<0xFD>": 253,
      "<0xFE>": 254,
      "<0xFF>": 255,
      "\n": 256,
      "\r": 257,
      "!": 258,
      "\"": 259,
      "#": 260,
      "$": 261,
      "%": 262,
      "&": 263,
      "'": 264,
      "(": 265,
      ")": 266,
      "*": 267,
      "+": 268,
      ",": 269,
      "-": 270,
      ".": 271,
      "/": 272,
      "0": 273,
      "1": 274,
      "2": 275,
      "3": 276,
      "4": 277,
      "5": 278,
      "6": 279,
      "7": 280,
      "8": 281,
      "9": 282,
      ":": 283,
      ";": 284,
      "<": 285,
      "=": 286,
      ">": 287,
      "?": 288,
      "A": 289,
      "B": 290,
      "C": 291,
      "D": 292,
      "E": 293,
      "F": 294,
      "G": 295,
      "H": 296,
      "I": 297,
      "J": 298,
      "K": 299,
      "L": 300,
      "M": 301,
      "N": 302,
      "O": 303,
      "P": 304,
      "Q": 305,
      "R": 306,
      "S": 307,
      "T": 308,
      "U": 309,
      "V": 310,
      "W": 311,
      "X": 312,
      "Y": 313,
      "Z": 314,
      "[": 315,
      "\\": 316,
      "]": 317,
      "^": 318,
      "_": 319,
      "`": 320,
      "a": 321,
      "b": 322,
      "c": 323,
      "d": 324,
      "e": 325,
      "f": 326,
      "g": 327,
      "h": 328,
      "i": 329,
      "j": 330,
      "k": 331,
      "l": 332,
      "m": 333,
      "n": 334,
      "o": 335,
      "p": 336,
      "q": 337,
      "r": 338,
      "s": 339,
      "t": 340,
      "u": 341,
      "v": 342,
      "w": 343,
      "x": 344,
      "y": 345,
      "z": 346,
      "{": 347,
      "|": 348,
      "}": 349,
      "~": 350,
      "°": 351,
      "²": 352,
      "·": 353,
      "Ö": 354,
      "á": 355,
      "â": 356,
      "æ": 357,
      "ç": 358,
      "è": 359,
      "é": 360,
      "í": 361,
      "ñ": 362,
      "ö": 363,
      "ü": 364,
      "ā": 365,
      "ī": 366,
      "İ": 367,
      "Ś": 368,
      "ś": 369,
      "ū": 370,
      "ș": 371,
      "ə": 372,
      "ɦ": 373,
      "ɪ": 374,
      "ɾ": 375,
      "ʊ": 376,
      "ʱ": 377,
      "ʼ": 378,
      "ˈ": 379,
      "ː": 380,
      "ί": 381,
      "α": 382,
      "δ": 383,
      "θ": 384,
      "ν": 385,
      "π": 386,
      "ς": 387,
      "ό": 388,
      "ँ": 389,
      "ं": 390,
      "ः": 391,
      "अ": 392,
      "आ": 393,
      "इ": 394,
      "ई": 395,
      "उ": 396,
      "ऊ": 397,
      "ऋ": 398,
      "ऍ": 399,
      "ए": 400,
      "ऐ": 401,
      "ऑ": 402,
      "ओ": 403,
      "औ": 404,
      "क": 405,
      "ख": 406,
      "ग": 407,
      "घ": 408,
      "ङ": 409,
      "च": 410,
      "छ": 411,
      "ज": 412,
      "झ": 413,
      "ञ": 414,
      "ट": 415,
      "ठ": 416,
      "ड": 417,
      "ढ": 418,
      "ण": 419,
      "त": 420,
      "थ": 421,
      "द": 422,
      "ध": 423,
      "न": 424,
      "प": 425,
      "फ": 426,
      "ब": 427,
      "भ": 428,
      "म": 429,
      "य": 430,
      "र": 431,
      "ऱ": 432,
      "ल": 433,
      "ळ": 434,
      "व": 435,
      "श": 436,
      "ष": 437,
      "स": 438,
      "ह": 439,
      "़": 440,
      "ा": 441,
      "ि": 442,
      "ी": 443,
      "ु": 444,
      "ू": 445,
      "ृ": 446,
      "ॅ": 447,
      "े": 448,
      "ै": 449,
      "ॉ": 450,
      "ॊ": 451,
      "ो": 452,
      "ौ": 453,
      "्": 454,
      "ॠ": 455,
      "।": 456,
      "०": 457,
      "१": 458,
      "२": 459,
      "३": 460,
      "४": 461,
      "५": 462,
      "६": 463,
      "७": 464,
      "८": 465,
      "९": 466,
      "॰": 467,
      "ॲ": 468,
      "ం": 469,
      "ః": 470,
      "అ": 471,
      "ఆ": 472,
      "ఇ": 473,
      "ఈ": 474,
      "ఉ": 475,
      "ఋ": 476,
      "ఎ": 477,
      "ఏ": 478,
      "ఐ": 479,
      "ఒ": 480,
      "ఓ": 481,
      "ఔ": 482,
      "క": 483,
      "ఖ": 484,
      "గ": 485,
      "ఘ": 486,
      "చ": 487,
      "ఛ": 488,
      "జ": 489,
      "ఞ": 490,
      "ట": 491,
      "ఠ": 492,
      "డ": 493,
      "ఢ": 494,
      "ణ": 495,
      "త": 496,
      "థ": 497,
      "ద": 498,
      "ధ": 499,
      "న": 500,
      "ప": 501,
      "ఫ": 502,
      "బ": 503,
      "భ": 504,
      "మ": 505,
      "య": 506,
      "ర": 507,
      "ల": 508,
      "ళ": 509,
      "వ": 510,
      "శ": 511,
      "ష": 512,
      "స": 513,
      "హ": 514,
      "ా": 515,
      "ి": 516,
      "ీ": 517,
      "ు": 518,
      "ూ": 519,
      "ృ": 520,
      "ె": 521,
      "ే": 522,
      "ై": 523,
      "ొ": 524,
      "ో": 525,
      "ౌ": 526,
      "్": 527,
      "ṅ": 528,
      "ṇ": 529,
      "Ṛ": 530,
      "ṣ": 531,
      "ṭ": 532,
      "Ἰ": 533,
      " ": 534,
      " ": 535,
      "‌": 536,
      "‍": 537,
      "‎": 538,
      "–": 539,
      "—": 540,
      "‘": 541,
      "’": 542,
      "“": 543,
      "”": 544,
      "†": 545,
      "•": 546,
      "′": 547,
      "″": 548,
      "‹": 549,
      "›": 550,
      "⁡": 551,
      "₹": 552,
      "↑": 553,
      "−": 554,
      "ⓘ": 555,
      "▁": 556,
      "▲": 557,
      "﻿": 558,
      "wi": 559,
      "ki": 560,
      "wiki": 561,
      "ia": 562,
      "dia": 563,
      "or": 564,
      "tt": 565,
      "](": 566,
      "pe": 567,
      ":/": 568,
      "htt": 569,
      "http": 570,
      "://": 571,
      "](http": 572,
      "s://": 573,
      "](https://": 574,
      "g/": 575,
      ".or": 576,
      ".org/": 577,
      "pedia": 578,
      ".wiki": 579,
      ".org/wiki": 580,
      ".org/wiki/": 581,
      ".wikipedia": 582,
      ".wikipedia.org/wiki/": 583,
      "▁[": 584,
      "▁\"": 585,
      "te": 586,
      "en": 587,
      "\")": 588,
      "in": 589,
      "an": 590,
      "on": 591,
      "In": 592,
      "th": 593,
      "\r\n": 594,
      "ार": 595,
      "ti": 596,
      "](https://en": 597,
      "](https://en.wikipedia.org/wiki/": 598,
      "India": 599,
      "er": 600,
      "ar": 601,
      "्र": 602,
      "20": 603,
      "al": 604,
      "re": 605,
      "hi": 606,
      "्य": 607,
      "▁|": 608,
      "es": 609,
      "of": 610,
      "▁क": 611,
      "ारत": 612,
      "भारत": 613,
      "ci": 614,
      "▁स": 615,
      "is": 616,
      "the": 617,
      "tion": 618,
      "](https://hi": 619,
      "](https://hi.wikipedia.org/wiki/": 620,
      "ed": 621,
      "▁-": 622,
      "te_": 623,
      "om": 624,
      "and": 625,
      "▁प": 626,
      "mr": 627,
      "#ci": 628,
      "#cite_": 629,
      "](https://mr": 630,
      "](https://mr.wikipedia.org/wiki/": 631,
      "▁(": 632,
      "it": 633,
      "▁of": 634,
      "▁the": 635,
      "as": 636,
      "ou": 637,
      "रा": 638,
      "▁म": 639,
      "్ర": 640,
      "र्": 641,
      "](https://en.wikipedia.org/wiki/India": 642,
      "ान": 643,
      "19": 644,
      "](https://te": 645,
      "](https://te.wikipedia.org/wiki/": 646,
      "ic": 647,
      "▁India": 648,
      "le": 649,
      "्या": 650,
      "no": 651,
      "201": 652,
      "oo": 653,
      "▁in": 654,
      "ra": 655,
      "ార": 656,
      "OT": 657,
      "या": 658,
      "id": 659,
      "**": 660,
      "▁ह": 661,
      "▁व": 662,
      "▁s": 663,
      "](https://en.wikipedia.org/wiki/India#cite_": 664,
      "▁p": 665,
      "200": 666,
      "-0": 667,
      "्त": 668,
      "ent": 669,
      "ate": 670,
      "▁आ": 671,
      "▁and": 672,
      "ri": 673,
      "ge": 674,
      "िक": 675,
      "▁अ": 676,
      "ation": 677,
      "-1": 678,
      "ref": 679,
      "ing": 680,
      "ात": 681,
      "am": 682,
      "▁c": 683,
      "ac": 684,
      "us": 685,
      "note": 686,
      "▁A": 687,
      "▁C": 688,
      "ाल": 689,
      "at": 690,
      "[[": 691,
      "ीय": 692,
      ").": 693,
      "\\_": 694,
      "▁S": 695,
      "ref-": 696,
      "note-": 697,
      "ాల": 698,
      "et": 699,
      "ad": 700,
      "ook": 701,
      "ेश": 702,
      "▁f": 703,
      "ें": 704,
      "్య": 705,
      "li": 706,
      "▁प्र": 707,
      "ve": 708,
      "lo": 709,
      "▁b": 710,
      "▁t": 711,
      "\"),": 712,
      ".\r\n": 713,
      "▁द": 714,
      "ang": 715,
      "▁के": 716,
      "భార": 717,
      "78": 718,
      "um": 719,
      "ना": 720,
      "భారత": 721,
      "▁m": 722,
      "ंग": 723,
      "దే": 724,
      "ch": 725,
      "ur": 726,
      "దేశ": 727,
      "స్": 728,
      "▁ज": 729,
      "्ष": 730,
      "त्र": 731,
      "com": 732,
      "▁भारत": 733,
      "▁P": 734,
      "िया": 735,
      "▁ప": 736,
      "ver": 737,
      "▁1": 738,
      "ist": 739,
      "▁[↑": 740,
      "of_": 741,
      "we": 742,
      "](https://hi.wikipedia.org/wiki/भारत": 743,
      "ww": 744,
      "ul": 745,
      "ला": 746,
      "_of_": 747,
      "IS": 748,
      "సా": 749,
      "he": 750,
      "राज": 751,
      "स्": 752,
      "st": 753,
      "il": 754,
      "ro": 755,
      "ial": 756,
      "lin": 757,
      "FO": 758,
      "ర్": 759,
      "NOT": 760,
      "OTNOT": 761,
      "FOOTNOT": 762,
      "FOOTNOTE": 763,
      "भा": 764,
      "un": 765,
      "978": 766,
      "▁त": 767,
      "ce": 768,
      "BN": 769,
      "ory": 770,
      "ISBN": 771,
      "న్": 772,
      "ons": 773,
      "ष्": 774,
      "▁न": 775,
      "▁|\r\n": 776,
      "ास": 777,
      "ter": 778,
      "ां": 779,
      "▁ब": 780,
      "▁w": 781,
      "▁d": 782,
      "00": 783,
      "ची": 784,
      "Sou": 785,
      "]](https://en.wikipedia.org/wiki/India#cite_": 786,
      "fi": 787,
      "ol": 788,
      "](https://en.wikipedia.org/wiki/India#cite_ref-": 789,
      "]](https://en.wikipedia.org/wiki/India#cite_note-": 790,
      "▁T": 791,
      "▁**": 792,
      "red": 793,
      "rc": 794,
      "▁R": 795,
      "enti": 796,
      "21": 797,
      "▁M": 798,
      "ले": 799,
      "▁a": 800,
      "tic": 801,
      "identi": 802,
      "link": 803,
      "-0)": 804,
      "fier": 805,
      "identifier": 806,
      "jp": 807,
      "्व": 808,
      "▁में": 809,
      "▁201": 810,
      "ित": 811,
      "identifier)": 812,
      "देश": 813,
      "edit": 814,
      "=1": 815,
      "res": 816,
      "age": 817,
      "web": 818,
      "లు": 819,
      "em": 820,
      "action": 821,
      "दी": 822,
      "▁to": 823,
      "),": 824,
      ".jp": 825,
      "क्ष": 826,
      "action=": 827,
      "action=edit": 828,
      "రా": 829,
      "ni": 830,
      "book": 831,
      "हे": 832,
      "▁B": 833,
      ")\r\n": 834,
      "25": 835,
      "ment": 836,
      "&red": 837,
      "?action=edit": 838,
      "link=1": 839,
      "&redlink=1": 840,
      "?action=edit&redlink=1": 841,
      "न्": 842,
      "ig": 843,
      "es/": 844,
      "cial": 845,
      "ों": 846,
      "_(": 847,
      ".[[": 848,
      "▁का": 849,
      "భారతదేశ": 850,
      "10": 851,
      "ष्ट": 852,
      "23": 853,
      "ील": 854,
      "angu": 855,
      ".శ": 856,
      ".శ.": 857,
      "वा": 858,
      "वि": 859,
      "లో": 860,
      "▁l": 861,
      "ity": 862,
      "సా.శ.": 863,
      "ind": 864,
      "▁D": 865,
      "▁आहे": 866,
      "ir": 867,
      "books": 868,
      "sia": 869,
      "26": 870,
      ".g": 871,
      "IT": 872,
      "ay": 873,
      "▁India\")": 874,
      "ली": 875,
      "▁*": 876,
      "▁క": 877,
      "ER": 878,
      "_क": 879,
      "ag": 880,
      "▁e": 881,
      ".com": 882,
      "24": 883,
      "Spe": 884,
      "▁•": 885,
      "EF": 886,
      "ITER": 887,
      "ly": 888,
      "ITEREF": 889,
      "me": 890,
      "199": 891,
      "स्त": 892,
      "▁[↑](https://en.wikipedia.org/wiki/India#cite_ref-": 893,
      "चे": 894,
      "षा": 895,
      "త్ర": 896,
      ".com/": 897,
      "सा": 898,
      "▁है": 899,
      "ాలు": 900,
      "▁ग": 901,
      "▁श": 902,
      "రి": 903,
      "up": 904,
      "in_": 905,
      "राज्य": 906,
      "con": 907,
      "](https://mr.wikipedia.org/wiki/भारत": 908,
      "▁E": 909,
      "క్": 910,
      "Special": 911,
      "india": 912,
      "](https://hi.wikipedia.org/wiki/भारत#cite_": 913,
      "ld": 914,
      "tu": 915,
      "सं": 916,
      "ంద": 917,
      "Special:": 918,
      "ion": 919,
      "al_": 920,
      "ष्ट्र": 921,
      "ber": 922,
      "·**": 923,
      "▁**·**": 924,
      "ని": 925,
      "▁వ": 926,
      "प्र": 927,
      "री": 928,
      "28": 929,
      "#C": 930,
      "ती": 931,
      "ha": 932,
      "च्या": 933,
      "▁20": 934,
      "#CITEREF": 935,
      "rces/": 936,
      "Book": 937,
      "Uni": 938,
      "oun": 939,
      "भाषा": 940,
      "▁G": 941,
      "ved": 942,
      "चि": 943,
      "Sources/": 944,
      "Special:Book": 945,
      "Special:BookSources/": 946,
      "▁H": 947,
      "chi": 948,
      "मा": 949,
      "▁उ": 950,
      "और": 951,
      "चा": 952,
      "ల్": 953,
      "ain": 954,
      "www": 955,
      "Special:BookSources/978": 956,
      "▁इ": 957,
      "ने": 958,
      "11": 959,
      "पु": 960,
      "▁N": 961,
      "భారతదేశం": 962,
      "-3": 963,
      "▁200": 964,
      "▁\"भारत": 965,
      "द्र": 966,
      "rom": 967,
      "▁की": 968,
      "gory": 969,
      "ategory": 970,
      "ता": 971,
      "-4": 972,
      "ategory:": 973,
      "www.": 974,
      "ంగ": 975,
      "\")\r\n": 976,
      "cal": 977,
      "▁से": 978,
      "▁सं": 979,
      "_in_": 980,
      "्रे": 981,
      "anguage": 982,
      ".jpg": 983,
      "मु": 984,
      "ry": 985,
      "▁స": 986,
      "for": 987,
      "el": 988,
      "her": 989,
      "त्त": 990,
      "र्व": 991,
      "ct": 992,
      "n_": 993,
      "op": 994,
      "▁మ": 995,
      "ress": 996,
      "vers": 997,
      "▁और": 998,
      "archi": 999,
      "▁on": 1000,
      "ंड": 1001,
      "ति": 1002,
      "हि": 1003,
      "ary": 1004,
      "్రా": 1005,
      "▁g": 1006,
      "▁re": 1007,
      "ew": 1008,
      "ab": 1009,
      "--": 1010,
      "\").": 1011,
      "ak": 1012,
      "णी": 1013,
      "_S": 1014,
      "ub": 1015,
      "▁---": 1016,
      "0%": 1017,
      "था": 1018,
      "-0-": 1019,
      "##": 1020,
      "50": 1021,
      "The": 1022,
      "▁th": 1023,
      "ast": 1024,
      "ून": 1025,
      "](https://en.wikipedia.org/wiki/India#CITEREF": 1026,
      "▁वि": 1027,
      "ీయ": 1028,
      "mp": 1029,
      "rit": 1030,
      "calf": 1031,
      "od": 1032,
      "▁[म": 1033,
      "_of_India": 1034,
      "est": 1035,
      "etcalf": 1036,
      "archive": 1037,
      "ండ": 1038,
      "22": 1039,
      "▁सा": 1040,
      "30": 1041,
      "har": 1042,
      "ted": 1043,
      "िल": 1044,
      "▁F": 1045,
      "राष्ट्र": 1046,
      "▁or": 1047,
      "▁19": 1048,
      "▁n": 1049,
      "▁या": 1050,
      "▁p.": 1051,
      "18": 1052,
      "_A": 1053,
      "-8": 1054,
      "▁[\"": 1055,
      "▁.": 1056,
      "ap": 1057,
      "▁र": 1058,
      "జ్య": 1059,
      ".in": 1060,
      "os": 1061,
      "द्": 1062,
      "▁చ": 1063,
      "▁J": 1064,
      "का": 1065,
      "]](https://en.wikipedia.org/wiki/India#cite_note-FOOTNOTE": 1066,
      "29": 1067,
      "▁from": 1068,
      "](https://mr.wikipedia.org/wiki/भारत#cite_": 1069,
      "orld": 1070,
      "List": 1071,
      "▁ए": 1072,
      "▁h": 1073,
      "▁(identifier)": 1074,
      "_(identifier)": 1075,
      "▁(identifier)\")": 1076,
      "archive.org/": 1077,
      "తా": 1078,
      "ध्य": 1079,
      "ము": 1080,
      "मी": 1081,
      "నా": 1082,
      "umb": 1083,
      "over": 1084,
      "తి": 1085,
      "్ట": 1086,
      "▁by": 1087,
      "with": 1088,
      "gh": 1089,
      "40": 1090,
      "पा": 1091,
      "▁य": 1092,
      "▁([": 1093,
      "ust": 1094,
      "▁for": 1095,
      "ount": 1096,
      "versity": 1097,
      "ep": 1098,
      "web.": 1099,
      "ov": 1100,
      "ud": 1101,
      "](https://web.": 1102,
      "/http": 1103,
      "web/": 1104,
      "archive.org/web/": 1105,
      "](https://web.archive.org/web/": 1106,
      "ts": 1107,
      "कार": 1108,
      "Metcalf": 1109,
      "సి": 1110,
      "▁In": 1111,
      "▁पर": 1112,
      "15": 1113,
      "र्म": 1114,
      "త్": 1115,
      "mons": 1116,
      "ते": 1117,
      "▁[A": 1118,
      "▁\"म": 1119,
      "▁./": 1120,
      "▁\"C": 1121,
      "▁ar": 1122,
      "म्": 1123,
      "im": 1124,
      "gle": 1125,
      "ृत": 1126,
      "27": 1127,
      "conom": 1128,
      "▁is": 1129,
      "ी_": 1130,
      "13": 1131,
      "AA": 1132,
      "media": 1133,
      "16": 1134,
      "▁Indian": 1135,
      "▁को": 1136,
      "णि": 1137,
      "px": 1138,
      "ational": 1139,
      "▁[S": 1140,
      "ec": 1141,
      "17": 1142,
      "▁O": 1143,
      "E0%": 1144,
      "Har": 1145,
      "_and": 1146,
      "्रा": 1147,
      "▁(సా.శ.": 1148,
      "ors": 1149,
      "▁ल": 1150,
      "err": 1151,
      "id=": 1152,
      "commons": 1153,
      "*.": 1154,
      "యా": 1155,
      "oogle": 1156,
      "▁L": 1157,
      "हा": 1158,
      "▁W": 1159,
      "ులు": 1160,
      "▁రా": 1161,
      "4%": 1162,
      ".wikimedia": 1163,
      "South": 1164,
      "▁K": 1165,
      "'s": 1166,
      "CS": 1167,
      "–సా.శ.": 1168,
      "▁[ISBN": 1169,
      "ens": 1170,
      "ीय_": 1171,
      "▁१": 1172,
      "▁Asia": 1173,
      "_C": 1174,
      "ng": 1175,
      "uc": 1176,
      "से": 1177,
      "▁అ": 1178,
      "E0%A": 1179,
      "_P": 1180,
      "load": 1181,
      ".gov": 1182,
      "14": 1183,
      "?id=": 1184,
      "पू": 1185,
      "ి.": 1186,
      "upload": 1187,
      "▁प्रदेश": 1188,
      "og": 1189,
      "▁[C": 1190,
      "books.g": 1191,
      ".com/books": 1192,
      "oogle.com/books": 1193,
      "books.google.com/books": 1194,
      "-9": 1195,
      "_in_India": 1196,
      "books.google.com/books?id=": 1197,
      "श्": 1198,
      "![": 1199,
      "late": 1200,
      "ther": 1201,
      "▁हो": 1202,
      "pedia/": 1203,
      ".org/wikipedia/": 1204,
      ".wikimedia.org/wikipedia/": 1205,
      "upload.wikimedia.org/wikipedia/": 1206,
      "▁\"ISBN": 1207,
      "thumb": 1208,
      "ISBN_(identifier)": 1209,
      "nd": 1210,
      "](https://upload.wikimedia.org/wikipedia/": 1211,
      "▁ప్ర": 1212,
      "▁[978": 1213,
      "▁भ": 1214,
      "द्ध": 1215,
      "/thumb": 1216,
      "ंद": 1217,
      "ిక": 1218,
      "/thumb/": 1219,
      "](https://en.wikipedia.org/wiki/C": 1220,
      "ma": 1221,
      "](https://upload.wikimedia.org/wikipedia/commons": 1222,
      "p.": 1223,
      "▁[*": 1224,
      "o-": 1225,
      "हार": 1226,
      "తం": 1227,
      "ोक": 1228,
      "px-": 1229,
      "](https://upload.wikimedia.org/wikipedia/commons/thumb/": 1230,
      "े_": 1231,
      "inal": 1232,
      "▁आहे.": 1233,
      "](https://books.google.com/books?id=": 1234,
      "▁राज्य": 1235,
      "शिया": 1236,
      "▁\"M": 1237,
      "ish": 1238,
      "▁भाषा": 1239,
      "University": 1240,
      "▁The": 1241,
      "ut": 1242,
      ".p": 1243,
      "ిన": 1244,
      "జ్యం": 1245,
      "चित्र": 1246,
      "मान": 1247,
      "िय": 1248,
      "▁pp.": 1249,
      "स्तान": 1250,
      "]](https://hi.wikipedia.org/wiki/भारत#cite_": 1251,
      "ort": 1252,
      "▁\"S": 1253,
      "di": 1254,
      ")[[": 1255,
      ".in/": 1256,
      "ेत्र": 1257,
      "s/": 1258,
      "av": 1259,
      "జా": 1260,
      "our": 1261,
      "नी": 1262,
      "log": 1263,
      "कि": 1264,
      "art": 1265,
      "ff": 1266,
      "▁[M": 1267,
      "▁[↑](https://en.wikipedia.org/wiki/India#cite_ref-FOOTNOTE": 1268,
      "ంచ": 1269,
      "కు": 1270,
      "per": 1271,
      "▁ध": 1272,
      "de": 1273,
      "▁be": 1274,
      "ड़": 1275,
      "▁देश": 1276,
      "aj": 1277,
      "वर्": 1278,
      "br": 1279,
      "](https://te.wikipedia.org/wiki/భారతదేశం": 1280,
      "%E0%A": 1281,
      "umm": 1282,
      "▁कर": 1283,
      "▁\"स": 1284,
      "a_": 1285,
      "](https://en.wikipedia.org/wiki/M": 1286,
      "ys": 1287,
      "ను": 1288,
      "పూ": 1289,
      "ong": 1290,
      "▁है।": 1291,
      "oc": 1292,
      "ow": 1293,
      "ंत": 1294,
      "िण": 1295,
      "▁\"क": 1296,
      "ance": 1297,
      "s,": 1298,
      "धान": 1299,
      "47": 1300,
      "భా": 1301,
      "▁स्": 1302,
      "](https://en.wikipedia.org/wiki/S": 1303,
      "ंध": 1304,
      "rie": 1305,
      "%20": 1306,
      "sh": 1307,
      "-2": 1308,
      "](Special:BookSources/978": 1309,
      "und": 1310,
      "ages": 1311,
      "ans": 1312,
      "बा": 1313,
      "la": 1314,
      "ప్ర": 1315,
      "ot": 1316,
      "](https://en.wikipedia.org/wiki/ISBN_(identifier)": 1317,
      "▁[ISBN](https://en.wikipedia.org/wiki/ISBN_(identifier)": 1318,
      "35": 1319,
      "cy": 1320,
      "ुर": 1321,
      "▁orig": 1322,
      "_म": 1323,
      "ear": 1324,
      "गर": 1325,
      "▁\"Special:BookSources/978": 1326,
      "ద్": 1327,
      "ింద": 1328,
      "▁भारतीय": 1329,
      "PA": 1330,
      "ही": 1331,
      "▁[B": 1332,
      "ence": 1333,
      "lig": 1334,
      "श्रे": 1335,
      "all": 1336,
      "▁as": 1337,
      "2.": 1338,
      "_D": 1339,
      "▁I": 1340,
      ".jpg)": 1341,
      "-7": 1342,
      "क्षिण": 1343,
      "▁\"B": 1344,
      "_के_": 1345,
      "▁&": 1346,
      "▁ఉ": 1347,
      "ार्": 1348,
      "श्रेणी": 1349,
      "हर": 1350,
      ".jpg/": 1351,
      "-5": 1352,
      "tate": 1353,
      "ం:": 1354,
      "ुस": 1355,
      "Category:": 1356,
      "जी": 1357,
      "ture": 1358,
      "श्रेणी:": 1359,
      "&p": 1360,
      "वे": 1361,
      "1.": 1362,
      "▁original": 1363,
      "▁[क": 1364,
      "36": 1365,
      "_M": 1366,
      "▁ఆ": 1367,
      "ाली": 1368,
      "tern": 1369,
      "38": 1370,
      "_India": 1371,
      "▁\"A": 1372,
      "▁\"P": 1373,
      "्यां": 1374,
      "errors": 1375,
      "%2": 1376,
      "emp": 1377,
      "](https://hi.wikipedia.org/wiki/भारत#cite_ref-": 1378,
      "]](https://hi.wikipedia.org/wiki/भारत#cite_note-": 1379,
      "](http://": 1380,
      "its": 1381,
      "ंत्र": 1382,
      "ile": 1383,
      "ोल": 1384,
      "tein": 1385,
      "Harv": 1386,
      "land": 1387,
      "जा": 1388,
      "▁राज": 1389,
      "▁[स": 1390,
      "ana": 1391,
      "▁ర": 1392,
      "ht": 1393,
      "ore": 1394,
      "rchi": 1395,
      "▁Ret": 1396,
      "g=": 1397,
      "िल्": 1398,
      "&pg=": 1399,
      "%E0%A4%": 1400,
      "rieved": 1401,
      "▁Retrieved": 1402,
      "▁with": 1403,
      "िश": 1404,
      "మా": 1405,
      "▁సా": 1406,
      "▁[अ": 1407,
      "భారతీయ": 1408,
      "स्क": 1409,
      "दा": 1410,
      "म्रा": 1411,
      "▁Press": 1412,
      "వా": 1413,
      "▁\"अ": 1414,
      "overn": 1415,
      "ss": 1416,
      "](https://en.wikipedia.org/wiki/B": 1417,
      "_T": 1418,
      "రు": 1419,
      "▁te": 1420,
      "les": 1421,
      "titu": 1422,
      "ex": 1423,
      "2006": 1424,
      "opul": 1425,
      "णा": 1426,
      "▁एक": 1427,
      "ensus": 1428,
      "▁ex": 1429,
      "▁[भारत": 1430,
      "▁Category:": 1431,
      "ll": 1432,
      "थान": 1433,
      "se": 1434,
      "వి": 1435,
      "ష్ట": 1436,
      "](https://en.wikipedia.org/wiki/P": 1437,
      "ార్": 1438,
      "పూ.": 1439,
      "\"))": 1440,
      "fn": 1441,
      "omm": 1442,
      "ai": 1443,
      "ातील": 1444,
      "ज़": 1445,
      "Ind": 1446,
      "2018": 1447,
      "&pg=PA": 1448,
      "▁ख": 1449,
      "క్ష": 1450,
      "िस": 1451,
      "Indian": 1452,
      "t:": 1453,
      "ord": 1454,
      "त्": 1455,
      "స్థ": 1456,
      "రిత్ర": 1457,
      "39": 1458,
      "▁ना": 1459,
      "7.": 1460,
      "ुसार": 1461,
      "language": 1462,
      "▁\"T": 1463,
      "▁[P": 1464,
      "▁language": 1465,
      "oi": 1466,
      "▁पु": 1467,
      "ाने": 1468,
      "▁*[": 1469,
      "▁प्रा": 1470,
      "70": 1471,
      "ism": 1472,
      "▁अस": 1473,
      "48": 1474,
      "ख्य": 1475,
      "▁University": 1476,
      "ire": 1477,
      "के": 1478,
      "rchived": 1479,
      "ik": 1480,
      "2011": 1481,
      "-10": 1482,
      "istory": 1483,
      "న్న": 1484,
      "ric": 1485,
      "ass": 1486,
      "▁आहेत": 1487,
      "त्तर": 1488,
      "ations": 1489,
      "ubl": 1490,
      "hin": 1491,
      "पर": 1492,
      "overnment": 1493,
      "nic": 1494,
      "▁was": 1495,
      "िर": 1496,
      "▁घ": 1497,
      "ries": 1498,
      "पी": 1499,
      "▁no": 1500,
      "ies": 1501,
      "शास": 1502,
      "_प्र": 1503,
      "als": 1504,
      "▁de": 1505,
      "वर": 1506,
      "ank": 1507,
      "मन": 1508,
      "ard": 1509,
      "राष्ट्रीय": 1510,
      "*](https://books.google.com/books?id=": 1511,
      "/https://": 1512,
      "]](https://mr.wikipedia.org/wiki/भारत#cite_": 1513,
      "4.": 1514,
      "▁\"E": 1515,
      "\").\r\n": 1516,
      "](https://web.archive.org/web/201": 1517,
      "_and_": 1518,
      "_G": 1519,
      "](https://www.": 1520,
      "arge": 1521,
      "ue": 1522,
      "opulation": 1523,
      "Hind": 1524,
      "](https://te.wikipedia.org/wiki/భారతదేశం#cite_": 1525,
      "▁an": 1526,
      "चीन": 1527,
      "గా": 1528,
      "▁[D": 1529,
      "outh": 1530,
      "-6": 1531,
      "वी": 1532,
      "म्राज": 1533,
      "45": 1534,
      "की": 1535,
      "हास": 1536,
      "▁are": 1537,
      "hm": 1538,
      "टी": 1539,
      "60": 1540,
      "ంట": 1541,
      "కి": 1542,
      "](https://en.wikipedia.org/wiki/A": 1543,
      "6.": 1544,
      "धिक": 1545,
      "▁[ब": 1546,
      "ेंद्र": 1547,
      "![](https://upload.wikimedia.org/wikipedia/commons/thumb/": 1548,
      "_s": 1549,
      "మ్రా": 1550,
      "▁झ": 1551,
      "anguages": 1552,
      "ష్ట్ర": 1553,
      "िळ": 1554,
      "ेला": 1555,
      "](https://mr.wikipedia.org/wiki/म": 1556,
      "onstitu": 1557,
      "CS1": 1558,
      "3.": 1559,
      "▁\"D": 1560,
      "ani": 1561,
      "](https://en.wikipedia.org/wiki/E": 1562,
      "विश": 1563,
      "गु": 1564,
      "▁मु": 1565,
      "लेख": 1566,
      "ke": 1567,
      "ంత": 1568,
      "▁च": 1569,
      "250": 1570,
      "ूची": 1571,
      "sher": 1572,
      "eral": 1573,
      "esh": 1574,
      "ical": 1575,
      "▁r": 1576,
      "▁\"G": 1577,
      "](https://en.wikipedia.org/wiki/T": 1578,
      "_b": 1579,
      "mber": 1580,
      "▁क्ष": 1581,
      "▁हे": 1582,
      ")\")": 1583,
      "_स": 1584,
      "किस्तान": 1585,
      "ाला": 1586,
      "श्रेणी:Harv": 1587,
      "%2C": 1588,
      "పు": 1589,
      "▁\"List": 1590,
      "▁ने": 1591,
      "](https://mr.wikipedia.org/wiki/भारत#cite_ref-": 1592,
      "htm": 1593,
      "]](https://mr.wikipedia.org/wiki/भारत#cite_note-": 1594,
      "क्त": 1595,
      "▁–": 1596,
      "▁जात": 1597,
      "iss": 1598,
      "ont": 1599,
      "▁V": 1600,
      "▁న": 1601,
      "2010": 1602,
      "vi": 1603,
      "ame": 1604,
      "तम": 1605,
      "ountries": 1606,
      "37": 1607,
      "Stein": 1608,
      "other": 1609,
      "ोर": 1610,
      "tics": 1611,
      "▁हैं": 1612,
      "▁Hind": 1613,
      "ंब": 1614,
      "మి": 1615,
      "ాన": 1616,
      "▁हि": 1617,
      "▁\"भारतीय": 1618,
      "5.": 1619,
      "र्थ": 1620,
      "conomic": 1621,
      "_R": 1622,
      "▁[2": 1623,
      "](https://en.wikipedia.org/wiki/D": 1624,
      "పా": 1625,
      "▁ఇ": 1626,
      "▁త": 1627,
      "భాష": 1628,
      "ोग": 1629,
      "▁\"ब": 1630,
      "हारा": 1631,
      "AJ": 1632,
      "िव": 1633,
      "ेष": 1634,
      "ine": 1635,
      "▁वर्": 1636,
      "ford": 1637,
      "49": 1638,
      "धार": 1639,
      "ers": 1640,
      "ata": 1641,
      "46": 1642,
      "BAJ": 1643,
      "QBAJ": 1644,
      "▁[G": 1645,
      "omp": 1646,
      "udd": 1647,
      "ian": 1648,
      "List_of_": 1649,
      "au": 1650,
      "▁199": 1651,
      "/http://": 1652,
      "aki": 1653,
      "df": 1654,
      "▁[1": 1655,
      "-1)": 1656,
      "▁भाषा\")": 1657,
      "ummit": 1658,
      "▁क्षेत्र": 1659,
      "పాల": 1660,
      "లీ": 1661,
      "▁\"N": 1662,
      "ध्ये": 1663,
      "_B": 1664,
      "तात": 1665,
      "दक्षिण": 1666,
      "▁अन": 1667,
      "ाच्या": 1668,
      "eng": 1669,
      "tive": 1670,
      "▁whi": 1671,
      "xford": 1672,
      "▁[↑](https://hi.wikipedia.org/wiki/भारत#cite_ref-": 1673,
      "ions": 1674,
      "▁దేశ": 1675,
      "▁पा": 1676,
      "▁वा": 1677,
      "ंग्रे": 1678,
      "స్తా": 1679,
      "ction": 1680,
      "▁अभ": 1681,
      "_p": 1682,
      "िल्ली": 1683,
      "यु": 1684,
      "▁ट": 1685,
      "వర్": 1686,
      "ాయ": 1687,
      "भाग": 1688,
      "-0-19": 1689,
      ".jpg)\r\n": 1690,
      "ven": 1691,
      "4)": 1692,
      "RI": 1693,
      "_Asia": 1694,
      "AAQBAJ": 1695,
      "a\")": 1696,
      "म्राज्य": 1697,
      "1)": 1698,
      "oli": 1699,
      "ess": 1700,
      "▁2011": 1701,
      "conomy": 1702,
      "stan": 1703,
      "▁आणि": 1704,
      "end": 1705,
      "artic": 1706,
      "ali": 1707,
      "्वी": 1708,
      "మ్రాజ్యం": 1709,
      "tim": 1710,
      "ere": 1711,
      ",_": 1712,
      "ral": 1713,
      "द्य": 1714,
      "▁२": 1715,
      "ingh": 1716,
      "MetcalfMetcalf": 1717,
      "शी": 1718,
      "▁[N": 1719,
      "](https://mr.wikipedia.org/wiki/स": 1720,
      "ंगाल": 1721,
      "▁\"R": 1722,
      ").\r\n": 1723,
      "దేశ్": 1724,
      "67": 1725,
      "fe": 1726,
      "मू": 1727,
      "ाना": 1728,
      "ib": 1729,
      "क्": 1730,
      "riti": 1731,
      "india.gov": 1732,
      "3)": 1733,
      "rou": 1734,
      "sv": 1735,
      "](https://en.wikipedia.org/wiki/G": 1736,
      "](https://en.wikipedia.org/wiki/R": 1737,
      "▁(P": 1738,
      "चित्र:": 1739,
      "iv": 1740,
      "ty": 1741,
      "रकार": 1742,
      "_N": 1743,
      "ం](https://te.wikipedia.org/wiki/": 1744,
      "-p": 1745,
      "8.": 1746,
      "हिन्": 1747,
      ".pdf": 1748,
      "▁which": 1749,
      "ज्": 1750,
      "ark": 1751,
      "िका": 1752,
      "velo": 1753,
      "पूर्व": 1754,
      "▁धर्म": 1755,
      "ంబ": 1756,
      "టి": 1757,
      "▁ति": 1758,
      "s.": 1759,
      "ल्": 1760,
      "ah": 1761,
      "▁[E": 1762,
      "](https://en.wikipedia.org/wiki/N": 1763,
      "ern": 1764,
      "his": 1765,
      "त्य": 1766,
      "ublic": 1767,
      ".pdf)": 1768,
      "कर": 1769,
      "ంలో": 1770,
      "्यात": 1771,
      "पाकिस्तान": 1772,
      "స్తాన్": 1773,
      "90": 1774,
      "-t": 1775,
      "मे": 1776,
      "▁[R": 1777,
      "▁मो": 1778,
      "ath": 1779,
      "ope": 1780,
      "च्": 1781,
      "न\")": 1782,
      "_की_": 1783,
      "tates": 1784,
      "्वीप": 1785,
      "_m": 1786,
      "గు": 1787,
      "డు": 1788,
      "నే": 1789,
      "్చ": 1790,
      "gen": 1791,
      "ठा": 1792,
      "थि": 1793,
      "पं": 1794,
      "वं": 1795,
      "](https://en.wikipedia.org/wiki/List_of_": 1796,
      "▁South": 1797,
      "पट": 1798,
      "idge": 1799,
      "▁2007": 1800,
      "###": 1801,
      "हाराष्ट्र": 1802,
      "ug": 1803,
      "▁has": 1804,
      "ल्या": 1805,
      "ूल": 1806,
      "ange": 1807,
      "श्चि": 1808,
      "हु": 1809,
      "మూ": 1810,
      "hist": 1811,
      "out": 1812,
      "్రీ": 1813,
      "జాత": 1814,
      "वर्ग": 1815,
      "United": 1816,
      "_प्रदेश": 1817,
      "DF": 1818,
      "bot": 1819,
      "cl": 1820,
      "▁[T": 1821,
      "▁India's": 1822,
      "▁भारतात": 1823,
      "territ": 1824,
      "▁li": 1825,
      "icial": 1826,
      "rad": 1827,
      "000": 1828,
      "तिहास": 1829,
      "▁[Archived": 1830,
      "9.": 1831,
      "rap": 1832,
      "new": 1833,
      "ob": 1834,
      "లా": 1835,
      "ties": 1836,
      "ంగా": 1837,
      "▁that": 1838,
      "43": 1839,
      "चल": 1840,
      "्रि": 1841,
      "स्थान": 1842,
      "%E0%A4%B": 1843,
      "_न": 1844,
      "▁\"आ": 1845,
      "_E": 1846,
      "albot": 1847,
      "ile:": 1848,
      "RICS": 1849,
      "माल": 1850,
      "▁De": 1851,
      "onstitution": 1852,
      "वर्ग:": 1853,
      "iki": 1854,
      "ove": 1855,
      "लोक": 1856,
      "డ్": 1857,
      "ిల్": 1858,
      "▁జ": 1859,
      "ous": 1860,
      "10.": 1861,
      "ration": 1862,
      "जाब": 1863,
      "ach": 1864,
      "ult": 1865,
      "ta": 1866,
      "िग": 1867,
      "aste": 1868,
      "250px-": 1869,
      "sland": 1870,
      "to": 1871,
      "▁pro": 1872,
      "पंजाब": 1873,
      "man": 1874,
      "shi": 1875,
      "లి": 1876,
      "స్త్ర": 1877,
      "गण": 1878,
      "जरा": 1879,
      "pend": 1880,
      "80": 1881,
      "Asher": 1882,
      "▁un": 1883,
      "▁१९": 1884,
      "logy": 1885,
      "ost": 1886,
      "जन": 1887,
      "html": 1888,
      "▁(PDF": 1889,
      "56": 1890,
      "▁7": 1891,
      "▁pe": 1892,
      "DP": 1893,
      "िन": 1894,
      "కా": 1895,
      "ణా": 1896,
      "దక్ష": 1897,
      "ధిక": 1898,
      "](https://hi.wikipedia.org/wiki/अ": 1899,
      "▁ప్రా": 1900,
      "▁వి": 1901,
      "సియా": 1902,
      "జాతీయ": 1903,
      "12": 1904,
      "ैद": 1905,
      "स्ट": 1906,
      "ूर": 1907,
      "2004": 1908,
      "2009": 1909,
      "ंगा": 1910,
      "File:": 1911,
      "inist": 1912,
      "▁[↑](https://mr.wikipedia.org/wiki/भारत#cite_ref-": 1913,
      "विशेष": 1914,
      "विशेष:": 1915,
      "..": 1916,
      "వం": 1917,
      "ury": 1918,
      "▁సం": 1919,
      "▁చరిత్ర": 1920,
      "ountry": 1921,
      "ृत्य": 1922,
      "ritish": 1923,
      "57": 1924,
      "▁3": 1925,
      "ign": 1926,
      "AAQBAJ&pg=PA": 1927,
      "hy": 1928,
      "▁बा": 1929,
      "▁\"इ": 1930,
      "▁पुरा": 1931,
      "\"\r\n": 1932,
      "eg": 1933,
      "▁स्व": 1934,
      "2007": 1935,
      "ज्ञ": 1936,
      "33": 1937,
      "ळे": 1938,
      "డి": 1939,
      "](https://mr.wikipedia.org/wiki/क": 1940,
      "▁आहेत.": 1941,
      "[![](https://upload.wikimedia.org/wikipedia/commons/thumb/": 1942,
      "_भाषा": 1943,
      "स्था": 1944,
      "aint:": 1945,
      "ंतर": 1946,
      "_भारत": 1947,
      "▁[K": 1948,
      "िक्ष": 1949,
      "mpire": 1950,
      "प्त": 1951,
      "▁U": 1952,
      "cont": 1953,
      "/c": 1954,
      "ome": 1955,
      "▁नि": 1956,
      "-0-5": 1957,
      "ంధ": 1958,
      "](File:": 1959,
      "\")*": 1960,
      "ree": 1961,
      "స్త": 1962,
      "▁రాజ్యం": 1963,
      "ansk": 1964,
      "▁సామ్రాజ్యం": 1965,
      "వర్గ": 1966,
      "దక్షి": 1967,
      "▁5": 1968,
      "ठी": 1969,
      "ational_": 1970,
      "माण": 1971,
      "velop": 1972,
      "ack": 1973,
      "▁संस्क": 1974,
      "शासित": 1975,
      "नुसार": 1976,
      "bridge": 1977,
      "हित": 1978,
      "దీ": 1979,
      "▁at": 1980,
      "ండి": 1981,
      ".jpg/250px-": 1982,
      "వర్గం:": 1983,
      "2)": 1984,
      "world": 1985,
      "बर": 1986,
      "ैन": 1987,
      "▁v": 1988,
      "](https://hi.wikipedia.org/wiki/म": 1989,
      "amil": 1990,
      "ulture": 1991,
      "](https://en.wikipedia.org/wiki/India#cite_ref-FOOTNOTE": 1992,
      "elhi": 1993,
      "MetcalfMetcalf2006": 1994,
      "anskrit": 1995,
      "120": 1996,
      "ite": 1997,
      "](https://web.archive.org/web/20": 1998,
      "्रो": 1999,
      "▁पू": 2000,
      "क्षेत्र": 2001,
      "मध्ये": 2002,
      "रु": 2003,
      "▁\"The": 2004,
      "ood": 2005,
      "▁**[": 2006,
      "South_Asia": 2007,
      "తర": 2008,
      "ది": 2009,
      "▁బ": 2010,
      "ारी": 2011,
      "ames": 2012,
      "▁18": 2013,
      "temp": 2014,
      "▁सरकार": 2015,
      "ated": 2016,
      "ater": 2017,
      "/978": 2018,
      "hand": 2019,
      "qu": 2020,
      "usic": 2021,
      "▁तिथि": 2022,
      "5)": 2023,
      "ms": 2024,
      "na": 2025,
      "दे": 2026,
      "▁its": 2027,
      "▁\"K": 2028,
      "्री": 2029,
      "▁जन": 2030,
      "ख्या": 2031,
      "वन": 2032,
      "▁se": 2033,
      "ambridge": 2034,
      "ांची": 2035,
      ".sv": 2036,
      "_language": 2037,
      "por": 2038,
      "ట్": 2039,
      "ిత": 2040,
      "▁\"ज": 2041,
      "▁cent": 2042,
      "ंडिया": 2043,
      "ograp": 2044,
      "shit": 2045,
      "World": 2046,
      "duc": 2047,
      "▁\"Indian": 2048,
      "\"](https://web.archive.org/web/201": 2049,
      "व्य": 2050,
      "सी": 2051,
      "▁st": 2052,
      "्रिट": 2053,
      "velopment": 2054,
      "RC": 2055,
      "▁4": 2056,
      "▁फ": 2057,
      "▁तिथि:": 2058,
      "isation": 2059,
      "_आ": 2060,
      "_చ": 2061,
      "ef": 2062,
      "ం\")": 2063,
      "▁\"మ": 2064,
      "inent": 2065,
      "▁मान": 2066,
      "ింది.": 2067,
      "times": 2068,
      "िंध": 2069,
      "▁[इ": 2070,
      "\"))\r\n": 2071,
      "ाले": 2072,
      "▁ये": 2073,
      "भू": 2074,
      "रे": 2075,
      "emplate": 2076,
      "_d": 2077,
      "erv": 2078,
      "▁प्रदेश\")": 2079,
      "ढ़": 2080,
      "orth": 2081,
      "arg": 2082,
      "lection": 2083,
      "▁अभिग": 2084,
      "▁अभिगमन": 2085,
      "-b": 2086,
      "6)": 2087,
      "▁ఎ": 2088,
      "▁[మ": 2089,
      "row": 2090,
      "▁2014": 2091,
      "▁(సా.శ.పూ.": 2092,
      "▁[उ": 2093,
      "any": 2094,
      "ice": 2095,
      "चा:": 2096,
      "-m": 2097,
      "Oxford": 2098,
      "ृष्": 2099,
      "\")**": 2100,
      "▁तथा": 2101,
      "dition": 2102,
      "yson": 2103,
      "्रोत": 2104,
      "धर्म": 2105,
      "▁[![": 2106,
      "▁\"उ": 2107,
      "न्न": 2108,
      "▁History": 2109,
      "पुर": 2110,
      "▁reg": 2111,
      "-s": 2112,
      "oh": 2113,
      "lion": 2114,
      "गुजरा": 2115,
      "roup": 2116,
      ".nic": 2117,
      "lish": 2118,
      "मार": 2119,
      "ोन": 2120,
      "ధ్య": 2121,
      "▁గ": 2122,
      "▁శ": 2123,
      "alth": 2124,
      "स्व": 2125,
      "_का": 2126,
      "ంద్ర": 2127,
      "चित्रपट": 2128,
      "▁हैं।": 2129,
      "hr": 2130,
      "lia": 2131,
      "▁[L": 2132,
      "▁[the": 2133,
      "डिया": 2134,
      "2003": 2135,
      "नाड": 2136,
      "old": 2137,
      "▁साम्राज्य": 2138,
      "_F": 2139,
      "णे": 2140,
      "](https://en.wikipedia.org/wiki/K": 2141,
      "](https://hi.wikipedia.org/wiki/क": 2142,
      "ase": 2143,
      "ashm": 2144,
      "uring": 2145,
      "akistan": 2146,
      "_1": 2147,
      "doi": 2148,
      "mer": 2149,
      "197": 2150,
      "▁हा": 2151,
      "hel": 2152,
      "ांत": 2153,
      "रब": 2154,
      "ीत": 2155,
      "ेट": 2156,
      "्ह": 2157,
      "ైన": 2158,
      "](https://te.wikipedia.org/wiki/మ": 2159,
      "ंग्": 2160,
      "▁పే": 2161,
      "▁were": 2162,
      "IN": 2163,
      "led": 2164,
      "alay": 2165,
      "2008": 2166,
      "दी\")": 2167,
      "▁languages": 2168,
      "स्तक": 2169,
      "▁उप": 2170,
      "पुस्तक": 2171,
      "▁[978-1": 2172,
      "विशेष:पुस्तक": 2173,
      "्रिटिश": 2174,
      "्रोत/978": 2175,
      "गातील": 2176,
      "AARC": 2177,
      "/https://www.": 2178,
      "ril": 2179,
      "ligion": 2180,
      "Dw": 2181,
      "census": 2182,
      "](https://hi.wikipedia.org/wiki/स": 2183,
      "](https://en.wikipedia.org/wiki/Indian_": 2184,
      "▁अने": 2185,
      "▁mil": 2186,
      "urope": 2187,
      "](https://hi.wikipedia.org/wiki/भारतीय_": 2188,
      "radesh": 2189,
      "▁अनेक": 2190,
      "/p": 2191,
      "dit": 2192,
      "ौद्ध": 2193,
      "ట్ట": 2194,
      "హింద": 2195,
      "▁భారతదేశం": 2196,
      "ంగ్": 2197,
      "ద్ధ": 2198,
      "▁ad": 2199,
      "▁cont": 2200,
      "1998": 2201,
      "श्चिम": 2202,
      "05": 2203,
      "irst": 2204,
      "Stein2010": 2205,
      "pu": 2206,
      "डी": 2207,
      "ork": 2208,
      "▁sub": 2209,
      "late_": 2210,
      "_by": 2211,
      "▁le": 2212,
      "ten": 2213,
      "तात.": 2214,
      "ించ": 2215,
      "▁ఒ": 2216,
      "▁భాష": 2217,
      "▁[క": 2218,
      "ాల్": 2219,
      "ound": 2220,
      "▁रो": 2221,
      "Indo-": 2222,
      "▁गण": 2223,
      "▁2019": 2224,
      "](http://www.": 2225,
      "62": 2226,
      "7)": 2227,
      "History": 2228,
      "Wiki": 2229,
      "ati": 2230,
      "तु": 2231,
      "दिल्ली": 2232,
      "सद": 2233,
      "▁भू": 2234,
      "ंदिर": 2235,
      "yste": 2236,
      "59": 2237,
      "द्वीप": 2238,
      "▁मेला": 2239,
      "2014": 2240,
      "विध": 2241,
      ".jpg)](File:": 2242,
      "▁Hindu": 2243,
      ".;": 2244,
      "जात": 2245,
      "▁[ग": 2246,
      "▁\"ग": 2247,
      "▁2021": 2248,
      "\"](https://www.": 2249,
      "-d": 2250,
      "]](https://te.wikipedia.org/wiki/భారతదేశం#cite_": 2251,
      "చ్చ": 2252,
      "జీ": 2253,
      "ేంద్ర": 2254,
      "▁ha": 2255,
      "▁\"L": 2256,
      "▁\"క": 2257,
      "ब्": 2258,
      "▁8": 2259,
      "ese": 2260,
      "](https://mr.wikipedia.org/wiki/अ": 2261,
      "](https://mr.wikipedia.org/wiki/आ": 2262,
      "▁काळ": 2263,
      "ते.": 2264,
      "▁[भारतीय": 2265,
      "तमिळ": 2266,
      "tical": 2267,
      "port": 2268,
      "vis": 2269,
      "arch": 2270,
      "▁Asian": 2271,
      "▁वर्ष": 2272,
      "-g": 2273,
      "▁हु": 2274,
      "ats": 2275,
      "une": 2276,
      "odern": 2277,
      "_में": 2278,
      "0.": 2279,
      "ces": 2280,
      "gan": 2281,
      "త్య": 2282,
      "బ్": 2283,
      "మీ": 2284,
      "▁[न": 2285,
      "](https://te.wikipedia.org/wiki/ద": 2286,
      "2005": 2287,
      "్యా": 2288,
      "రాష్ట్ర": 2289,
      "▁./వర్గం:": 2290,
      "india.gov.in/": 2291,
      "▁संस्कृ": 2292,
      ".nic.in/": 2293,
      "t\\_": 2294,
      "uary": 2295,
      "ेत": 2296,
      "ारा": 2297,
      "श्मी": 2298,
      "continent": 2299,
      "ंप": 2300,
      "म\")": 2301,
      "isher": 2302,
      "▁यु": 2303,
      "matics": 2304,
      "लेखित": 2305,
      "ंग्रेज़": 2306,
      "धी": 2307,
      "▁सर्व": 2308,
      "▁आशिया": 2309,
      "▁शिक्ष": 2310,
      "-india": 2311,
      "बंध": 2312,
      "▁ही": 2313,
      "▁Ap": 2314,
      "मुख": 2315,
      "▁पूर्व": 2316,
      ".\"\r\n": 2317,
      "दू": 2318,
      "ంక": 2319,
      "ప్": 2320,
      "యు": 2321,
      "▁भाग": 2322,
      "▁[आ": 2323,
      "▁\"F": 2324,
      "rate": 2325,
      "act": 2326,
      "తంత్ర": 2327,
      "](https://te.wikipedia.org/wiki/భారతదేశం#cite_ref-": 2328,
      "ission": 2329,
      "slands": 2330,
      "-0-521": 2331,
      "దక్షిణ": 2332,
      "]](https://te.wikipedia.org/wiki/భారతదేశం#cite_note-": 2333,
      "65": 2334,
      "टक": 2335,
      "▁सूची": 2336,
      "age/": 2337,
      "विधान": 2338,
      "▁26": 2339,
      "▁[ज": 2340,
      "ace": 2341,
      "\\_S": 2342,
      "▁इस": 2343,
      "87": 2344,
      "Talbot": 2345,
      "kno": 2346,
      "▁2": 2347,
      "usin": 2348,
      "▁wh": 2349,
      "AsherTalbot": 2350,
      "69": 2351,
      "8)": 2352,
      "aw": 2353,
      "खंड": 2354,
      "ined": 2355,
      "्रम": 2356,
      "ters": 2357,
      "earch": 2358,
      "_స": 2359,
      "val": 2360,
      "తము": 2361,
      "వే": 2362,
      "ష్": 2363,
      "ాన్": 2364,
      "▁चित्रपट": 2365,
      "on-": 2366,
      "cies": 2367,
      "](https://mr.wikipedia.org/wiki/इ": 2368,
      "](https://mr.wikipedia.org/wiki/ब": 2369,
      "lear": 2370,
      "స్క": 2371,
      "▁भारताच्या": 2372,
      "ght": 2373,
      "ిల్లీ": 2374,
      "ज्ञान": 2375,
      "_c": 2376,
      "_the": 2377,
      "mund": 2378,
      "tra": 2379,
      "uk": 2380,
      "डा": 2381,
      "िं": 2382,
      "००": 2383,
      "▁ऑ": 2384,
      "](https://en.wikipedia.org/wiki/L": 2385,
      "▁अधिक": 2386,
      "▁Comm": 2387,
      "ंग्र": 2388,
      "uly": 2389,
      "साँ": 2390,
      "berg": 2391,
      "othermund": 2392,
      "inistry": 2393,
      "-20": 2394,
      "ूप": 2395,
      "rib": 2396,
      "▁ते": 2397,
      "▁17": 2398,
      "▁बहु": 2399,
      "▁भी": 2400,
      "1/": 2401,
      "ail": 2402,
      "ories": 2403,
      "ari": 2404,
      "](https://hi.wikipedia.org/wiki/भारत_के_": 2405,
      "](https://hi.wikipedia.org/wiki/भारत_में": 2406,
      "ulke": 2407,
      "ower": 2408,
      "జి": 2409,
      "ధాన": 2410,
      "బె": 2411,
      "ారు": 2412,
      "▁दक्षिण": 2413,
      "▁కా": 2414,
      "▁शास": 2415,
      "▁రాజ": 2416,
      "help": 2417,
      "▁territ": 2418,
      "line": 2419,
      "uclear": 2420,
      "▁[Archived](https://web.archive.org/web/20": 2421,
      "air": 2422,
      "fter": 2423,
      "wart": 2424,
      "year": 2425,
      "zberg": 2426,
      "ोब": 2427,
      "omb": 2428,
      "](https://mr.wikipedia.org/wiki/ज": 2429,
      "](https://mr.wikipedia.org/wiki/चित्र:": 2430,
      "chwart": 2431,
      "राजस्थान": 2432,
      "ustry": 2433,
      "ystem": 2434,
      "chwartzberg": 2435,
      "mb": 2436,
      "▁विविध": 2437,
      "34": 2438,
      "330": 2439,
      "_देश": 2440,
      "▁[F": 2441,
      "▁[सं": 2442,
      "ेंद्रशासित": 2443,
      "lass": 2444,
      "దు": 2445,
      "మ్": 2446,
      "శ్": 2447,
      "▁राष्ट्र": 2448,
      "\").[[": 2449,
      "](https://te.wikipedia.org/wiki/క": 2450,
      "▁par": 2451,
      "▁ch": 2452,
      "్యవ": 2453,
      "ంది.": 2454,
      "पुरा": 2455,
      "▁लोक": 2456,
      "_की_स": 2457,
      "_చరిత్ర": 2458,
      "Edit": 2459,
      "Page/": 2460,
      "▁25": 2461,
      "▁सम": 2462,
      "▁An": 2463,
      "Union": 2464,
      "odi": 2465,
      "ंबई": 2466,
      "EditPage/": 2467,
      "hp": 2468,
      "▁\"न": 2469,
      "-l": 2470,
      "PP": 2471,
      "ran": 2472,
      "▁राष्ट्रीय": 2473,
      "eneral": 2474,
      "](https://en.wikipedia.org/wiki/F": 2475,
      "aman": 2476,
      "uman": 2477,
      "▁2010": 2478,
      "▁इतिहास": 2479,
      "ikshit": 2480,
      "/http://www.": 2481,
      "ographi": 2482,
      "yn": 2483,
      "ंदी": 2484,
      "ळी": 2485,
      "ाची": 2486,
      "ority": 2487,
      "िक्": 2488,
      "मुद्र": 2489,
      "मुळे": 2490,
      "पूर": 2491,
      "वर्ग:CS1": 2492,
      "▁रोजी": 2493,
      "-in": 2494,
      "/artic": 2495,
      "8/": 2496,
      "लि": 2497,
      "ఢిల్లీ": 2498,
      "పంచ": 2499,
      "▁ड": 2500,
      "▁[प": 2501,
      "▁India,": 2502,
      "ారి": 2503,
      "umber": 2504,
      "మూస": 2505,
      "uch": 2506,
      "ugh": 2507,
      "ूच": 2508,
      "▁ri": 2509,
      "▁\"प": 2510,
      "inis": 2511,
      "▁उत्": 2512,
      "ctor": 2513,
      "ashmir": 2514,
      "IA": 2515,
      "low": 2516,
      "▁15": 2517,
      "▁स्था": 2518,
      "history": 2519,
      "_L": 2520,
      "वस्था": 2521,
      "१९": 2522,
      "\\_and": 2523,
      "error": 2524,
      "▁temp": 2525,
      "श्मीर": 2526,
      "▁April": 2527,
      "C&pg=PA": 2528,
      "hind": 2529,
      "par": 2530,
      "rof": 2531,
      "ण्": 2532,
      "ाक": 2533,
      "▁[W": 2534,
      "▁तक": 2535,
      "▁./Category:": 2536,
      "_and_S": 2537,
      "ongress": 2538,
      "](Special:BookSources/978-1": 2539,
      "▁\"Special:BookSources/978-1": 2540,
      ".svg": 2541,
      "వు": 2542,
      "▁\"భారతీయ": 2543,
      "\")*.": 2544,
      "ond": 2545,
      "▁विश": 2546,
      "_Indian_": 2547,
      "emplate:": 2548,
      "Asia": 2549,
      "mar": 2550,
      "धील": 2551,
      "ेक": 2552,
      "edi": 2553,
      "्त्र": 2554,
      "▁tra": 2555,
      "▁स्थान": 2556,
      "नाडू": 2557,
      "1,": 2558,
      "Singh": 2559,
      "a,": 2560,
      "uj": 2561,
      "तर": 2562,
      "▁9": 2563,
      "▁विक": 2564,
      "lim": 2565,
      "1994": 2566,
      "▁Empire": 2567,
      "▁New": 2568,
      "तेल": 2569,
      "▁World": 2570,
      "▁Asia\")": 2571,
      "मालय": 2572,
      "68": 2573,
      "aper": 2574,
      "fl": 2575,
      "national": 2576,
      "▁आधार": 2577,
      "▁Pro": 2578,
      "emb": 2579,
      "ople": 2580,
      "nglish": 2581,
      "brary": 2582,
      "▁स्थाप": 2583,
      "▁errors": 2584,
      "Intern": 2585,
      "्यान": 2586,
      "ates": 2587,
      "▁दे": 2588,
      "नाग": 2589,
      "▁July": 2590,
      "▁([help": 2591,
      "▁errors\"))\r\n": 2592,
      "100": 2593,
      "_अ": 2594,
      "_at": 2595,
      "జన": 2596,
      "టు": 2597,
      "టె": 2598,
      "](https://hi.wikipedia.org/wiki/ब": 2599,
      "ley": 2600,
      "▁dis": 2601,
      "igh": 2602,
      "▁చె": 2603,
      "నాయ": 2604,
      "–సా.శ.పూ.": 2605,
      "▁होता": 2606,
      "▁ఆర్": 2607,
      "Hindi": 2608,
      "పాలిత": 2609,
      "స్త్రం:": 2610,
      "▁ప్రాంత": 2611,
      "ledge": 2612,
      "DwAAQBAJ&pg=PA": 2613,
      "ేంద్రపాలిత": 2614,
      "](https://te.wikipedia.org/wiki/దస్త్రం:": 2615,
      "t\\_errors": 2616,
      "_की_सूची": 2617,
      "-c": 2618,
      "1_": 2619,
      "तंत्र": 2620,
      "Hindu": 2621,
      "ober": 2622,
      "वरी": 2623,
      "▁pl": 2624,
      "urr": 2625,
      "▁En": 2626,
      "मुंबई": 2627,
      "▁साहित": 2628,
      "att": 2629,
      "dom": 2630,
      "gy": 2631,
      "rd": 2632,
      "ves": 2633,
      "ओं": 2634,
      "वार": 2635,
      "king": 2636,
      "▁\"South": 2637,
      "ant": 2638,
      "ेशिया": 2639,
      "iron": 2640,
      "▁this": 2641,
      "म्मू": 2642,
      "ियों": 2643,
      "]](https://hi.wikipedia.org/wiki/भारत#cite_note-FOOTNOTE": 2644,
      "ummit\")": 2645,
      "तमिळनाडू": 2646,
      "ंग्रेज़ी": 2647,
      "_सा": 2648,
      "_सं": 2649,
      "here": 2650,
      "▁not": 2651,
      "युक्त": 2652,
      "fn_": 2653,
      "ution": 2654,
      "स.": 2655,
      "ఖ్య": 2656,
      "గో": 2657,
      "తో": 2658,
      "బి": 2659,
      "హి": 2660,
      "▁error": 2661,
      "भारतीय": 2662,
      "no-t": 2663,
      "-17": 2664,
      "ाता": 2665,
      "▁cons": 2666,
      "\\_no-t": 2667,
      "▁Sfn": 2668,
      "▁targe": 2669,
      "ुरु": 2670,
      "fn\\_no-t": 2671,
      "arget\\_errors": 2672,
      "template_": 2673,
      "\\_Sfn\\_no-t": 2674,
      "స్కృ": 2675,
      "\\_and\\_Sfn\\_no-t": 2676,
      "▁template": 2677,
      "_and_Sfn_": 2678,
      "▁error:": 2679,
      "▁target:": 2680,
      "arget\\_errors\r\n": 2681,
      "template_errors": 2682,
      "\\_and\\_Sfn\\_no-target\\_errors\r\n": 2683,
      "_and_Sfn_template_errors": 2684,
      "_ब": 2685,
      "athe": 2686,
      "cre": 2687,
      "ure": 2688,
      "▁[J": 2689,
      "▁\"J": 2690,
      "▁किया": 2691,
      "ed.": 2692,
      "rab": 2693,
      "त्रि": 2694,
      "▁लि": 2695,
      "हाय": 2696,
      ".php": 2697,
      "▁प्राचीन": 2698,
      "Stein1998": 2699,
      "Singh2009": 2700,
      "_re": 2701,
      "ृष्ट": 2702,
      "tember": 2703,
      "cience": 2704,
      "ide": 2705,
      "▁वे": 2706,
      "▁countries": 2707,
      "▁त्या": 2708,
      "▁government": 2709,
      "eptember": 2710,
      "▁language\")": 2711,
      "news/": 2712,
      ".html": 2713,
      "121": 2714,
      "त्या": 2715,
      "द्या": 2716,
      "र्ना": 2717,
      "idd": 2718,
      "▁CITEREF": 2719,
      "▁Re": 2720,
      "imes": 2721,
      "ुरू": 2722,
      "▁have": 2723,
      "र्नाटक": 2724,
      "%28": 2725,
      "Dyson": 2726,
      "ocial": 2727,
      "viron": 2728,
      "▁year": 2729,
      "](https://en.wikipedia.org/wiki/J": 2730,
      "▁into": 2731,
      "▁ag": 2732,
      "पुरी": 2733,
      "_Press": 2734,
      "also": 2735,
      "engal": 2736,
      "uropean": 2737,
      "ombined": 2738,
      "vironment": 2739,
      "07": 2740,
      "_ప": 2741,
      "హా": 2742,
      "ి.\r\n": 2743,
      "▁ओ": 2744,
      "▁ను": 2745,
      "▁జాతీయ": 2746,
      "cient": 2747,
      "▁हवा": 2748,
      "▁असे": 2749,
      "▁con": 2750,
      "note-1": 2751,
      "ासून": 2752,
      "ले.": 2753,
      "▁काही": 2754,
      "ritan": 2755,
      "▁संस्कृती": 2756,
      "్యవస్థ": 2757,
      "\"](https://": 2758,
      "नि": 2759,
      "क्षा": 2760,
      "न्द": 2761,
      "संख्या": 2762,
      "-26": 2763,
      "2-0)": 2764,
      "oor": 2765,
      "rin": 2766,
      "दार": 2767,
      "▁us": 2768,
      "ram": 2769,
      "anges": 2770,
      "▁Pradesh": 2771,
      "▁during": 2772,
      "▁खाना": 2773,
      "गुजरात": 2774,
      "330px-": 2775,
      "_f": 2776,
      "pt": 2777,
      "दल": 2778,
      "लय": 2779,
      "▁24": 2780,
      "▁(201": 2781,
      "▁their": 2782,
      "ref-1": 2783,
      "▁comp": 2784,
      "\\_with": 2785,
      "ember": 2786,
      "9)": 2787,
      "Ar": 2788,
      "data": 2789,
      "ficial": 2790,
      "ote": 2791,
      "1947": 2792,
      "▁प्रकार": 2793,
      "▁नृत्य": 2794,
      "ctober": 2795,
      "▁October": 2796,
      "_3": 2797,
      "mi": 2798,
      "दर्": 2799,
      "बसे": 2800,
      "డా": 2801,
      "దా": 2802,
      "బడ": 2803,
      "మే": 2804,
      "రణ": 2805,
      "▁లో": 2806,
      "▁मंदिर": 2807,
      "▁sfn": 2808,
      "▁Archived": 2809,
      "▁first": 2810,
      "▁10": 2811,
      "ill": 2812,
      "▁కూ": 2813,
      "ాలు,": 2814,
      "▁गया": 2815,
      "able": 2816,
      "harat": 2817,
      "▁రాష్ట్ర": 2818,
      "▁राज्यों": 2819,
      "%20%20": 2820,
      "▁Press\").": 2821,
      "కిస్తాన్": 2822,
      "हिन्दी": 2823,
      "outledge": 2824,
      "▁చరిత్ర\")": 2825,
      "argest": 2826,
      "51": 2827,
      "son": 2828,
      "ग्": 2829,
      "शि": 2830,
      "नाथ": 2831,
      "च्च": 2832,
      "van": 2833,
      "तील": 2834,
      "पे": 2835,
      "मधील": 2836,
      "श्र": 2837,
      "ाचे": 2838,
      "ीस": 2839,
      "▁अर्थ": 2840,
      "ंगीत": 2841,
      "ural": 2842,
      "rop": 2843,
      "त्तरा": 2844,
      "▁सूची\")": 2845,
      ",000": 2846,
      "Combined": 2847,
      "Rothermund": 2848,
      "_4": 2849,
      "jab": 2850,
      "xt": 2851,
      "कल": 2852,
      "▁also": 2853,
      "India)": 2854,
      "▁class": 2855,
      "स्ला": 2856,
      "210": 2857,
      "न्द्र": 2858,
      "ayan": 2859,
      "aint": 2860,
      "▁[मूल": 2861,
      "Dyson2018": 2862,
      "\\_with\\_": 2863,
      "co": 2864,
      "ive": 2865,
      "ेर": 2866,
      "▁भा": 2867,
      "▁Aug": 2868,
      "▁मुख्य": 2869,
      "▁August": 2870,
      "गा": 2871,
      "पाल": 2872,
      "भी": 2873,
      "▁थ": 2874,
      "▁ఈ": 2875,
      "▁భారత": 2876,
      "wing": 2877,
      "▁[I": 2878,
      "▁[t": 2879,
      "time": 2880,
      "life": 2881,
      "త్రి": 2882,
      "ాలు](https://te.wikipedia.org/wiki/": 2883,
      "▁2023": 2884,
      "fficial": 2885,
      "CN": 2886,
      "Kulke": 2887,
      "_%28": 2888,
      "ban": 2889,
      "ule": 2890,
      "ओड": 2891,
      "▁कि": 2892,
      "▁सबसे": 2893,
      "](https://hi.wikipedia.org/wiki/चित्र:": 2894,
      "▁system": 2895,
      "entre": 2896,
      "entral": 2897,
      "hism": 2898,
      "▁पुरालेखित": 2899,
      "ण्ड": 2900,
      "▁पुरालेखित।": 2901,
      "ne": 2902,
      "▁ला": 2903,
      "▁पद": 2904,
      "▁September": 2905,
      "str": 2906,
      "▁world": 2907,
      "मुख्य": 2908,
      "▁(PDF)": 2909,
      "▁region": 2910,
      "liament": 2911,
      "88": 2912,
      "oy": 2913,
      "uis": 2914,
      "विक": 2915,
      "thno": 2916,
      "estern": 2917,
      "▁बन": 2918,
      "ose": 2919,
      "च्छ": 2920,
      "व्यवस्था": 2921,
      "5%": 2922,
      "cog": 2923,
      "rans": 2924,
      "जय": 2925,
      "पती": 2926,
      "ऱ्या": 2927,
      "▁कार": 2928,
      "ics": 2929,
      "्याया": 2930,
      "2000": 2931,
      "etwe": 2932,
      "chno": 2933,
      "ली.": 2934,
      "](https://mr.wikipedia.org/wiki/भारतीय_": 2935,
      "ी_भाषा": 2936,
      "▁राज्ये": 2937,
      "ishing": 2938,
      "बाद": 2939,
      "hina": 2940,
      "क्ति": 2941,
      "ographic": 2942,
      "ritannic": 2943,
      "etween": 2944,
      "-19": 2945,
      "CO": 2946,
      "_H": 2947,
      "_క": 2948,
      "_20": 2949,
      "countries": 2950,
      "ls": 2951,
      "తు": 2952,
      "పతి": 2953,
      "▁wi": 2954,
      "▁ని": 2955,
      "▁స్థ": 2956,
      "▁लेख": 2957,
      "ori": 2958,
      "▁[అ": 2959,
      "▁[ప": 2960,
      "▁\"सं": 2961,
      "▁\"భారతదేశం": 2962,
      "one": 2963,
      "్రి": 2964,
      "▁Act": 2965,
      "▁दिल्ली": 2966,
      "ర్వ": 2967,
      "న్ని": 2968,
      "మిళ": 2969,
      "వంశ": 2970,
      "/0": 2971,
      "/A": 2972,
      "_K": 2973,
      "_पर": 2974,
      "सि": 2975,
      "सभा": 2976,
      "▁22": 2977,
      "▁तर": 2978,
      "ांक": 2979,
      "ार्थ": 2980,
      ".jpg/330px-": 2981,
      "auth": 2982,
      "द्योग": 2983,
      "▁युद्ध": 2984,
      "iddle": 2985,
      "iver": 2986,
      "wn": 2987,
      "।[[": 2988,
      "▁it": 2989,
      "racy": 2990,
      "िकी": 2991,
      "ade": 2992,
      "ियाँ": 2993,
      "लादेश": 2994,
      "unjab": 2995,
      "india/": 2996,
      "▁June": 2997,
      "University_Press": 2998,
      "ffair": 2999,
      "gency": 3000,
      "usiness": 3001,
      "▁Commission": 3002,
      "KulkeRothermund": 3003,
      "ok": 3004,
      "tal": 3005,
      "सम": 3006,
      "▁[H": 3007,
      "adu": 3008,
      "▁maint:": 3009,
      "▁form": 3010,
      "▁नाम": 3011,
      "-re": 3012,
      "1-0)": 3013,
      "2_": 3014,
      "ual": 3015,
      "▁\"H": 3016,
      "▁16": 3017,
      "संख्य": 3018,
      "▁उत्तर": 3019,
      "▁been": 3020,
      "ंत्री": 3021,
      "मेर": 3022,
      "ैदिक": 3023,
      "ृष्ठ": 3024,
      "▁विश्व": 3025,
      "\".": 3026,
      "_W": 3027,
      "_మ": 3028,
      "_భాష": 3029,
      "hol": 3030,
      "pl": 3031,
      "गोल": 3032,
      "डे": 3033,
      "ॉल": 3034,
      "ौर": 3035,
      "ఫ్": 3036,
      "–1": 3037,
      "▁స్": 3038,
      "▁21": 3039,
      "▁[బ": 3040,
      "▁[స": 3041,
      "▁\"అ": 3042,
      "▁सु": 3043,
      "omen": 3044,
      "raven": 3045,
      "▁part": 3046,
      "amb": 3047,
      "ेश्व": 3048,
      "ument": 3049,
      "▁जु": 3050,
      "](https://hi.wikipedia.org/wiki/भारत#CITEREF": 3051,
      "న్నాయ": 3052,
      "▁2018": 3053,
      "ों_की_सूची": 3054,
      "▁కాల": 3055,
      "ాలు\")": 3056,
      "▁इंडिया": 3057,
      "▁साथ": 3058,
      "▁Ind": 3059,
      "ులు](https://te.wikipedia.org/wiki/": 3060,
      "▁है।\r\n": 3061,
      ".jpg)](https://te.wikipedia.org/wiki/దస్త్రం:": 3062,
      "▁రై": 3063,
      "िशा": 3064,
      "udden": 3065,
      "पूर्वी": 3066,
      "▁(PDF).": 3067,
      "హిందూ": 3068,
      "▁subcontinent": 3069,
      "ेश्वर": 3070,
      "%29": 3071,
      "4-0)": 3072,
      "ूळ": 3073,
      "▁\"O": 3074,
      "er,": 3075,
      "](https://mr.wikipedia.org/wiki/ग": 3076,
      "▁मिळ": 3077,
      "▁म्ह": 3078,
      "▁India\"),": 3079,
      "ांच्या": 3080,
      "resid": 3081,
      "▁झाले": 3082,
      "▁म्हण": 3083,
      "-f": 3084,
      "31": 3085,
      "▁India:": 3086,
      "▁Se": 3087,
      "माज": 3088,
      "स्कृत": 3089,
      "_University_Press": 3090,
      "oast": 3091,
      "ya": 3092,
      "▁था": 3093,
      "▁\"श्रेणी:Harv": 3094,
      "tec": 3095,
      "eser": 3096,
      "](https://hi.wikipedia.org/wiki/श्रेणी:Harv": 3097,
      "▁जिस": 3098,
      "oll": 3099,
      "▁Metcalf": 3100,
      "▁2006": 3101,
      "▁संघ": 3102,
      "▁./श्रेणी:Harv": 3103,
      "emple": 3104,
      "▁([help](https://hi.wikipedia.org/wiki/श्रेणी:Harv": 3105,
      "_and_Sfn_template_errors?action=edit&redlink=1": 3106,
      "chnology": 3107,
      "▁./श्रेणी:Harv\\_and\\_Sfn\\_no-target\\_errors\r\n": 3108,
      "▁([help](https://hi.wikipedia.org/wiki/श्रेणी:Harv_and_Sfn_template_errors?action=edit&redlink=1": 3109,
      "/f": 3110,
      "3-0)": 3111,
      "CE": 3112,
      "a/": 3113,
      "clo": 3114,
      "▁most": 3115,
      "▁2024": 3116,
      "▁For": 3117,
      "77": 3118,
      ":[": 3119,
      "_धर्म": 3120,
      "रत": 3121,
      "ఆసియా": 3122,
      "ద్ర": 3123,
      "భూ": 3124,
      "మె": 3125,
      "య్య": 3126,
      "ర్య": 3127,
      "▁ల": 3128,
      ".org/10.": 3129,
      "▁\"I": 3130,
      "▁\"ప": 3131,
      "▁\"బ": 3132,
      "▁\"స": 3133,
      "▁state": 3134,
      "▁Ass": 3135,
      "▁[↑](https://te.wikipedia.org/wiki/భారతదేశం#cite_ref-": 3136,
      "वाद": 3137,
      "త్త": 3138,
      "▁అధిక": 3139,
      "▁ప్రదేశ్": 3140,
      "ortal": 3141,
      "ప్రదేశ్": 3142,
      "%2F": 3143,
      "120px-": 3144,
      "doi.org/10.": 3145,
      "▁నుండి": 3146,
      "58": 3147,
      "fric": 3148,
      "lad": 3149,
      "pr": 3150,
      "ंका": 3151,
      "लाल": 3152,
      "▁6": 3153,
      "](https://hi.wikipedia.org/wiki/उ": 3154,
      "edic": 3155,
      "andhi": 3156,
      "▁आक": 3157,
      "rim": 3158,
      "ing\\_": 3159,
      "▁Sh": 3160,
      "▁but": 3161,
      "▁between": 3162,
      "▁more": 3163,
      "ीलंका": 3164,
      "harma": 3165,
      "Harle": 3166,
      "logue": 3167,
      "▁Islands": 3168,
      "cogni": 3169,
      "Template:": 3170,
      "han": 3171,
      "pp": 3172,
      "zed": 3173,
      "टन": 3174,
      "मि": 3175,
      "▁'": 3176,
      "▁al": 3177,
      "▁ac": 3178,
      "ped": 3179,
      "ारे": 3180,
      "दीव": 3181,
      "depend": 3182,
      "view": 3183,
      "embly": 3184,
      "ण्यात": 3185,
      "▁\"W": 3186,
      "-06": 3187,
      "ातंत्र": 3188,
      "▁प्रजात": 3189,
      "▁जा": 3190,
      "iles/": 3191,
      "▁2016": 3192,
      "epublic": 3193,
      "म्ब": 3194,
      "ligi": 3195,
      "▁टक्": 3196,
      "िंधू": 3197,
      "▁येथ": 3198,
      "▁शिक्षण": 3199,
      "▁हवामान": 3200,
      "▁प्रजाती": 3201,
      "_I": 3202,
      "ges": 3203,
      "ibrary": 3204,
      "ology": 3205,
      "गढ़": 3206,
      "टा": 3207,
      "फ़": 3208,
      "िहार": 3209,
      "▁Y": 3210,
      "▁[Indian": 3211,
      "ones": 3212,
      "2023": 3213,
      "ise": 3214,
      "190": 3215,
      "▁व्य": 3216,
      "▁music": 3217,
      "istan": 3218,
      "cember": 3219,
      "-80": 3220,
      "umbai": 3221,
      "▁यह": 3222,
      "thern": 3223,
      "_के_राज्य": 3224,
      "-107": 3225,
      "तमिल": 3226,
      "▁century": 3227,
      "▁गणराज्य": 3228,
      "AsherTalbot2008": 3229,
      "ujar": 3230,
      "thnologue": 3231,
      "mu": 3232,
      "pa": 3233,
      "ोह": 3234,
      "ణి": 3235,
      "తమిళ": 3236,
      "మైన": 3237,
      "హార": 3238,
      "ోర్": 3239,
      "▁\"ఇ": 3240,
      "▁\"భారత": 3241,
      "ering": 3242,
      "ash": 3243,
      "](https://te.wikipedia.org/wiki/బ": 3244,
      "▁population": 3245,
      "▁bec": 3246,
      "term": 3247,
      "▁మొ": 3248,
      "▁Jan": 3249,
      "నాగ": 3250,
      "త్తర": 3251,
      "ులు\")": 3252,
      "-2)": 3253,
      "cyclo": 3254,
      "_नदी": 3255,
      "శ్మీ": 3256,
      "మూస:": 3257,
      "2/": 3258,
      "▁ई": 3259,
      "▁Cambridge": 3260,
      "▁Th": 3261,
      "▁India\")\r\n": 3262,
      "▁संविधान": 3263,
      "▁(identifier)\"):[": 3264,
      "ovement": 3265,
      "▁निर्": 3266,
      "ffairs": 3267,
      "-language": 3268,
      "4–": 3269,
      "fic": 3270,
      "rish": 3271,
      "दु": 3272,
      "में": 3273,
      "ेड": 3274,
      "ोर्": 3275,
      "▁28": 3276,
      "▁per": 3277,
      "▁all": 3278,
      "ince": 3279,
      "▁dance": 3280,
      "▁after": 3281,
      "▁गे": 3282,
      "ताज": 3283,
      "-81": 3284,
      "avid": 3285,
      "rick": 3286,
      "ompany": 3287,
      "-0-19-8": 3288,
      "clud": 3289,
      "inister": 3290,
      "श्रीलंका": 3291,
      "way": 3292,
      "ia\")": 3293,
      "ool": 3294,
      "▁बंगाल": 3295,
      "साय": 3296,
      "▁National": 3297,
      "हिमा": 3298,
      "पूर्": 3299,
      "▁होती": 3300,
      "र्थिक": 3301,
      "िवस": 3302,
      "81": 3303,
      "गत": 3304,
      "▁[च": 3305,
      "▁di": 3306,
      ".gov.in/": 3307,
      "▁साहित्य": 3308,
      "NG": 3309,
      "_और": 3310,
      "ck": 3311,
      "ft": 3312,
      "imp": 3313,
      "एं": 3314,
      "ाचा": 3315,
      "శా": 3316,
      "ైనా": 3317,
      "▁over": 3318,
      "ttar": 3319,
      "peration": 3320,
      "▁[ఇ": 3321,
      "▁\"జ": 3322,
      "arh": 3323,
      "asia": 3324,
      "](https://te.wikipedia.org/wiki/ఇ": 3325,
      "](https://te.wikipedia.org/wiki/స": 3326,
      "icy": 3327,
      "▁ind": 3328,
      "amp": 3329,
      "భారత_": 3330,
      "▁Population": 3331,
      "▁तसे": 3332,
      "▁ब्रिटिश": 3333,
      "▁ab": 3334,
      "రాజ": 3335,
      "न्स": 3336,
      "లో](https://te.wikipedia.org/wiki/": 3337,
      "రిజ": 3338,
      "▁East": 3339,
      "క్కు": 3340,
      "ండ్": 3341,
      "▁यां": 3342,
      ".gov/": 3343,
      "▁[978-0-": 3344,
      "ummits": 3345,
      "▁Press.": 3346,
      "known": 3347,
      "▁ऑफ": 3348,
      "స్కృతి": 3349,
      "हाय्य": 3350,
      "▁years": 3351,
      "ritannica": 3352,
      "▁तसेच": 3353,
      "-23": 3354,
      "sch": 3355,
      "▁es": 3356,
      "▁23": 3357,
      "▁other": 3358,
      "iation": 3359,
      "▁\"ह": 3360,
      "▁कु": 3361,
      "▁मा": 3362,
      "▁comm": 3363,
      "ake": 3364,
      "▁number": 3365,
      "apit": 3366,
      "ganisation": 3367,
      "िने": 3368,
      "Infor": 3369,
      "are": 3370,
      "theast": 3371,
      "▁Constitution": 3372,
      "olper": 3373,
      "ंग्ल": 3374,
      "olpert": 3375,
      "%7": 3376,
      "4/": 3377,
      "_11": 3378,
      "lam": 3379,
      "नगर": 3380,
      "▁[3": 3381,
      "▁[[": 3382,
      "▁[![](https://upload.wikimedia.org/wikipedia/commons/thumb/": 3383,
      "▁\"विशेष:पुस्तक": 3384,
      "](https://en.wikipedia.org/wiki/H": 3385,
      "](https://en.wikipedia.org/wiki/W": 3386,
      "▁स्रोत/978": 3387,
      "](https://hi.wikipedia.org/wiki/ISBN_(identifier)": 3388,
      "](https://hi.wikipedia.org/wiki/विशेष:पुस्तक": 3389,
      "rime": 3390,
      "anglad": 3391,
      "▁1.": 3392,
      "लाई": 3393,
      "ird": 3394,
      "चेरी": 3395,
      "प्रधान": 3396,
      "▁national": 3397,
      "▁./श्रेणी:": 3398,
      "▁[ISBN](https://hi.wikipedia.org/wiki/ISBN_(identifier)": 3399,
      "under": 3400,
      "_के_आ": 3401,
      "▁खास": 3402,
      "ikh": 3403,
      "शास्त्र": 3404,
      "विश्व": 3405,
      "_स्रोत/978": 3406,
      "▁2011.\r\n": 3407,
      "साँचा:": 3408,
      "](https://hi.wikipedia.org/wiki/विशेष:पुस्तक_स्रोत/978": 3409,
      "angladesh": 3410,
      "ID": 3411,
      "_ए": 3412,
      "d/": 3413,
      "५०": 3414,
      "ान\")": 3415,
      "▁Ar": 3416,
      "▁Congress": 3417,
      "▁दि": 3418,
      "▁1950": 3419,
      ".png": 3420,
      "_De": 3421,
      "%E0%A4%A": 3422,
      "हासा": 3423,
      "-21": 3424,
      "53": 3425,
      "61": 3426,
      "ned": 3427,
      "ख्": 3428,
      "ం?action=edit&redlink=1": 3429,
      "చే": 3430,
      "బా": 3431,
      "▁[జ": 3432,
      "India_": 3433,
      "▁spe": 3434,
      "▁आज": 3435,
      "▁పా": 3436,
      "▁May": 3437,
      "▁*The": 3438,
      "▁English": 3439,
      "▁వా": 3440,
      "ండు": 3441,
      "▁చూ": 3442,
      "ustral": 3443,
      "త్వ": 3444,
      "ప్రధాన": 3445,
      ".jpg/120px-": 3446,
      "▁తే": 3447,
      "▁2014.\r\n": 3448,
      "_साम्राज्य": 3449,
      "oin": 3450,
      "oon": 3451,
      "ron": 3452,
      "y\")": 3453,
      "ोड़": 3454,
      "▁[Metcalf": 3455,
      "▁[South": 3456,
      "▁\"ल": 3457,
      "arb": 3458,
      "alley": 3459,
      "▁पठ": 3460,
      "rahm": 3461,
      "▁states": 3462,
      "▁Census": 3463,
      "▁tw": 3464,
      "▁जो": 3465,
      "▁[↑](https://hi.wikipedia.org/wiki/भारत#cite_": 3466,
      "ilg": 3467,
      "▁election": 3468,
      "▁है,": 3469,
      "▁2020": 3470,
      "fore": 3471,
      "ंडोन": 3472,
      "तिश": 3473,
      "ode": 3474,
      "▁[*A": 3475,
      "ंध्र": 3476,
      "](Special:BookSources/978-0-": 3477,
      "▁\"Special:BookSources/978-0-": 3478,
      "▁[2](https://en.wikipedia.org/wiki/India#cite_ref-FOOTNOTE": 3479,
      "▁[1](https://en.wikipedia.org/wiki/India#cite_ref-FOOTNOTE": 3480,
      "obb": 3481,
      "%E0%A4%BE": 3482,
      "ovember": 3483,
      "▁बाद": 3484,
      "ूचना": 3485,
      "त्रिपुरा": 3486,
      "ओडिशा": 3487,
      "cognized": 3488,
      "ंडोनेशिया": 3489,
      "2-": 3490,
      "7/": 3491,
      "86": 3492,
      "UCN": 3493,
      "_या": 3494,
      "तां": 3495,
      "मर": 3496,
      "मह": 3497,
      "ल\")": 3498,
      "ळ\")": 3499,
      "ूटी": 3500,
      "४७": 3501,
      "▁३": 3502,
      "▁27": 3503,
      "](https://mr.wikipedia.org/wiki/उ": 3504,
      "▁(20": 3505,
      "राण": 3506,
      "union": 3507,
      "ourt": 3508,
      ".jpg)](https://mr.wikipedia.org/wiki/चित्र:": 3509,
      "▁धर्म\")": 3510,
      "दर्भ": 3511,
      "संख्ये": 3512,
      "▁टक्के": 3513,
      "▁January": 3514,
      "_यादी": 3515,
      "9-0)": 3516,
      "_उ": 3517,
      "lag": 3518,
      "oth": 3519,
      "हरी": 3520,
      "▁up": 3521,
      "kim": 3522,
      "](https://doi.org/10.": 3523,
      "riod": 3524,
      "_of_the": 3525,
      "▁नदी": 3526,
      "▁2009": 3527,
      "हिमालय": 3528,
      "▁रूप": 3529,
      "actbook": 3530,
      "▁territories": 3531,
      "▁tradition": 3532,
      "98": 3533,
      "Vi": 3534,
      "be": 3535,
      "country": 3536,
      "lations": 3537,
      "pur": 3538,
      "wal": 3539,
      "ंद्र": 3540,
      "आई": 3541,
      "गढ": 3542,
      "तन": 3543,
      "तो": 3544,
      "रो": 3545,
      "०१": 3546,
      "\"):": 3547,
      "ini": 3548,
      "recognized": 3549,
      "▁केंद्र": 3550,
      "▁मार्": 3551,
      "▁व्या": 3552,
      "2001": 3553,
      "-14": 3554,
      "ालय": 3555,
      "wealth": 3556,
      "olicy": 3557,
      "पाद": 3558,
      "▁[Stein": 3559,
      "▁Oxford": 3560,
      "ndaman": 3561,
      "वेब": 3562,
      "धार_पर": 3563,
      "olitical": 3564,
      "▁December": 3565,
      "देव": 3566,
      "▁2006](https://en.wikipedia.org/wiki/India#CITEREF": 3567,
      "_के_आधार_पर": 3568,
      "_के_आधार_पर_भारत": 3569,
      "National_": 3570,
      "_సా": 3571,
      "_territ": 3572,
      "how": 3573,
      "ीन": 3574,
      "ంప": 3575,
      "కో": 3576,
      "గణ": 3577,
      "దిన": 3578,
      "నై": 3579,
      "రీ": 3580,
      "▁\"చ": 3581,
      "▁\"बा": 3582,
      "ased": 3583,
      "](https://te.wikipedia.org/wiki/జ": 3584,
      "2012": 3585,
      "ారం": 3586,
      "▁अप": 3587,
      "▁प्रत्य": 3588,
      "come": 3589,
      "ross": 3590,
      "▁క్రీ": 3591,
      "క్‌": 3592,
      "నికి": 3593,
      "ల్ల": 3594,
      "ంగీ": 3595,
      "▁సి": 3596,
      "నాభా": 3597,
      "జాబి": 3598,
      "▁स्थ": 3599,
      "पर्य": 3600,
      "▁Development": 3601,
      "times.com/": 3602,
      "▁శా": 3603,
      "▁భాష\")": 3604,
      "బెంగ": 3605,
      "resident": 3606,
      "జాబితా": 3607,
      "*,": 3608,
      "_19": 3609,
      "bi": 3610,
      "▁k": 3611,
      "▁ro": 3612,
      "▁[O": 3613,
      "▁[e": 3614,
      "▁[v": 3615,
      "encies": 3616,
      "ar,": 3617,
      "ched": 3618,
      "▁13": 3619,
      "स्थ": 3620,
      "1997": 3621,
      "चिन्": 3622,
      ".as": 3623,
      "1–": 3624,
      "5-0)": 3625,
      "Fisher": 3626,
      "NC": 3627,
      "_O": 3628,
      "_द": 3629,
      "bal": 3630,
      "oci": 3631,
      "pib": 3632,
      "ze": 3633,
      "छत्त": 3634,
      "टि": 3635,
      "डो": 3636,
      "वली": 3637,
      "▁res": 3638,
      "onwealth": 3639,
      "eration": 3640,
      "ara": 3641,
      "ale": 3642,
      "ough": 3643,
      "ticles": 3644,
      "emoc": 3645,
      "▁Budd": 3646,
      "▁BCE": 3647,
      "▁had": 3648,
      "ालीन": 3649,
      "णाचल": 3650,
      "▁[2](https://en.wikipedia.org/wiki/India#cite_ref-": 3651,
      "▁[1](https://en.wikipedia.org/wiki/India#cite_ref-": 3652,
      "-to-": 3653,
      "रुणाचल": 3654,
      "ports": 3655,
      "censusindia.gov.in/": 3656,
      "▁2010](https://en.wikipedia.org/wiki/India#CITEREF": 3657,
      "ed.).": 3658,
      "▁पुरालेखित।.": 3659,
      "▁जुलाई": 3660,
      "_के_आधार_पर_भारत_के_राज्य": 3661,
      "Fisher2018": 3662,
      "छत्तीस": 3663,
      "dis": 3664,
      "has": 3665,
      "ru": 3666,
      "ंती": 3667,
      "खन": 3668,
      "ofindia": 3669,
      "▁पर्व": 3670,
      "ourc": 3671,
      "ama": 3672,
      "▁न्याया": 3673,
      "▁2012": 3674,
      "1996": 3675,
      "vision": 3676,
      "-le": 3677,
      ".स.": 3678,
      "500": 3679,
      "जास": 3680,
      "ण्या": 3681,
      "ध्या": 3682,
      "िझ": 3683,
      "▁[doi": 3684,
      "▁सर्": 3685,
      "andard": 3686,
      "▁India.": 3687,
      "▁केले": 3688,
      "▁जय": 3689,
      "िया\")": 3690,
      "▁March": 3691,
      "विष": 3692,
      "▁आहे.\r\n": 3693,
      "▁आहे.[[": 3694,
      "▁इतर": 3695,
      "-40": 3696,
      "त्ताक": 3697,
      "्यांची": 3698,
      "▁नाव": 3699,
      "oi_(identifier)": 3700,
      "▁झाला": 3701,
      "▁\"Doi": 3702,
      "▁मोठ": 3703,
      "्यानमार": 3704,
      "ातंत्र्य": 3705,
      "ligious": 3706,
      "▁(identifier)\"):[10.": 3707,
      "जासत्ताक": 3708,
      "1]](https://en.wikipedia.org/wiki/India#cite_note-FOOTNOTE": 3709,
      "5–": 3710,
      "Uttar": 3711,
      "va": 3712,
      "खा": 3713,
      "धु": 3714,
      "చల్": 3715,
      "యన్": 3716,
      "షు": 3717,
      "ూర్": 3718,
      "▁en": 3719,
      "orthern": 3720,
      "▁[s": 3721,
      "▁[ल": 3722,
      "▁[చ": 3723,
      "▁[భారత": 3724,
      "▁[భారతీయ": 3725,
      "enn": 3726,
      "ann": 3727,
      "](https://hi.wikipedia.org/wiki/प": 3728,
      "▁official": 3729,
      "ानुसार": 3730,
      "](https://te.wikipedia.org/wiki/ప": 3731,
      "](https://te.wikipedia.org/wiki/భారతీయ": 3732,
      "ార్ట": 3733,
      "▁Schwartzberg": 3734,
      "ాలయ": 3735,
      "adi": 3736,
      "▁me": 3737,
      "change": 3738,
      "▁Talbot": 3739,
      "क्षद्वीप": 3740,
      "క్క": 3741,
      "▁వ్యవస్థ": 3742,
      "▁ము": 3743,
      "ండో": 3744,
      "ముంబ": 3745,
      "సిన": 3746,
      "सेना": 3747,
      "ినల్": 3748,
      "▁देशों": 3749,
      "ద్ద": 3750,
      "▁It": 3751,
      "▁ఉన్న": 3752,
      "▁ఉన్నాయ": 3753,
      "_summit": 3754,
      "▁Hindi": 3755,
      "▁हिन्": 3756,
      "పాకిస్తాన్": 3757,
      "▁[↑](https://hi.wikipedia.org/wiki/भारत#cite_ref-FOOTNOTE": 3758,
      "olitics": 3759,
      "ంధీ": 3760,
      "ervation": 3761,
      "▁ఒక": 3762,
      "▁ఒరిజ": 3763,
      "ughal": 3764,
      "వంశం": 3765,
      "▁became": 3766,
      "▁తేదీ": 3767,
      "▁two": 3768,
      "ార్టీ": 3769,
      "▁ఒరిజినల్": 3770,
      ".india": 3771,
      "32": 3772,
      "back": 3773,
      "▁ले": 3774,
      "pect": 3775,
      "eds.": 3776,
      "ict": 3777,
      "▁द्वीप": 3778,
      "▁नदी\")": 3779,
      "index": 3780,
      "abad": 3781,
      "rofile": 3782,
      "-28": 3783,
      "En": 3784,
      "▁४": 3785,
      "ारिक": 3786,
      "ised": 3787,
      "▁मूल": 3788,
      "िकोब": 3789,
      "▁period": 3790,
      "िकोबार": 3791,
      ",[[": 3792,
      "4-7": 3793,
      "55": 3794,
      "73": 3795,
      "ehr": 3796,
      "if": 3797,
      "झार": 3798,
      "द्व": 3799,
      "▁we": 3800,
      "▁end": 3801,
      "▁[ह": 3802,
      "▁\"पंजाब": 3803,
      "Ins": 3804,
      "](https://en.wikipedia.org/wiki/The": 3805,
      "read": 3806,
      "omin": 3807,
      "र्दू": 3808,
      "1950": 3809,
      "▁includ": 3810,
      "▁summit\")": 3811,
      "▁caste": 3812,
      "ussia": 3813,
      "atus": 3814,
      "▁Plate": 3815,
      "▁तट": 3816,
      "olk": 3817,
      "▁Reg": 3818,
      "▁2025": 3819,
      "▁2022": 3820,
      "ains": 3821,
      "▁general": 3822,
      "▁एवं": 3823,
      "▁पर्य": 3824,
      "Indus": 3825,
      "▁\"Economy": 3826,
      "▁[Dikshit": 3827,
      "](https://en.wikipedia.org/wiki/Economy": 3828,
      "ivil": 3829,
      "_का_": 3830,
      "▁विकास": 3831,
      "countries_by": 3832,
      "िनेमा": 3833,
      "हासागर": 3834,
      "censusindia.gov.in/2011": 3835,
      "84": 3836,
      "BC": 3837,
      "IM": 3838,
      "cri": 3839,
      "cord": 3840,
      "hang": 3841,
      "ोष": 3842,
      "▁Union": 3843,
      "ांधी": 3844,
      "प्रदेश": 3845,
      "eport": 3846,
      "▁\"मध्य": 3847,
      "Wikipedia": 3848,
      "▁अर्थव्यवस्था": 3849,
      "work": 3850,
      "జ్": 3851,
      "వరి": 3852,
      "శ్చ": 3853,
      "ిన్న": 3854,
      "ెల": 3855,
      "▁[बा": 3856,
      "▁\"భారతదేశ": 3857,
      "▁\"सा": 3858,
      "teen": 3859,
      "off": 3860,
      "city": 3861,
      "్రె": 3862,
      "▁St": 3863,
      "ాలు\r\n": 3864,
      "cond": 3865,
      "నిస్తాన్": 3866,
      "▁మధ్య": 3867,
      "▁[\"India": 3868,
      "▁War": 3869,
      "](https://te.wikipedia.org/wiki/భారతదేశంలో": 3870,
      "స్థాన్": 3871,
      "▁अन्य": 3872,
      "▁పేజీ": 3873,
      "మ్మూ": 3874,
      "▁\"భారతదేశంలో": 3875,
      "▁చూసిన": 3876,
      "▁తేదీ:": 3877,
      "శ్చి": 3878,
      "▁పేజీని": 3879,
      "-B": 3880,
      ".n": 3881,
      "79": 3882,
      "rganisation": 3883,
      "vol": 3884,
      "न](https://hi.wikipedia.org/wiki/": 3885,
      "पात": 3886,
      "पासून": 3887,
      "वै": 3888,
      "▁j": 3889,
      "▁history": 3890,
      "▁time": 3891,
      "▁[India": 3892,
      "\");": 3893,
      "](https://en.wikipedia.org/wiki/O": 3894,
      "eral_": 3895,
      "▁किल्": 3896,
      "](https://mr.wikipedia.org/wiki/न": 3897,
      "▁मध्य": 3898,
      "▁मध्ये": 3899,
      "ooperation": 3900,
      "atar": 3901,
      "loy": 3902,
      "ंगलादेश": 3903,
      "्षिक": 3904,
      "illion": 3905,
      "ासा": 3906,
      "ांचा": 3907,
      "▁Times": 3908,
      "▁BRICS": 3909,
      "_(India)": 3910,
      "24)": 3911,
      "साठी": 3912,
      "](https://mr.wikipedia.org/wiki/भारत#": 3913,
      "संदर्भ": 3914,
      "नेपा": 3915,
      "▁यादी": 3916,
      "▁होते.": 3917,
      "ड़ी": 3918,
      "्यांच्या": 3919,
      "▁झाली": 3920,
      "](https://en.wikipedia.org/wiki/Doi_(identifier)": 3921,
      "▁अनुसार": 3922,
      "South_Asian_": 3923,
      "ंग्रजी": 3924,
      "िक्की": 3925,
      "▁होता.": 3926,
      ".php?": 3927,
      "ujarat": 3928,
      "हिमाचल": 3929,
      "संख्येनुसार": 3930,
      "▁[doi](https://en.wikipedia.org/wiki/Doi_(identifier)": 3931,
      "6-0)": 3932,
      "71": 3933,
      "_प": 3934,
      "ect": 3935,
      "ebr": 3936,
      "nam": 3937,
      "फ्र": 3938,
      "रक्ष": 3939,
      "ल्य": 3940,
      "ोच्च": 3941,
      "tel": 3942,
      "▁क्र": 3943,
      "▁सी": 3944,
      "▁समुद्र": 3945,
      "▁पक्ष": 3946,
      "▁incre": 3947,
      "▁प्रमाण": 3948,
      "▁Pe": 3949,
      "ild": 3950,
      "▁[\"C": 3951,
      "▁[Archived](https://web.archive.org/web/201": 3952,
      "mbol": 3953,
      ".indiatimes.com/": 3954,
      "ebruary": 3955,
      "89": 3956,
      "8-0)": 3957,
      ":CS1": 3958,
      "Pages": 3959,
      "lang": 3960,
      "reat": 3961,
      "tionary": 3962,
      "-00": 3963,
      "▁प्रमुख": 3964,
      "▁2017": 3965,
      "वाधिक": 3966,
      "▁2008": 3967,
      "▁group": 3968,
      "वंश": 3969,
      "olden": 3970,
      "▁साम्राज्य\")": 3971,
      "2).": 3972,
      "C).": 3973,
      "Craven": 3974,
      "TR": 3975,
      "press": 3976,
      "rg": 3977,
      "slam": 3978,
      "ton": 3979,
      "yan": 3980,
      "yayan": 3981,
      "एँ": 3982,
      "क्र": 3983,
      "ैक": 3984,
      "▁hi": 3985,
      "▁ref": 3986,
      "▁rate": 3987,
      "▁\"च": 3988,
      "ins": 3989,
      "than": 3990,
      "](https://en.wikipedia.org/wiki/I": 3991,
      "arn": 3992,
      "ouse": 3993,
      "राठी": 3994,
      "र्जा": 3995,
      "2016": 3996,
      "▁sup": 3997,
      "्तर": 3998,
      "▁Sanskrit": 3999,
      "etail": 4000,
      "▁modern": 4001,
      "ung": 4002,
      "cean": 4003,
      "▁war": 4004,
      "▁dec": 4005,
      "23)": 4006,
      "230": 4007,
      "al_P": 4008,
      "▁सेना": 4009,
      "▁one": 4010,
      "म्बर": 4011,
      "imalay": 4012,
      "ड़ा": 4013,
      "ocument": 4014,
      ".jpg)](https://hi.wikipedia.org/wiki/चित्र:": 4015,
      "▁Press](https://en.wikipedia.org/wiki/": 4016,
      "ublishing": 4017,
      "-0-19-9": 4018,
      "ल्प": 4019,
      "ultan": 4020,
      "atsyayan": 4021,
      "_at_the": 4022,
      "Hinduism": 4023,
      "ainting": 4024,
      "tecture": 4025,
      "Harle1994": 4026,
      "ricket": 4027,
      "Craven1997": 4028,
      ".b": 4029,
      "New": 4030,
      "_घ": 4031,
      "जे": 4032,
      "मंत्री": 4033,
      "।\r\n": 4034,
      "షన్": 4035,
      "హ్": 4036,
      "ెలు": 4037,
      "▁30": 4038,
      "▁[पंजाब": 4039,
      "](https://te.wikipedia.org/wiki/అ": 4040,
      "loc": 4041,
      "ित्त": 4042,
      "రియా": 4043,
      "▁उदा": 4044,
      "▁మార్": 4045,
      "▁than": 4046,
      "ప్రపంచ": 4047,
      "leshow": 4048,
      "▁जाते": 4049,
      "वंट": 4050,
      "▁సంస్కృతి": 4051,
      "దీవ": 4052,
      "िंह": 4053,
      "odiversity": 4054,
      "leshow/": 4055,
      "lor": 4056,
      "voy": 4057,
      "कालीन": 4058,
      "टे": 4059,
      "ट्": 4060,
      "▁५": 4061,
      "▁ra": 4062,
      "esearch": 4063,
      "▁British": 4064,
      "▁2004": 4065,
      "▁K.": 4066,
      "मूह": 4067,
      "&s": 4068,
      "2]](https://en.wikipedia.org/wiki/India#cite_note-FOOTNOTE": 4069,
      "94": 4070,
      "JP": 4071,
      "Main": 4072,
      "UN": 4073,
      "_V": 4074,
      "ahar": 4075,
      "c.": 4076,
      "cat": 4077,
      "cul": 4078,
      "e/": 4079,
      "fr": 4080,
      "jan": 4081,
      "minist": 4082,
      "rar": 4083,
      "tro": 4084,
      "vatsyayan": 4085,
      "स\")": 4086,
      "ाट": 4087,
      "▁am": 4088,
      "▁emp": 4089,
      "▁[दक्षिण": 4090,
      "▁[पाकिस्तान": 4091,
      "▁\"दक्षिण": 4092,
      "▁\"पाकिस्तान": 4093,
      "tes": 4094,
      "text": 4095,
      "omas": 4096,
      "▁(eds.": 4097,
      "2017": 4098,
      "▁such": 4099,
      "▁आप": 4100,
      "▁अरब": 4101,
      "▁Ch": 4102,
      "▁Chin": 4103,
      "lobal": 4104,
      "istrar": 4105,
      "ष्ण": 4106,
      "▁निव": 4107,
      "ास्त": 4108,
      "▁later": 4109,
      "1990": 4110,
      "▁there": 4111,
      "▁northern": 4112,
      "▁एशिया": 4113,
      "▁[*The": 4114,
      "%E0%A5%": 4115,
      "_मेला": 4116,
      "हरिया": 4117,
      "_BRICS": 4118,
      "athak": 4119,
      "duction": 4120,
      "▁million": 4121,
      "-lord": 4122,
      "तेलंग": 4123,
      "International": 4124,
      "▁classical": 4125,
      "▁Commissioner": 4126,
      "▁प्रत्येक": 4127,
      "ehru": 4128,
      "झारखंड": 4129,
      "vatsyayan-lord": 4130,
      "-of": 4131,
      "6/": 4132,
      ";\r\n": 4133,
      "EO": 4134,
      "WEO": 4135,
      "cms": 4136,
      "site": 4137,
      "योग": 4138,
      "ळवंट": 4139,
      "वळ": 4140,
      "िपी": 4141,
      "ैकी": 4142,
      "▁$": 4143,
      "▁[द": 4144,
      "ered": 4145,
      "▁सण": 4146,
      "ical_": 4147,
      "▁आहार": 4148,
      "ammu": 4149,
      "▁दिस": 4150,
      "साम": 4151,
      "हिंदी": 4152,
      "▁February": 4153,
      "osed": 4154,
      "▁./वर्ग:": 4155,
      "onstituent": 4156,
      "▁पाहि": 4157,
      "गणना": 4158,
      "ांची_यादी": 4159,
      "_आणि": 4160,
      "▁येथील": 4161,
      "IMF": 4162,
      "िपीडिया": 4163,
      "तिक": 4164,
      "प्": 4165,
      "ोज": 4166,
      "▁0.": 4167,
      "inguis": 4168,
      "नाम": 4169,
      "प्रा": 4170,
      "118": 4171,
      "▁2003": 4172,
      "▁\"महाराष्ट्र": 4173,
      "▁2021.\r\n": 4174,
      "पूर्ण": 4175,
      "langoff": 4176,
      "2–": 4177,
      "3/": 4178,
      "5/": 4179,
      "6).": 4180,
      "_J": 4181,
      "_వ": 4182,
      "ealth": 4183,
      "oa": 4184,
      "ria": 4185,
      "ras": 4186,
      "s.[[": 4187,
      "utt": 4188,
      "war": 4189,
      "पति": 4190,
      "शन": 4191,
      "ैल": 4192,
      "ం\"),": 4193,
      "ంత్రి": 4194,
      "ఆఫ్": 4195,
      "కత": 4196,
      "కై": 4197,
      "క్య": 4198,
      "దాయ": 4199,
      "రే": 4200,
      "లంక": 4201,
      "వీ": 4202,
      "శ్రీ": 4203,
      "షి": 4204,
      "సు": 4205,
      "▁ఏ": 4206,
      "▁[m": 4207,
      "▁[సి": 4208,
      "▁\"व": 4209,
      "errit": 4210,
      "arly": 4211,
      "arna": 4212,
      "itz": 4213,
      "astern": 4214,
      "ould": 4215,
      "](https://te.wikipedia.org/wiki/చ": 4216,
      "▁वन": 4217,
      "▁some": 4218,
      "right": 4219,
      "atak": 4220,
      "▁दो": 4221,
      "▁mathe": 4222,
      "స్సా": 4223,
      "▁Per": 4224,
      "▁పరి": 4225,
      "▁పార్టీ": 4226,
      "న్‌": 4227,
      "olle": 4228,
      "ticle": 4229,
      "▁కు": 4230,
      "agar": 4231,
      "Spear": 4232,
      "▁गु": 4233,
      "▁వచ్చ": 4234,
      "akh": 4235,
      "aksh": 4236,
      "▁[मध्य": 4237,
      "राष्ट्रीय_": 4238,
      "ముద్ర": 4239,
      "▁[*India": 4240,
      "owland": 4241,
      "ankar": 4242,
      "గాంధీ": 4243,
      "erala": 4244,
      "▁जाता": 4245,
      "నేపాల": 4246,
      "rowth": 4247,
      "▁పేరు": 4248,
      "హిందీ": 4249,
      "▁2019.": 4250,
      "▁who": 4251,
      "inistry_of_": 4252,
      "](https://hi.wikipedia.org/wiki/भारत_में_": 4253,
      "limate": 4254,
      "तेलु": 4255,
      "▁చెయ్య": 4256,
      "तंत्रता": 4257,
      "▁కూడా": 4258,
      "▁2018](https://en.wikipedia.org/wiki/India#CITEREF": 4259,
      "ताजमह": 4260,
      "ంగీతం": 4261,
      "ముంబై": 4262,
      "](https://en.wikipedia.org/wiki/Economy_of_": 4263,
      "శ్చిమ": 4264,
      "▁మార్గ": 4265,
      "▁చెయ్యబడ": 4266,
      "7-0)": 4267,
      "_for": 4268,
      "c=": 4269,
      "eb": 4270,
      "men": 4271,
      "गू": 4272,
      "बी": 4273,
      "वान": 4274,
      "शा": 4275,
      "२६": 4276,
      "▁2.": 4277,
      "Indian_": 4278,
      "्यता": 4279,
      "▁पह": 4280,
      "▁पार्": 4281,
      "1967": 4282,
      "▁1,": 4283,
      "▁Nations": 4284,
      "▁संसद": 4285,
      "ritsch": 4286,
      "_Centre": 4287,
      "_भारतीय_": 4288,
      "tent": 4289,
      "▁शासन": 4290,
      "स्लामी": 4291,
      "▁Act,": 4292,
      "ौर्य": 4293,
      "/S": 4294,
      "110": 4295,
      "ele": 4296,
      "ho": 4297,
      "रि": 4298,
      "▁ऊ": 4299,
      "▁29": 4300,
      "▁[United": 4301,
      "▁\"द": 4302,
      "▁सैन": 4303,
      "get": 4304,
      "\\_m": 4305,
      "नाव": 4306,
      "state": 4307,
      "ांध": 4308,
      "▁**राष्ट्रीय": 4309,
      "▁1947": 4310,
      "धानी": 4311,
      "करण": 4312,
      "▁union": 4313,
      "-in-": 4314,
      "▁सर्वाधिक": 4315,
      "3]](https://en.wikipedia.org/wiki/India#cite_note-FOOTNOTE": 4316,
      "72": 4317,
      "99": 4318,
      "Dikshit": 4319,
      "Empire": 4320,
      "European": 4321,
      "II": 4322,
      "Schwartzberg": 4323,
      "_with": 4324,
      "_13": 4325,
      "can": 4326,
      "cent": 4327,
      "ning": 4328,
      "s-": 4329,
      "ures": 4330,
      "घालय": 4331,
      "रवरी": 4332,
      "वेश": 4333,
      "▁under": 4334,
      "▁\"V": 4335,
      "tig": 4336,
      "](https://en.wikipedia.org/wiki/V": 4337,
      "arliament": 4338,
      "alore": 4339,
      "religion": 4340,
      "](https://hi.wikipedia.org/wiki/ग": 4341,
      "र्क": 4342,
      "rac": 4343,
      "rative": 4344,
      "ingdom": 4345,
      "uslim": 4346,
      "ालदीव": 4347,
      "ेंज": 4348,
      "▁द्व": 4349,
      "▁दोन": 4350,
      "angalore": 4351,
      "▁many": 4352,
      "▁Pakistan": 4353,
      "▁14": 4354,
      "](https://hi.wikipedia.org/wiki/भारत_की_": 4355,
      "rol": 4356,
      "onservation": 4357,
      "▁2013": 4358,
      "resent": 4359,
      "वादी": 4360,
      "विज्ञान": 4361,
      "▁long": 4362,
      "▁large": 4363,
      "ast_Asia": 4364,
      "▁art": 4365,
      "▁Language": 4366,
      "utra": 4367,
      "]](https://hi.wikipedia.org/wiki/भारत#cite_note-1": 4368,
      "म्राट": 4369,
      "Indones": 4370,
      "Hindust": 4371,
      "गुप्त": 4372,
      "▁rule": 4373,
      "%2C_": 4374,
      "india.gov.in": 4375,
      "▁people": 4376,
      "MetcalfMetcalf2006),": 4377,
      "▁समय": 4378,
      "▁Environment": 4379,
      "भीम": 4380,
      "▁industry": 4381,
      "▁[↑](https://hi.wikipedia.org/wiki/भारत#cite_ref-1": 4382,
      ".aspx": 4383,
      "▁among": 4384,
      "▁\"पाकिस्तान\")": 4385,
      "▁(eds.).": 4386,
      "erritory": 4387,
      "DikshitSchwartzberg": 4388,
      "DikshitSchwartzberg2023": 4389,
      "54": 4390,
      "545": 4391,
      "Qu": 4392,
      "a.": 4393,
      "aus": 4394,
      "ph": 4395,
      "ving": 4396,
      "ेस": 4397,
      "▁क्रम": 4398,
      "▁आर्थिक": 4399,
      "▁Ac": 4400,
      "▁States": 4401,
      "▁दर": 4402,
      ".com/news/": 4403,
      "▁GDP": 4404,
      "▁देश\")": 4405,
      "▁original](https://www.": 4406,
      "पीठ": 4407,
      "▁2021.": 4408,
      "▁पठार": 4409,
      "3_": 4410,
      "LA": 4411,
      "Wolpert": 4412,
      "a-": 4413,
      "ie": 4414,
      "काल": 4415,
      "గర": 4416,
      "టక": 4417,
      "టా": 4418,
      "దార": 4419,
      "నీ": 4420,
      "రో": 4421,
      "సభ": 4422,
      "ెద్ద": 4423,
      "orest": 4424,
      "▁\"సి": 4425,
      "▁संगीत": 4426,
      "▁पड": 4427,
      "](https://mr.wikipedia.org/wiki/सा": 4428,
      "](https://te.wikipedia.org/wiki/భారత_": 4429,
      "▁वैदिक": 4430,
      "▁since": 4431,
      "▁अग": 4432,
      "▁अज": 4433,
      "\\_us": 4434,
      "ेशन": 4435,
      "▁जी": 4436,
      "▁जून": 4437,
      "त्रूटी": 4438,
      "▁పు": 4439,
      "▁R.": 4440,
      "రాజ్య": 4441,
      "▁కేంద్రపాలిత": 4442,
      "upta": 4443,
      "▁మా": 4444,
      "▁చే": 4445,
      "ము\")": 4446,
      "త్స": 4447,
      "▁రాజ్య": 4448,
      "ंदू": 4449,
      "ंदमान": 4450,
      "वेर": 4451,
      "▁original](https://": 4452,
      "వాతంత్ర": 4453,
      "▁*[The": 4454,
      "▁प्राणी": 4455,
      "▁असले": 4456,
      "▁असून": 4457,
      "वरील": 4458,
      "▁जातो": 4459,
      "▁దేశాల": 4460,
      "లాదేశ్": 4461,
      "ैदान": 4462,
      "స్తు": 4463,
      "▁సామ్రాజ్యం](https://te.wikipedia.org/wiki/": 4464,
      "_आशिया": 4465,
      "ంగ్లాదేశ్": 4466,
      "▁భాషలు": 4467,
      "▁काळात": 4468,
      "ారు.": 4469,
      "_ప్రా": 4470,
      "్రిటి": 4471,
      "▁అధికార": 4472,
      "हाय्य:CS1": 4473,
      "Informatics": 4474,
      ".png)": 4475,
      "चिन्हे": 4476,
      "ూర్పు": 4477,
      "voyage": 4478,
      "inguistic": 4479,
      "కైవు": 4480,
      "\"](https://books.google.com/books?id=": 4481,
      "-25": 4482,
      ".htm": 4483,
      "64": 4484,
      "6]](https://en.wikipedia.org/wiki/India#cite_note-": 4485,
      "Ludden": 4486,
      "Taj": 4487,
      "ced": 4488,
      "ee": 4489,
      "gra": 4490,
      "ner": 4491,
      "ura": 4492,
      "vid": 4493,
      "west": 4494,
      "y,": 4495,
      "एस": 4496,
      "निक": 4497,
      "मृत": 4498,
      "शोक": 4499,
      "ाय": 4500,
      "▁रा": 4501,
      "▁em": 4502,
      "▁out": 4503,
      "win": 4504,
      "pee": 4505,
      "▁\"India": 4506,
      "▁\"Indo-": 4507,
      "](https://en.wikipedia.org/wiki/Indo-": 4508,
      "cis": 4509,
      "tions": 4510,
      "](https://hi.wikipedia.org/wiki/इ": 4511,
      "](https://hi.wikipedia.org/wiki/सं": 4512,
      "▁पृष्ठ": 4513,
      "asing": 4514,
      "▁महा": 4515,
      "र्ष": 4516,
      "▁Arab": 4517,
      "▁Afric": 4518,
      "urch": 4519,
      "roj": 4520,
      "00)": 4521,
      "▁Modern": 4522,
      "्वे": 4523,
      "▁Bank": 4524,
      ".[[3": 4525,
      "▁economic": 4526,
      "▁Economic": 4527,
      "_in_South_Asia": 4528,
      "form": 4529,
      "_Summit": 4530,
      "▁[महाराष्ट्र": 4531,
      "imf": 4532,
      "णिपुरी": 4533,
      "श्च": 4534,
      "_Temple": 4535,
      "key": 4536,
      "▁चु": 4537,
      "ineering": 4538,
      "arket": 4539,
      ".svg/": 4540,
      "▁हुई": 4541,
      "ynast": 4542,
      "नागाल": 4543,
      ".html)": 4544,
      "Articles": 4545,
      "हरियाणा": 4546,
      "ast_Asia_Summit": 4547,
      ".ए": 4548,
      "RL": 4549,
      "_t": 4550,
      "du": 4551,
      "iodiversity": 4552,
      "languages": 4553,
      "ymbol": 4554,
      "ाम": 4555,
      "ोप": 4556,
      "reed": 4557,
      "▁काल": 4558,
      "▁वै": 4559,
      "▁All": 4560,
      "▁CE": 4561,
      "▁11": 4562,
      "ments": 4563,
      "26)": 4564,
      "▁शहर": 4565,
      "0%E0%A": 4566,
      "own": 4567,
      "...": 4568,
      "hrist": 4569,
      "/articleshow/": 4570,
      "parame": 4571,
      "_Development": 4572,
      "7,": 4573,
      "_राज": 4574,
      "भि": 4575,
      "ed/": 4576,
      "entr": 4577,
      "umar": 4578,
      "▁12": 4579,
      "ilk": 4580,
      "ष्ठ": 4581,
      "▁Min": 4582,
      "▁2015": 4583,
      "▁land": 4584,
      "▁विष": 4585,
      "articles": 4586,
      "क्षेत्रफ": 4587,
      "\"](https://web.archive.org/web/20160": 4588,
      "▁Assembly": 4589,
      "teenth": 4590,
      "-78": 4591,
      ".IN": 4592,
      "/auth": 4593,
      "0)": 4594,
      "129": 4595,
      "6–": 4596,
      "Pro": 4597,
      "aha": 4598,
      "fgh": 4599,
      "gram": 4600,
      "hal": 4601,
      "ix": 4602,
      "iri": 4603,
      "k:": 4604,
      "nal": 4605,
      "ua": 4606,
      "zation": 4607,
      "खाना": 4608,
      "तान": 4609,
      "दरा": 4610,
      "लया": 4611,
      "▁he": 4612,
      "▁her": 4613,
      "▁imp": 4614,
      "dian": 4615,
      "▁\"हिन्": 4616,
      "▁\"United": 4617,
      "▁\"Oxford": 4618,
      "ines": 4619,
      "inance": 4620,
      "tition": 4621,
      "ally": 4622,
      "hib": 4623,
      "mrits": 4624,
      "▁(इ": 4625,
      "itary": 4626,
      "icon": 4627,
      "▁sp": 4628,
      "▁social": 4629,
      "▁power": 4630,
      "-111": 4631,
      "etary": 4632,
      "▁दी": 4633,
      "▁दिया": 4634,
      "▁maj": 4635,
      "urton": 4636,
      "ility": 4637,
      "▁बढ़": 4638,
      "25)": 4639,
      "Special:EditPage/": 4640,
      "al_in_": 4641,
      "▁General": 4642,
      "ainism": 4643,
      "▁Nadu": 4644,
      "-317": 4645,
      "_Sh": 4646,
      "▁विद्य": 4647,
      "apan": 4648,
      "overe": 4649,
      "▁[Asher": 4650,
      "▁article": 4651,
      "▁Kashmir": 4652,
      "dik": 4653,
      "logo": 4654,
      "ड़े": 4655,
      "ligence": 4656,
      "वेली": 4657,
      "▁1994": 4658,
      "▁अनु": 4659,
      "▁\"उत्तर": 4660,
      "गुजराती": 4661,
      "meric": 4662,
      "pura": 4663,
      "▁हुआ": 4664,
      "▁territory": 4665,
      "rdu": 4666,
      "▁लिए": 4667,
      "मेरिक": 4668,
      "ॉलर": 4669,
      "माजिक": 4670,
      "censusindia.gov.in/2011census": 4671,
      "telligence": 4672,
      "arnatak": 4673,
      "▁उदाहर": 4674,
      "WEO.IN": 4675,
      "IMFWEO.IN": 4676,
      "Spear1990": 4677,
      "fghan": 4678,
      "gramme": 4679,
      "Special:EditPage/Template:": 4680,
      "_9": 4681,
      "यार": 4682,
      "ంజా": 4683,
      "గి": 4684,
      "టీ": 4685,
      "టాన్": 4686,
      "మంత్రి": 4687,
      "లను": 4688,
      "వె": 4689,
      "వరణ": 4690,
      "హదార": 4691,
      "ూచ": 4692,
      "▁హ": 4693,
      "▁భారతదేశ": 4694,
      "▁[V": 4695,
      "▁(*": 4696,
      "్రమ": 4697,
      "▁वृ": 4698,
      "ात्": 4699,
      "భారతదేశ_": 4700,
      "▁కొ": 4701,
      "▁వ్యా": 4702,
      "▁संबंध": 4703,
      "▁మత": 4704,
      "▁మతము": 4705,
      "తావరణ": 4706,
      "నాడు": 4707,
      "ियन": 4708,
      "▁ఉంది.": 4709,
      "▁ఇతర": 4710,
      "ాయి": 4711,
      "ణాసియా": 4712,
      "visions": 4713,
      "టెడ్": 4714,
      "▁ఆర్కైవు": 4715,
      "त्तराखंड": 4716,
      "▁రైలు": 4717,
      "భూటాన్": 4718,
      "union_territ": 4719,
      "_సామ్రాజ్యం": 4720,
      "ources": 4721,
      "ildlife": 4722,
      "వాతంత్ర్య": 4723,
      "Informatics_Centre": 4724,
      "0%E0%A4%": 4725,
      "7_": 4726,
      "m.nic.in/": 4727,
      "ncl": 4728,
      "इंडिया": 4729,
      "धि": 4730,
      "भु": 4731,
      "१८": 4732,
      "aran": 4733,
      "▁(1,": 4734,
      "ictionary": 4735,
      "-15": 4736,
      "▁Science": 4737,
      "▁जल": 4738,
      "21)": 4739,
      "ubcontinent": 4740,
      "ffer": 4741,
      "\\_using\\_": 4742,
      "nclm.nic.in/": 4743,
      "*)": 4744,
      ".fr": 4745,
      "44": 4746,
      "6]](https://en.wikipedia.org/wiki/India#cite_note-FOOTNOTE": 4747,
      "ao": 4748,
      "az": 4749,
      "economic": 4750,
      "election": 4751,
      "i,": 4752,
      "ks": 4753,
      "len": 4754,
      "owe": 4755,
      "olog": 4756,
      "ront": 4757,
      "घल": 4758,
      "जिं": 4759,
      "नत": 4760,
      "रस्व": 4761,
      "ळू": 4762,
      "ळ](https://mr.wikipedia.org/wiki/": 4763,
      "हू": 4764,
      "ेघालय": 4765,
      "ोवा": 4766,
      "▁छ": 4767,
      "▁ci": 4768,
      "▁oc": 4769,
      "▁term": 4770,
      "▁[Oxford": 4771,
      "▁\"History": 4772,
      "](https://en.wikipedia.org/wiki/South": 4773,
      "](https://en.wikipedia.org/wiki/History": 4774,
      "hip": 4775,
      "▁समा": 4776,
      "▁पान": 4777,
      "](https://mr.wikipedia.org/wiki/प": 4778,
      "](https://mr.wikipedia.org/wiki/ल": 4779,
      "▁(2018": 4780,
      "▁they": 4781,
      "▁मस": 4782,
      "1970": 4783,
      "oot": 4784,
      "▁अतिश": 4785,
      "-16": 4786,
      "achin": 4787,
      "▁SAARC": 4788,
      "ety": 4789,
      "etra": 4790,
      "ada": 4791,
      "▁found": 4792,
      "▁both": 4793,
      "▁trans": 4794,
      "chool": 4795,
      "urban": 4796,
      "ulti": 4797,
      "▁नगर": 4798,
      "ांमध्ये": 4799,
      "109": 4800,
      "▁largest": 4801,
      "industry": 4802,
      "▁2026": 4803,
      "verse": 4804,
      "▁...": 4805,
      "osi": 4806,
      "▁./वर्ग:CS1": 4807,
      "▁१२": 4808,
      "ंदर": 4809,
      "स्तान\")": 4810,
      "ffice": 4811,
      "▁देशांची": 4812,
      "ंतप्रधान": 4813,
      "्यांमध्ये": 4814,
      "▁असते.": 4815,
      "-108": 4816,
      "riculture": 4817,
      "▁घे": 4818,
      "▁क्षेत्र\")": 4819,
      "▁\"National": 4820,
      "-0-19-5": 4821,
      "क्स": 4822,
      "904-7": 4823,
      "▁2007](https://mr.wikipedia.org/wiki/भारत#": 4824,
      "श्चिमी": 4825,
      "माणु": 4826,
      "्रीका": 4827,
      "▁\"जगातील": 4828,
      "ography": 4829,
      "shit),": 4830,
      "▁फ़": 4831,
      "ohn": 4832,
      "ंग्ला": 4833,
      "गातील_देश": 4834,
      "-0-521-80": 4835,
      "](https://mr.wikipedia.org/wiki/जगातील_देश": 4836,
      "▁play": 4837,
      "वार्षिक": 4838,
      "▁used": 4839,
      "▁खाना\")": 4840,
      "▁थी": 4841,
      "▁world's": 4842,
      "विकिपीडिया": 4843,
      "▁लेख:": 4844,
      "द्योगिकी": 4845,
      "KulkeRothermund2004": 4846,
      "-0-19-88": 4847,
      "▁2006](https://en.wikipedia.org/wiki/India#CITEREFMetcalfMetcalf2006),": 4848,
      "▁मोठ्या": 4849,
      "▁हिन्दी": 4850,
      "▁किल्ला": 4851,
      "▁दिसम्बर": 4852,
      "वेरूळ": 4853,
      "▁विद्यार्थ": 4854,
      "▁article:": 4855,
      "dikshit),": 4856,
      "fghanistan": 4857,
      "जिंठा": 4858,
      "रस्वती": 4859,
      "▁occ": 4860,
      "▁2007](https://mr.wikipedia.org/wiki/भारत#dikshit),": 4861,
      "-0-521-80904-7": 4862,
      "विकिपीडिया:": 4863,
      "/index": 4864,
      "Con": 4865,
      "_n": 4866,
      "ंक": 4867,
      "मिक": 4868,
      "िख": 4869,
      "▁ठ": 4870,
      "tis": 4871,
      "reme": 4872,
      "▁वार": 4873,
      "▁Al": 4874,
      "urve": 4875,
      "ियां": 4876,
      "▁total": 4877,
      "▁India\").": 4878,
      "▁[\"The": 4879,
      "▁परंत": 4880,
      "▁depend": 4881,
      "-pro": 4882,
      "▁3,": 4883,
      "स्थाप": 4884,
      "/article": 4885,
      ".html).": 4886,
      "▁नृत्य\")": 4887,
      "▁भाष": 4888,
      "cyclopedia": 4889,
      "▁परंतु": 4890,
      "-29": 4891,
      "5).": 4892,
      "=`": 4893,
      "`|": 4894,
      "c/c": 4895,
      "i-": 4896,
      "les/": 4897,
      "uth": 4898,
      "ंची": 4899,
      "शक": 4900,
      "ाप": 4901,
      "ैस": 4902,
      "▁\"य": 4903,
      "▁सो": 4904,
      "▁पार": 4905,
      "▁movement": 4906,
      "▁निकोबार": 4907,
      "003": 4908,
      "tical_": 4909,
      "ight": 4910,
      "वाहर": 4911,
      "▁economy": 4912,
      "▁शै": 4913,
      "▁([link": 4914,
      "%E0%A4%9": 4915,
      "▁area": 4916,
      "ंग्रेस": 4917,
      "_maint:": 4918,
      "aint:\\_": 4919,
      "पेक्ष": 4920,
      "\\_maint:\\_": 4921,
      "वाहरलाल": 4922,
      "300": 4923,
      "76": 4924,
      "Ary": 4925,
      "Bharat": 4926,
      "Robb": 4927,
      "Sharma": 4928,
      "_क्षेत्र": 4929,
      "bank": 4930,
      "detail": 4931,
      "henn": 4932,
      "itt": 4933,
      "ili": 4934,
      "ihar": 4935,
      "lack": 4936,
      "my": 4937,
      "ris": 4938,
      "एशिया": 4939,
      "भरत": 4940,
      "हान": 4941,
      "िज़": 4942,
      "ैंड": 4943,
      "ంశ": 4944,
      "ఆర్": 4945,
      "ఉత్తర": 4946,
      "ఒడి": 4947,
      "కీయ": 4948,
      "గలు": 4949,
      "చు": 4950,
      "జరా": 4951,
      "తూర్పు": 4952,
      "భు": 4953,
      "మన్": 4954,
      "యి": 4955,
      "లస": 4956,
      "ీన": 4957,
      "ేక": 4958,
      "▁డ": 4959,
      "▁జాబితా": 4960,
      "](Category:": 4961,
      "▁[భారతదేశ": 4962,
      "ancy": 4963,
      "](https://hi.wikipedia.org/wiki/न": 4964,
      "▁(India": 4965,
      "19.": 4966,
      "▁India*](https://books.google.com/books?id=": 4967,
      "rature": 4968,
      "inger": 4969,
      "▁Company": 4970,
      "▁Summit\")": 4971,
      "los": 4972,
      "▁member": 4973,
      "▁minister": 4974,
      "chin": 4975,
      "त्री": 4976,
      "▁Pl": 4977,
      "▁పట్ట": 4978,
      "states": 4979,
      "road": 4980,
      "ర్\")": 4981,
      "▁**జాతీయ": 4982,
      "▁Raj": 4983,
      "emale": 4984,
      "▁Bengal": 4985,
      "▁Delhi": 4986,
      "నిక": 4987,
      "▁Gandhi": 4988,
      "-30": 4989,
      "ంగ్రె": 4990,
      "▁సభ": 4991,
      "harm": 4992,
      "▁north": 4993,
      "తాబ్": 4994,
      "epal": 4995,
      "epart": 4996,
      "▁\"Category:": 4997,
      "म्म": 4998,
      "▁कोर": 4999,
      "▁Official": 5000,
      "▁ప్రపంచ": 5001,
      "▁ప్రభు": 5002,
      "▁began": 5003,
      "ock": 5004,
      "हीं": 5005,
      "▁ఆసియా": 5006,
      "दादरा": 5007,
      "మ్రాజ్య": 5008,
      "viol": 5009,
      "uddhism": 5010,
      "ingham": 5011,
      "ibet": 5012,
      "గుజరా": 5013,
      "ultural": 5014,
      "▁సామ్రాజ్యం\")": 5015,
      "qual": 5016,
      "ducation": 5017,
      "rown": 5018,
      "Oxford_University_Press": 5019,
      "Stein2010),": 5020,
      "త్యేక": 5021,
      "రాష్ట్రపతి": 5022,
      "ప్ప": 5023,
      "▁కాశ్మీ": 5024,
      "▁రాజవంశం": 5025,
      "▁Empire\")": 5026,
      "▁చెంద": 5027,
      "▁ఆర్ధిక": 5028,
      "▁స్థాన": 5029,
      "esert": 5030,
      "తమిళనాడు": 5031,
      "-language\\_": 5032,
      "NGDP": 5033,
      "ప్రధానమంత్రి": 5034,
      "ilgrim": 5035,
      "▁मार्च": 5036,
      "वेबैक": 5037,
      "గణతంత్ర": 5038,
      "▁క్రీడ": 5039,
      "▁2010](https://en.wikipedia.org/wiki/India#CITEREFStein2010),": 5040,
      "▁पर्वत": 5041,
      "▁ఉన్నాయి.": 5042,
      "rgani": 5043,
      "yanmar": 5044,
      "▁high": 5045,
      "▁Press](https://en.wikipedia.org/wiki/Oxford_University_Press": 5046,
      "ultanate": 5047,
      "ministrative": 5048,
      "ఆఫ్ఘ": 5049,
      "శ్రీలంక": 5050,
      "షియా": 5051,
      "న్‌ఫ": 5052,
      "నేపాల్": 5053,
      "▁द्वारा": 5054,
      "Spear199024": 5055,
      "▁फ़रवरी": 5056,
      "hennai": 5057,
      "తాబ్ద": 5058,
      "epartment": 5059,
      "127": 5060,
      "2,": 5061,
      "63": 5062,
      "_38": 5063,
      "ple": 5064,
      "t-": 5065,
      "tl": 5066,
      "गी": 5067,
      "वसाय": 5068,
      "सर": 5069,
      "▁[ओ": 5070,
      "▁[व": 5071,
      "▁[लोक": 5072,
      "\")[[": 5073,
      "▁सद": 5074,
      "▁बौद्ध": 5075,
      "विद्या": 5076,
      "india-g": 5077,
      "▁human": 5078,
      "▁[उत्तर": 5079,
      "▁उत्पाद": 5080,
      "▁estim": 5081,
      "ंग्लिश": 5082,
      "ustralia": 5083,
      "_14": 5084,
      "b/": 5085,
      "गरा": 5086,
      "थक": 5087,
      "सभ": 5088,
      "▁,": 5089,
      "▁50": 5090,
      "▁[ड": 5091,
      "▁किन": 5092,
      "▁केंद्रशासित": 5093,
      "▁सह": 5094,
      "ominal": 5095,
      "राठा": 5096,
      "▁S.": 5097,
      "ंगे": 5098,
      "ISO": 5099,
      "▁नद": 5100,
      "▁western": 5101,
      "▁Mon": 5102,
      "▁काम": 5103,
      "िरपेक्ष": 5104,
      "engali": 5105,
      "_नृत्य": 5106,
      "▁निर्म": 5107,
      "-india-": 5108,
      ".svg.png)": 5109,
      "orities": 5110,
      "प्पा": 5111,
      "3TR": 5112,
      "7]](https://en.wikipedia.org/wiki/India#cite_note-FOOTNOTE": 5113,
      "Un": 5114,
      "_-": 5115,
      "_g": 5116,
      "_26": 5117,
      "ball": 5118,
      "ities": 5119,
      "ling": 5120,
      "ंच": 5121,
      "काता": 5122,
      "खण्ड": 5123,
      "बेट": 5124,
      "लम": 5125,
      "▁6.": 5126,
      "▁[p": 5127,
      "▁\"[": 5128,
      "anor": 5129,
      "ances": 5130,
      "thnic": 5131,
      "tice": 5132,
      "eries": 5133,
      "arl": 5134,
      "2024": 5135,
      "aldi": 5136,
      "hief": 5137,
      "cip": 5138,
      "▁सिनेमा": 5139,
      "र्ज": 5140,
      "2015": 5141,
      "▁ins": 5142,
      "rain": 5143,
      "rade": 5144,
      "▁prime": 5145,
      "्ता": 5146,
      "ament": 5147,
      "▁Affairs": 5148,
      "▁C.": 5149,
      "lowing": 5150,
      "▁made": 5151,
      "onsoon": 5152,
      "ांति": 5153,
      "▁2011.": 5154,
      "न्ह": 5155,
      "ोंड": 5156,
      "वाह": 5157,
      "ayback": 5158,
      "ly,": 5159,
      "चेन्न": 5160,
      "द्रा": 5161,
      "ताब्": 5162,
      "▁rep": 5163,
      "▁relations": 5164,
      "akhand": 5165,
      "▁विस्त": 5166,
      "22)": 5167,
      "▁सामाजिक": 5168,
      "aputra": 5169,
      "▁परि": 5170,
      "ournal": 5171,
      "def": 5172,
      "undament": 5173,
      "otals": 5174,
      "](https://hi.wikipedia.org/wiki/भारत#cite_ref-FOOTNOTE": 5175,
      "ोलकाता": 5176,
      "ommonwealth": 5177,
      "order": 5178,
      "▁Valley": 5179,
      "▁हैं,": 5180,
      "endra": 5181,
      "▁२०१": 5182,
      "rough": 5183,
      "](https://en.wikipedia.org/wiki/List_of_countries_by": 5184,
      "histor": 5185,
      "_East_Asia_Summit": 5186,
      "रेल": 5187,
      "▁lead": 5188,
      "▁left": 5189,
      "जाति": 5190,
      "▁इसके": 5191,
      "-largest": 5192,
      "िक्कि": 5193,
      "▁उत्प": 5194,
      "edie": 5195,
      "flu": 5196,
      "पालिका": 5197,
      "▁York": 5198,
      "rishn": 5199,
      "rahmaputra": 5200,
      "emocracy": 5201,
      "भीमबेट": 5202,
      "Aryan": 5203,
      "▁(India)\")": 5204,
      "rganization": 5205,
      "3TRt": 5206,
      "aldives": 5207,
      "चेन्नई": 5208,
      "भीमबेटका": 5209,
      "318": 5210,
      "CIA": 5211,
      "_2004": 5212,
      "s\r\n": 5213,
      "ser": 5214,
      "ंट": 5215,
      "ंचा": 5216,
      "कल्प": 5217,
      "पैकी": 5218,
      "मारत": 5219,
      "यो": 5220,
      "य.ए": 5221,
      "ळख": 5222,
      "वारी": 5223,
      "ूण": 5224,
      "ोस": 5225,
      "▁[c": 5226,
      "▁\"ओ": 5227,
      "▁\"राजस्थान": 5228,
      "20)": 5229,
      "2019": 5230,
      "hild": 5231,
      "▁कम": 5232,
      "cise": 5233,
      "omes": 5234,
      "▁पासून": 5235,
      "](https://mr.wikipedia.org/wiki/सं": 5236,
      "as,": 5237,
      "▁महासागर": 5238,
      "र्चा:": 5239,
      "lect": 5240,
      "्याद्र": 5241,
      "-11": 5242,
      "ams": 5243,
      "▁country": 5244,
      "adhy": 5245,
      "▁केली": 5246,
      "urn": 5247,
      "▁जगातील": 5248,
      "▁बांध": 5249,
      "वाघ": 5250,
      "▁D.": 5251,
      "स्तन": 5252,
      "▁गेट": 5253,
      "](https://mr.wikipedia.org/wiki/भारत#CITEREF": 5254,
      "28)": 5255,
      "▁इमारत": 5256,
      "नेय": 5257,
      "त्त्व": 5258,
      "▁साम्राज": 5259,
      "णिपूर": 5260,
      "▁करून": 5261,
      "rief": 5262,
      "extra": 5263,
      "▁extra": 5264,
      "वरून": 5265,
      "▁हिमालय": 5266,
      "ivis": 5267,
      "onstitutional": 5268,
      "िंधु": 5269,
      "▁उपसा": 5270,
      "▁वर्षां": 5271,
      "▁सर्वांत": 5272,
      "ृष्ट्या": 5273,
      "▁वेग": 5274,
      "▁ओळख": 5275,
      "ग्नेय": 5276,
      "▁लाग": 5277,
      "apita": 5278,
      "तांशी": 5279,
      "National_Informatics_Centre": 5280,
      "▁स्थित": 5281,
      "िक्कीम": 5282,
      "▁निवड": 5283,
      "ांची_यादी_(": 5284,
      "Wolpert2003": 5285,
      "reedom": 5286,
      "▁अतिशय": 5287,
      "](https://mr.wikipedia.org/wiki/जगातील_देशांची_यादी_(": 5288,
      "विकिपीडिया:संदर्भ": 5289,
      "urvey": 5290,
      "▁\"राजस्थान\")": 5291,
      "National_Informatics_Centre2005": 5292,
      "\"[[": 5293,
      "-S": 5294,
      "34)": 5295,
      "75": 5296,
      "Congress": 5297,
      "Library": 5298,
      "_en": 5299,
      "_ప్రదేశ్": 5300,
      "ae": 5301,
      "f/": 5302,
      "ण\")": 5303,
      "दि": 5304,
      "समूह": 5305,
      "ం,": 5306,
      "ఉప": 5307,
      "కొ": 5308,
      "కేంద్రపాలిత": 5309,
      "జె": 5310,
      "ఢ్": 5311,
      "ది.": 5312,
      "నాల": 5313,
      "లే": 5314,
      "ళు": 5315,
      "ౌద్ధ": 5316,
      "▁/": 5317,
      "▁భా": 5318,
      "▁[వి": 5319,
      "▁\"ड": 5320,
      "▁\"दिल्ली": 5321,
      "them": 5322,
      "▁(2006": 5323,
      "▁co": 5324,
      "ata_": 5325,
      "\\_articles": 5326,
      "ాలీ": 5327,
      "▁दु": 5328,
      "ర్చ": 5329,
      "ांस": 5330,
      "▁Di": 5331,
      "▁उद्य": 5332,
      "चा_": 5333,
      "▁रहा": 5334,
      "–సా.శ.18": 5335,
      "▁అత్య": 5336,
      "ार्क": 5337,
      "▁ఆధ": 5338,
      "మాఖ్య": 5339,
      "వాణా": 5340,
      "▁प्राप्त": 5341,
      "ంటి": 5342,
      "▁1998": 5343,
      "▁దేశం": 5344,
      "olitical_": 5345,
      "డ్డ": 5346,
      "▁జనాభా": 5347,
      "దక్షిణాసియా": 5348,
      "▁second": 5349,
      "▁గల": 5350,
      "▁భారతదేశంలో": 5351,
      "ంగ్లీ": 5352,
      "ंपनी": 5353,
      "యునై": 5354,
      "ష్ణ": 5355,
      "_చరిత్ర?action=edit&redlink=1": 5356,
      "urrent": 5357,
      "▁రాష్ట్రాలు,": 5358,
      "%20%20%20%20": 5359,
      "_మతము": 5360,
      "▁आक्रम": 5361,
      "▁మొద": 5362,
      "_उत्": 5363,
      "▁जयंती": 5364,
      "▁सीमा": 5365,
      "▁\"महाराष्ट्र\")": 5366,
      "▁చెయ్యబడింది.": 5367,
      "entral_": 5368,
      "యునైటెడ్": 5369,
      ".world": 5370,
      "/P": 5371,
      "5]](https://en.wikipedia.org/wiki/India#cite_note-FOOTNOTE": 5372,
      "March": 5373,
      "Rowland": 5374,
      "SAARC": 5375,
      "af": 5376,
      "aury": 5377,
      "britannica": 5378,
      "dr": 5379,
      "kar": 5380,
      "mal": 5381,
      "गान": 5382,
      "ल](https://hi.wikipedia.org/wiki/": 5383,
      "ुक": 5384,
      "ुव": 5385,
      "ौद्योगिकी": 5386,
      "▁his": 5387,
      "▁ed.).": 5388,
      "oral": 5389,
      "▁[य": 5390,
      "▁[19": 5391,
      "▁[पुरा": 5392,
      "▁[हिन्दी": 5393,
      "anc": 5394,
      "onom": 5395,
      "aria": 5396,
      "ret": 5397,
      "ess/": 5398,
      "▁सभा": 5399,
      "▁मिल": 5400,
      "leg": 5401,
      "2013": 5402,
      "▁sh": 5403,
      "▁south": 5404,
      "-0-4": 5405,
      "rig": 5406,
      "▁Con": 5407,
      "▁Sec": 5408,
      "▁mar": 5409,
      "▁Publishing": 5410,
      "ांड": 5411,
      "▁बदल": 5412,
      "olon": 5413,
      "▁Tamil": 5414,
      "▁River": 5415,
      "्वज": 5416,
      "emon": 5417,
      "emic": 5418,
      "▁David": 5419,
      "sian": 5420,
      "aylor": 5421,
      "▁Ex": 5422,
      "ounci": 5423,
      "▁Ge": 5424,
      "▁Himalay": 5425,
      "्रेल": 5426,
      "force": 5427,
      "abha": 5428,
      "asting": 5429,
      "ूनि": 5430,
      "](https://en.wikipedia.org/wiki/India#CITEREFB": 5431,
      "राष्ट्रपति": 5432,
      "▁non-": 5433,
      "▁रु": 5434,
      "osp": 5435,
      "2905": 5436,
      "overty": 5437,
      "udi": 5438,
      "](https://web.archive.org/web/200": 5439,
      "imach": 5440,
      "▁Wiki": 5441,
      "o-ope": 5442,
      "िये": 5443,
      "_Delhi": 5444,
      "_Mah": 5445,
      "वीं": 5446,
      "धिकारिक": 5447,
      "युद्ध": 5448,
      "शीन": 5449,
      "स्ट्रेल": 5450,
      "reek": 5451,
      "▁status": 5452,
      "62-2": 5453,
      "knowin": 5454,
      "usiness/": 5455,
      "१९४७": 5456,
      "_Islands": 5457,
      "-107-111": 5458,
      "fication": 5459,
      "ociety": 5460,
      "छत्तीसगढ": 5461,
      "▁न्यायालय": 5462,
      "धुनिक": 5463,
      "Indonesia": 5464,
      "▁अगस्त": 5465,
      "-0-19-882905": 5466,
      "quality": 5467,
      "्ता:": 5468,
      "ताब्दी": 5469,
      "Rowland1970": 5470,
      "britannica.com/": 5471,
      "▁[पुरालेखित": 5472,
      "knowindia": 5473,
      "-107-11162-2": 5474,
      "-0-19-882905-8": 5475,
      "130": 5476,
      "91": 5477,
      "Ass": 5478,
      "go": 5479,
      "ii": 5480,
      "lance": 5481,
      "sci": 5482,
      "पान": 5483,
      "पया": 5484,
      "हरा": 5485,
      "▁९": 5486,
      "▁lo": 5487,
      "▁[पु": 5488,
      "▁\"लोक": 5489,
      "aries": 5490,
      "▁अव": 5491,
      "▁दिवस": 5492,
      "▁Republic": 5493,
      "▁top": 5494,
      "irect": 5495,
      "▁जाती": 5496,
      "hasha": 5497,
      "mritsar": 5498,
      "india-glance": 5499,
      "omestic": 5500,
      "-world": 5501,
      "Ag": 5502,
      "All": 5503,
      "PE": 5504,
      "nf": 5505,
      "nominal": 5506,
      "पृष्ठ": 5507,
      "व्ह": 5508,
      "reater": 5509,
      "▁सर": 5510,
      "▁पश्चिम": 5511,
      "▁मैदान": 5512,
      "-13": 5513,
      "vel": 5514,
      "▁mi": 5515,
      "▁man": 5516,
      "▁जे": 5517,
      "▁Research": 5518,
      "िती": 5519,
      "क्षण": 5520,
      "iger": 5521,
      "▁2005": 5522,
      "▁विभाग": 5523,
      "वर्ष": 5524,
      "ext": 5525,
      "▁घोष": 5526,
      "ेंद्रशासित_प्रदेश": 5527,
      "▁डॉलर": 5528,
      "स्लाम": 5529,
      "struc": 5530,
      "मेरिकन": 5531,
      "▁उदाहरण": 5532,
      "_maint:_": 5533,
      "\"](http://www.": 5534,
      "-and": 5535,
      "-पाकिस्तान": 5536,
      "119": 5537,
      "124": 5538,
      "2]](https://en.wikipedia.org/wiki/India#cite_note-": 5539,
      "4]](https://en.wikipedia.org/wiki/India#cite_note-": 5540,
      "9,": 5541,
      "Re": 5542,
      "Report": 5543,
      "_0": 5544,
      "_ह": 5545,
      "_राज्य": 5546,
      "bb": 5547,
      "cess": 5548,
      "ez": 5549,
      "lurton": 5550,
      "ots": 5551,
      "rial": 5552,
      "s_of_India": 5553,
      "ym": 5554,
      "बे": 5555,
      "ूड": 5556,
      "१५": 5557,
      "१६": 5558,
      "▁—": 5559,
      "▁urban": 5560,
      "ortheast": 5561,
      "▁[Indo-": 5562,
      "on,": 5563,
      "](https://en.wikipedia.org/wiki/United": 5564,
      "](https://en.wikipedia.org/wiki/South_Asian_": 5565,
      "India_G": 5566,
      "erry": 5567,
      "arath": 5568,
      "208": 5569,
      "](https://hi.wikipedia.org/wiki/आ": 5570,
      "educ": 5571,
      "▁them": 5572,
      "▁मत": 5573,
      "icha": 5574,
      "icob": 5575,
      "▁India](https://en.wikipedia.org/wiki/G": 5576,
      "▁influ": 5577,
      "ravi": 5578,
      "▁pre": 5579,
      "▁painting": 5580,
      "▁अप्र": 5581,
      "ाती": 5582,
      "ature": 5583,
      "lief": 5584,
      "▁P.": 5585,
      "ists": 5586,
      "▁नी": 5587,
      "▁बना": 5588,
      "▁M.": 5589,
      "▁app": 5590,
      "nium": 5591,
      "▁Be": 5592,
      ".[[4": 5593,
      "108": 5594,
      "वायु": 5595,
      "विजय": 5596,
      "▁Data": 5597,
      "▁eastern": 5598,
      "-3)": 5599,
      "elang": 5600,
      "▁new": 5601,
      "▁J.": 5602,
      "uduch": 5603,
      "160": 5604,
      "ection": 5605,
      "▁Lank": 5606,
      "▁Kingdom": 5607,
      "-90": 5608,
      "▁भाषाओं": 5609,
      "avi": 5610,
      "avy": 5611,
      "▁[↑](https://en.wikipedia.org/wiki/India#cite_ref-FOOTNOTEMetcalfMetcalf2006": 5612,
      "ummer": 5613,
      "▁करने": 5614,
      "ternal": 5615,
      "▁text": 5616,
      "ikkim": 5617,
      "ंबेड": 5618,
      "ंग्रेजी": 5619,
      "general_": 5620,
      "▁life": 5621,
      "ैदरा": 5622,
      "नाडु": 5623,
      "▁contrib": 5624,
      "▁मेला\")": 5625,
      "▁हुए": 5626,
      "_Indian_general_": 5627,
      "▁देख": 5628,
      "pringer": 5629,
      "%7C": 5630,
      "%7c": 5631,
      "टिबंध": 5632,
      "pectancy": 5633,
      "volution": 5634,
      "▁groups": 5635,
      "▁employ": 5636,
      ".aspx?": 5637,
      "Taj_Mah": 5638,
      "al_in_March": 5639,
      "3TRtDwAAQBAJ&pg=PA": 5640,
      "▁[हिन्दी](https://hi.wikipedia.org/wiki/": 5641,
      "education": 5642,
      "ichael": 5643,
      "uducherry": 5644,
      "ंबेडकर": 5645,
      "_Indian_general_election": 5646,
      "Taj_Mahal_in_March": 5647,
      "Taj_Mahal_in_March_2004": 5648,
      "-n": 5649,
      "-50": 5650,
      ".ni": 5651,
      ":EditPage/": 5652,
      "DD": 5653,
      "_ग": 5654,
      "_న": 5655,
      "तृत": 5656,
      "रण": 5657,
      "ुष्": 5658,
      "ఖండ": 5659,
      "గం": 5660,
      "టిక": 5661,
      "డే": 5662,
      "ద్య": 5663,
      "మార్": 5664,
      "మాలయ": 5665,
      "లలో": 5666,
      "లకు": 5667,
      "ళ్": 5668,
      "వ](https://te.wikipedia.org/wiki/": 5669,
      "ానికి": 5670,
      "ాళు": 5671,
      "ీర్": 5672,
      "▁ऋ": 5673,
      "▁భ": 5674,
      "▁యు": 5675,
      "▁[श": 5676,
      "▁\"వి": 5677,
      "▁कॉ": 5678,
      "▁संग": 5679,
      "▁मे": 5680,
      "▁महाराष्ट्र": 5681,
      "▁आर्": 5682,
      "ing_": 5683,
      "ాలో": 5684,
      "▁billion": 5685,
      "స్వ": 5686,
      "స్లా": 5687,
      "▁भारत\")": 5688,
      "▁పాల": 5689,
      "న్\")": 5690,
      "▁B.": 5691,
      "▁కార": 5692,
      "▁కలి": 5693,
      "ాలు?action=edit&redlink=1": 5694,
      "రిహ": 5695,
      "రికత": 5696,
      "క్నాల": 5697,
      "ంది.\r\n": 5698,
      "నిమా": 5699,
      "▁సంగీతం": 5700,
      "aks": 5701,
      "▁చి": 5702,
      "ులు\"),": 5703,
      "–సా.శ.13": 5704,
      "▁అయ": 5705,
      "▁ప్రధాన": 5706,
      "ప్రదాయ": 5707,
      "ప్రత్యేక": 5708,
      "ద్వీ": 5709,
      "▁ఉప": 5710,
      "▁రె": 5711,
      "केर": 5712,
      "న్నడ": 5713,
      "overnment_of_India": 5714,
      "पीपी": 5715,
      "_and_depend": 5716,
      "ంటు": 5717,
      "%2C_India": 5718,
      "▁नेहर": 5719,
      "▁\"बंगाल": 5720,
      "▁దేశంలో": 5721,
      "▁[National": 5722,
      "కాశ్మీ": 5723,
      "ంధు": 5724,
      "వర్గం:Harv": 5725,
      "timesofindia": 5726,
      "ద్ధం": 5727,
      "ద్ధి": 5728,
      "ాల్దీవ": 5729,
      "▁2019.\r\n": 5730,
      "చ్చే": 5731,
      "దక్షిణ_": 5732,
      "▁కాంగ్రె": 5733,
      "International_": 5734,
      "టెక్నాల": 5735,
      "▁dispu": 5736,
      "▁ప్రాంతాలు": 5737,
      "హిమాలయ": 5738,
      "▁లే": 5739,
      "త్తరా": 5740,
      "నాగరికత": 5741,
      "▁निर्माण": 5742,
      "క్కువ": 5743,
      "క్‌సభ": 5744,
      "▁శాస్త్ర": 5745,
      "cript": 5746,
      "cording": 5747,
      "ెలుగు": 5748,
      "▁వచ్చింది.": 5749,
      "तेलुगू": 5750,
      "_ప్రాంత": 5751,
      "duct": 5752,
      "ర్చ:": 5753,
      ":EditPage/మూస:": 5754,
      "ुष्क": 5755,
      "ాళుక్య": 5756,
      "ప్రత్యేక:EditPage/మూస:": 5757,
      "timesofindia.indiatimes.com/": 5758,
      "టెక్నాలజీ": 5759,
      "-C": 5760,
      "-on-": 5761,
      "226": 5762,
      "3–": 5763,
      "4).": 5764,
      "IUCN": 5765,
      "LO": 5766,
      "que": 5767,
      "tle": 5768,
      "}}": 5769,
      "ंनी": 5770,
      "गस्ट": 5771,
      "णारे": 5772,
      "फगा": 5773,
      "मक": 5774,
      "महा": 5775,
      "रवि": 5776,
      "वृत": 5777,
      "ॅक": 5778,
      "ोळी": 5779,
      "्स": 5780,
      "६-": 5781,
      ".org": 5782,
      "▁[4": 5783,
      "▁[गण": 5784,
      "▁[राजस्थान": 5785,
      "▁\"पु": 5786,
      "▁\"वर्ग:CS1": 5787,
      "▁\"मुंबई": 5788,
      "▁\"तमिळनाडू": 5789,
      "▁सुरु": 5790,
      "](https://mr.wikipedia.org/wiki/ह": 5791,
      "](https://mr.wikipedia.org/wiki/बा": 5792,
      "](https://mr.wikipedia.org/wiki/वर्ग:CS1": 5793,
      "](https://mr.wikipedia.org/wiki/तमिळनाडू": 5794,
      "▁आढ": 5795,
      "▁आले": 5796,
      "▁तरी": 5797,
      "▁तयार": 5798,
      "▁des": 5799,
      "▁Territory": 5800,
      "ले.\r\n": 5801,
      "क्षर": 5802,
      ".[[३": 5803,
      ".[[४": 5804,
      "105": 5805,
      "irth": 5806,
      "प्रजासत्ताक": 5807,
      "▁only": 5808,
      "ंडी": 5809,
      "द्दा": 5810,
      "▁Ocean": 5811,
      "▁होत": 5812,
      "शियातील": 5813,
      "मान्य": 5814,
      "ुरक्षा": 5815,
      "_मंदिर": 5816,
      "▁राज्यात": 5817,
      "▁राजधानी": 5818,
      "▁नावा": 5819,
      "ानेवारी": 5820,
      "▁प्रामुख्य": 5821,
      "48)": 5822,
      "](https://mr.wikipedia.org/wiki/महाराष्ट्र": 5823,
      "▁[2](https://mr.wikipedia.org/wiki/भारत#cite_ref-": 5824,
      "▁[1](https://mr.wikipedia.org/wiki/भारत#cite_ref-": 5825,
      "ublication": 5826,
      "▁मोठा": 5827,
      "लोकसंख्येनुसार": 5828,
      "▁संस्कृत": 5829,
      "स्वातंत्र्य": 5830,
      "_For": 5831,
      "ेतील": 5832,
      "▁आशिया\")": 5833,
      "▁पूर्वी": 5834,
      "▁भागात": 5835,
      "▁बहुतांशी": 5836,
      "▁राष्ट्रपती": 5837,
      "ेकड": 5838,
      "▁स्थानिक": 5839,
      "▁खासदार": 5840,
      "ख्खन": 5841,
      "▁लेणी": 5842,
      "▁झाली.": 5843,
      "▁अजून": 5844,
      "▁जातो.": 5845,
      "क्षेत्रफळ": 5846,
      "fferent": 5847,
      "▁./वर्ग:CS1\\_maint:\\_": 5848,
      "uthority": 5849,
      "▁([link](https://mr.wikipedia.org/wiki/वर्ग:CS1": 5850,
      "्याद्री": 5851,
      "nominal)": 5852,
      "▁\"तमिळनाडू\")": 5853,
      "▁सुरुव": 5854,
      "▁प्रामुख्याने": 5855,
      "▁([link](https://mr.wikipedia.org/wiki/वर्ग:CS1_maint:_": 5856,
      ".uk": 5857,
      "2)\r\n": 5858,
      "2-4": 5859,
      "3),": 5860,
      "3-8": 5861,
      "52": 5862,
      "66": 5863,
      "7).": 5864,
      "IB": 5865,
      "IJ": 5866,
      "QAAQBAJ&pg=PA": 5867,
      "_on": 5868,
      "ax": 5869,
      "glia": 5870,
      "garh": 5871,
      "hra": 5872,
      "iz": 5873,
      "ime": 5874,
      "ka": 5875,
      "lood": 5876,
      "mand": 5877,
      "map": 5878,
      "oard": 5879,
      "rust": 5880,
      "ward": 5881,
      "yle": 5882,
      "ँच": 5883,
      "ऑस्ट्रेल": 5884,
      "गध": 5885,
      "तट": 5886,
      "थवा": 5887,
      "फे": 5888,
      "भोज": 5889,
      "मत": 5890,
      "यी": 5891,
      "रेंद्र": 5892,
      "लेशिया": 5893,
      "वी_": 5894,
      "संगीत": 5895,
      "हम": 5896,
      "ैथि": 5897,
      "ॉग": 5898,
      "▁im": 5899,
      "pecial": 5900,
      "▁\"In": 5901,
      "ency": 5902,
      "arli": 5903,
      "arendra": 5904,
      "esti": 5905,
      "▁मह": 5906,
      "**\r\n": 5907,
      "▁summits": 5908,
      "▁popul": 5909,
      "▁अथवा": 5910,
      "-135": 5911,
      "▁culture": 5912,
      "▁far": 5913,
      "▁केन्द्र": 5914,
      "▁ज्या": 5915,
      "ver,": 5916,
      "ular": 5917,
      "uled": 5918,
      "hell": 5919,
      "uns": 5920,
      "unrecognized": 5921,
      "▁नहीं": 5922,
      "▁बी": 5923,
      "▁women": 5924,
      "fir": 5925,
      "217": 5926,
      "253": 5927,
      "23.": 5928,
      "tures": 5929,
      "28.": 5930,
      "▁Gu": 5931,
      "▁November": 5932,
      "▁Nehru": 5933,
      "▁से](http://": 5934,
      "architecture": 5935,
      "akes": 5936,
      "▁From": 5937,
      "▁forest": 5938,
      "ecu": 5939,
      ".gov.in": 5940,
      "aves": 5941,
      "ource": 5942,
      "arty": 5943,
      "▁है।[[": 5944,
      "▁स्मार": 5945,
      "ternational": 5946,
      "iley": 5947,
      "oreign": 5948,
      "▁technology": 5949,
      "_summits": 5950,
      "anipur": 5951,
      "▁[Government": 5952,
      "_Nadu": 5953,
      "](https://en.wikipedia.org/wiki/National_": 5954,
      "athura": 5955,
      "](https://en.wikipedia.org/wiki/List_of_SAARC": 5956,
      "▁unrecognized": 5957,
      "विशेष:EditPage/": 5958,
      "amil_Nadu": 5959,
      "template": 5960,
      "▁[![A": 5961,
      "▁regions": 5962,
      "ashmiri": 5963,
      "▁Hinduism": 5964,
      "rates": 5965,
      "awahar": 5966,
      "kingdom": 5967,
      "पेक्षा": 5968,
      "▁Indus": 5969,
      "eserve": 5970,
      "/files/": 5971,
      "▁स्रोत/978-1": 5972,
      "](https://hi.wikipedia.org/wiki/विशेष:पुस्तक_स्रोत/978-1": 5973,
      "पर्यटन": 5974,
      "-lead": 5975,
      "Uttarakhand": 5976,
      "JPG": 5977,
      "omason": 5978,
      "_BRICS_summit": 5979,
      "▁Persian": 5980,
      "▁चुनाव": 5981,
      "ymbols": 5982,
      "Provision": 5983,
      "overeign": 5984,
      "ootball": 5985,
      "achine": 5986,
      "etraglia": 5987,
      "रेलू": 5988,
      "edieval": 5989,
      "icobar": 5990,
      "विजयनगर": 5991,
      "भोजपुरी": 5992,
      "ैथिली": 5993,
      "▁summits\")": 5994,
      "](https://en.wikipedia.org/wiki/List_of_SAARC_summits": 5995,
      "विशेष:EditPage/साँचा:": 5996,
      "awaharl": 5997,
      "\"](https://web.archive.org/web/20": 5998,
      "-India": 5999,
      "Mon": 6000,
      "_24": 6001,
      "_languages": 6002,
      "yam": 6003,
      "इट": 6004,
      "मरी": 6005,
      "यल": 6006,
      "स्य": 6007,
      "ुल": 6008,
      "ोड": 6009,
      "▁औ": 6010,
      "erg": 6011,
      "▁(क": 6012,
      "raj": 6013,
      "-07": 6014,
      "▁Centre": 6015,
      "\\_parame": 6016,
      "▁प्रति": 6017,
      "ंगल": 6018,
      ".[[23": 6019,
      "▁गा": 6020,
      "▁शा": 6021,
      "▁शहरी": 6022,
      "▁Government": 6023,
      "▁1960": 6024,
      "407": 6025,
      "ogue": 6026,
      "▁[Ministry": 6027,
      "▁\"British": 6028,
      "▁ext": 6029,
      "hmed": 6030,
      "▁[बौद्ध": 6031,
      "त्यमे": 6032,
      "▁produc": 6033,
      "ditional": 6034,
      "8/8": 6035,
      "\\_parameters": 6036,
      "त्यमेव": 6037,
      ",NGDP": 6038,
      "-with": 6039,
      "/ark": 6040,
      "1-3": 6041,
      "219": 6042,
      "Ethnologue": 6043,
      "Raj": 6044,
      "Se": 6045,
      "St": 6046,
      "Sanskrit": 6047,
      "_17": 6048,
      "aut": 6049,
      "fob": 6050,
      "ox": 6051,
      "ott": 6052,
      "shar": 6053,
      "s18": 6054,
      "tw": 6055,
      "{{": 6056,
      "िला": 6057,
      "▁६": 6058,
      "▁७": 6059,
      ":/121": 6060,
      "▁[U": 6061,
      "▁[गुजरात": 6062,
      "▁\"गुजरात": 6063,
      "tection": 6064,
      "arth": 6065,
      "र्ग": 6066,
      "यास": 6067,
      "▁हवेली": 6068,
      "url": 6069,
      "linkim": 6070,
      "identifiers": 6071,
      "26.": 6072,
      "ages/": 6073,
      "षाण": 6074,
      "माय": 6075,
      "पुत्र": 6076,
      "▁Fund": 6077,
      "▁Incre": 6078,
      "▁१५": 6079,
      "▁१८": 6080,
      "48/c": 6081,
      "ोरम": 6082,
      "▁२००": 6083,
      "ज्ज": 6084,
      "▁\"जम्मू": 6085,
      "▁भूगोल": 6086,
      "▁सर्वोच्च": 6087,
      "ondon": 6088,
      "▁disc": 6089,
      "▁द्वीपसमूह": 6090,
      ".bnf": 6091,
      "▁सैन्य": 6092,
      "ed/linkim": 6093,
      "nclm.nic.in/shar": 6094,
      ".fr/ark": 6095,
      "tlas": 6096,
      ":/12148/c": 6097,
      "▁\"गुजरात\")": 6098,
      ".bnf.fr/ark": 6099,
      "ed/linkimages/": 6100,
      "nclm.nic.in/shared/linkimages/": 6101,
      ":/12148/cb": 6102,
      ".bnf.fr/ark:/12148/cb": 6103,
      "-D": 6104,
      "-विज्ञान": 6105,
      ".\")\r\n": 6106,
      ".](https://upload.wikimedia.org/wikipedia/commons/thumb/": 6107,
      ".పూ.": 6108,
      "3-": 6109,
      "4]](https://en.wikipedia.org/wiki/India#cite_note-FOOTNOTE": 6110,
      "4-108": 6111,
      "9–": 6112,
      "AS": 6113,
      "Gua": 6114,
      "JIJ": 6115,
      "Kashmir": 6116,
      "MC": 6117,
      "MID": 6118,
      "Vu": 6119,
      "Zva": 6120,
      "ZVu": 6121,
      "_43": 6122,
      "code": 6123,
      "casting": 6124,
      "edia": 6125,
      "hl": 6126,
      "hu": 6127,
      "ham": 6128,
      "had": 6129,
      "ij": 6130,
      "ker": 6131,
      "kZVu": 6132,
      "most": 6133,
      "ncient": 6134,
      "p?": 6135,
      "pture": 6136,
      "yy": 6137,
      "ईरा": 6138,
      "चर": 6139,
      "फ्रीका": 6140,
      "र-": 6141,
      "लग": 6142,
      "ल्त": 6143,
      "व्या": 6144,
      "सून": 6145,
      "ोआ": 6146,
      "ంతం": 6147,
      "ఆగ": 6148,
      "కళ": 6149,
      "ఖండ్": 6150,
      "గ్": 6151,
      "గిన": 6152,
      "గఢ్": 6153,
      "జో": 6154,
      "ట్ర": 6155,
      "తెలుగు": 6156,
      "ద్రా": 6157,
      "పద": 6158,
      "భి": 6159,
      "యో": 6160,
      "లక్ష": 6161,
      "వర": 6162,
      "శో": 6163,
      "షా": 6164,
      "హు": 6165,
      "హార్": 6166,
      "హాయ": 6167,
      "ాష్ట్ర": 6168,
      "ీక": 6169,
      "ీహార్": 6170,
      "ుల": 6171,
      "ుల్": 6172,
      "ోల్": 6173,
      "ోత్స": 6174,
      "ౌర్య": 6175,
      "–4": 6176,
      "▁7.": 6177,
      "▁9.": 6178,
      "▁low": 6179,
      "▁Qu": 6180,
      "iam": 6181,
      "orn": 6182,
      "▁[f": 6183,
      "▁[హ": 6184,
      "▁\"హ": 6185,
      "▁\"का": 6186,
      "▁\"ఢిల్లీ": 6187,
      "tered": 6188,
      "en:": 6189,
      "ants": 6190,
      "th_BRICS_summit": 6191,
      "arlo": 6192,
      "araj": 6193,
      "ala": 6194,
      "aland": 6195,
      "alli": 6196,
      "reen": 6197,
      "es,": 6198,
      "▁कई": 6199,
      "▁कश्मीर": 6200,
      "](https://hi.wikipedia.org/wiki/ह": 6201,
      "](https://hi.wikipedia.org/wiki/पंजाब": 6202,
      "▁पुर": 6203,
      "▁(19": 6204,
      "్రూ": 6205,
      "](https://te.wikipedia.org/wiki/సి": 6206,
      "rat": 6207,
      "▁आधिकारिक": 6208,
      "▁caus": 6209,
      "▁China": 6210,
      "▁Civil": 6211,
      "\\_of": 6212,
      "\\_cont": 6213,
      "ాలా": 6214,
      "ాలలో": 6215,
      "adwe": 6216,
      "్యం": 6217,
      "▁प्रधान": 6218,
      "▁tree": 6219,
      "\"),[[": 6220,
      "urity": 6221,
      "▁Punjab": 6222,
      "_of_2011": 6223,
      "ర్ణా": 6224,
      "ర్మే": 6225,
      "▁This": 6226,
      "लेट": 6227,
      "ema": 6228,
      "emographic": 6229,
      "न्दा": 6230,
      "లోక్‌సభ": 6231,
      "agari": 6232,
      "▁शताब्दी": 6233,
      "▁Europe": 6234,
      "▁వంశ": 6235,
      "ained": 6236,
      "▁इन": 6237,
      "115": 6238,
      "▁से](http://www.": 6239,
      "oples": 6240,
      "▁rem": 6241,
      "▁these": 6242,
      "](https://en.wikipedia.org/wiki/India#CITEREFM": 6243,
      "ండర్": 6244,
      "22.": 6245,
      "▁name": 6246,
      "-85": 6247,
      "▁hum": 6248,
      "త్మా": 6249,
      "▁लग": 6250,
      "▁అతి": 6251,
      "_Paper": 6252,
      "ికి": 6253,
      "▁[↑](https://en.wikipedia.org/wiki/India#cite_ref-FOOTNOTEB": 6254,
      "वर्सि": 6255,
      "▁करोड़": 6256,
      "a_N": 6257,
      "ociation": 6258,
      "ockey": 6259,
      "ద్దు": 6260,
      "ligions": 6261,
      "▁राजनी": 6262,
      "▁రహదార": 6263,
      "మాచల్": 6264,
      "▁సామ్రాజ్య": 6265,
      "▁[अंग्रेज़ी": 6266,
      "▁Press](https://en.wikipedia.org/wiki/C": 6267,
      "▁\"अंग्रेज़ी": 6268,
      "_Totals": 6269,
      "రువా": 6270,
      "రుణా": 6271,
      "▁tex": 6272,
      "▁language\"),": 6273,
      "ikhism": 6274,
      "న్నో": 6275,
      "▁development": 6276,
      "opulation_Totals": 6277,
      "▁[Dyson": 6278,
      "మిజో": 6279,
      "▁ఇది": 6280,
      "MetcalfMetcalf2012": 6281,
      "▁\"Re": 6282,
      "674": 6283,
      "ibcode": 6284,
      "](https://en.wikipedia.org/wiki/Re": 6285,
      "▁జరి": 6286,
      "▁१९९": 6287,
      "▁విస్త": 6288,
      "ंतरराष्ट्रीय": 6289,
      "\")*,": 6290,
      "▁जनगणना": 6291,
      "▁sector": 6292,
      "▁శతాబ్ద": 6293,
      "▁हैं।\r\n": 6294,
      "_1_of_2011": 6295,
      "▁languages\")": 6296,
      "ట్టు": 6297,
      "ब्ब": 6298,
      "రాష్ట్రాలు": 6299,
      "▁संस्कृति": 6300,
      "▁when": 6301,
      "వేద": 6302,
      "▁రాజకీయ": 6303,
      "rancis": 6304,
      "ighth": 6305,
      "gypt": 6306,
      "_संघ": 6307,
      "హిమాచల్": 6308,
      "074-108": 6309,
      "హాత్మా": 6310,
      "न्दिर": 6311,
      "vanagari": 6312,
      "uisine": 6313,
      "▁कारण": 6314,
      "▁जिसमें": 6315,
      "▁ప్రదేశ్\")": 6316,
      "▁Islands\")": 6317,
      "dependence": 6318,
      "హారాష్ట్ర": 6319,
      "ोर्ड": 6320,
      "శాస్త్ర": 6321,
      "రాజస్థాన్": 6322,
      "4/4": 6323,
      "▁వాతావరణ": 6324,
      "oint": 6325,
      "దినోత్స": 6326,
      "బెంగాలీ": 6327,
      "disha": 6328,
      "-4020": 6329,
      "యన్మార్": 6330,
      "▁ముఖ్య": 6331,
      "▁Plateau": 6332,
      "olden_Temple": 6333,
      "al_Population_Totals": 6334,
      "arnatic": 6335,
      "akshadwe": 6336,
      "ynasty": 6337,
      "-78074-108": 6338,
      "ంజాబ్": 6339,
      "▁వ్యాస": 6340,
      "](https://en.wikipedia.org/wiki/History_of_": 6341,
      "roadcasting": 6342,
      "గుజరాత్": 6343,
      "ఆఫ్ఘనిస్తాన్": 6344,
      "న్‌ఫర్మే": 6345,
      "ूनिवर्सि": 6346,
      "o-operation": 6347,
      "వ](https://te.wikipedia.org/wiki/List_of_": 6348,
      "రిహద్దు": 6349,
      "చ్చేరి": 6350,
      "▁बीच": 6351,
      "Provisional_Population_Totals": 6352,
      "GuaJIJ": 6353,
      "ZvaGuaJIJ": 6354,
      "ल्तनत": 6355,
      "\\_contain": 6356,
      "ర్ణాటక": 6357,
      "_Paper_1_of_2011": 6358,
      "▁[अंग्रेज़ी](https://hi.wikipedia.org/wiki/अ": 6359,
      "రుణాచల్": 6360,
      "akshadweep": 6361,
      "-78074-108-6": 6362,
      "న్‌ఫర్మేషన్": 6363,
      "Provisional_Population_Totals_Paper_1_of_2011": 6364,
      "ZvaGuaJIJgo": 6365,
      "Provisional_Population_Totals_Paper_1_of_2011_India": 6366,
      "/g": 6367,
      "/india": 6368,
      "9/": 6369,
      "C-0": 6370,
      "NA": 6371,
      "_श": 6372,
      "ate_": 6373,
      "ey": 6374,
      "ues": 6375,
      "इतिहास": 6376,
      "षभ": 6377,
      "िस्तान": 6378,
      "ैव": 6379,
      "२०": 6380,
      "▁z": 6381,
      "▁[World": 6382,
      "thehind": 6383,
      "▁14.": 6384,
      "ांवर": 6385,
      "1017": 6386,
      "स्त्र": 6387,
      "ldlife": 6388,
      "▁religious": 6389,
      "22-9": 6390,
      "▁1965": 6391,
      "_Affairs": 6392,
      "▁[\"A": 6393,
      "▁Linguistic": 6394,
      "dex": 6395,
      "▁[British": 6396,
      "ार्मिक": 6397,
      "▁घाट": 6398,
      "▁def": 6399,
      "_GDP": 6400,
      "▁[बंगाल": 6401,
      "▁\"Government": 6402,
      "▁\"बौद्ध": 6403,
      "मालया": 6404,
      "india.gov.in/india-glance": 6405,
      "▁composed": 6406,
      "▁wide": 6407,
      "▁along": 6408,
      "hristian": 6409,
      "_GDP_(": 6410,
      "\"](http://": 6411,
      "125": 6412,
      "3,": 6413,
      "S.": 6414,
      "_v": 6415,
      "_10": 6416,
      "m2": 6417,
      "णाली": 6418,
      "न्या": 6419,
      "ये": 6420,
      "▁United": 6421,
      ".org/w": 6422,
      "▁[चीन": 6423,
      "▁\"गण": 6424,
      "▁साल": 6425,
      "▁तो": 6426,
      "0000": 6427,
      "Southeast": 6428,
      "1999": 6429,
      "▁Factbook": 6430,
      "▁१०": 6431,
      "▁\"कर्नाटक": 6432,
      "▁\"केर": 6433,
      "▁[कर्नाटक": 6434,
      "emplate_": 6435,
      "orden": 6436,
      "▁नेतृत": 6437,
      "html).": 6438,
      "▁control": 6439,
      "▁2,": 6440,
      "▁\"पश्चिम": 6441,
      "▁संविधान\")": 6442,
      "d/d": 6443,
      "Wikipedia\\_articles": 6444,
      "Pages\\_using\\_": 6445,
      "मायण": 6446,
      "-e": 6447,
      "-r": 6448,
      "-वेरूळ": 6449,
      "/).": 6450,
      "2nd": 6451,
      "320": 6452,
      "350": 6453,
      "338": 6454,
      "85": 6455,
      "AG": 6456,
      "IF": 6457,
      "Pakistan": 6458,
      "_pe": 6459,
      "_2011": 6460,
      "ave": 6461,
      "day": 6462,
      "ek": 6463,
      "epend": 6464,
      "hat": 6465,
      "hut": 6466,
      "jpe": 6467,
      "nc": 6468,
      "ption": 6469,
      "pic": 6470,
      "ंपी": 6471,
      "आणि": 6472,
      "ओ.": 6473,
      "णात": 6474,
      "बट": 6475,
      "मण": 6476,
      "र्य": 6477,
      "ह्याद्री": 6478,
      "ूस": 6479,
      "्हा": 6480,
      "१]](https://mr.wikipedia.org/wiki/भारत#cite_note-": 6481,
      "४]](https://mr.wikipedia.org/wiki/भारत#cite_note-": 6482,
      "–24": 6483,
      "▁old": 6484,
      "iary": 6485,
      "ored": 6486,
      "](Template:": 6487,
      "▁[का": 6488,
      "▁[भू": 6489,
      "▁[दिल्ली": 6490,
      "▁[तमिळनाडू": 6491,
      "an-": 6492,
      "ारचे": 6493,
      "ern_": 6494,
      "aro": 6495,
      "ars": 6496,
      "arsh": 6497,
      "्ये": 6498,
      "ester": 6499,
      "▁कमी": 6500,
      "भारत)": 6501,
      "▁संग्र": 6502,
      "▁सुरू": 6503,
      "▁सूचना": 6504,
      "▁सध्या": 6505,
      "](https://hi.wikipedia.org/wiki/ओ": 6506,
      "ed,": 6507,
      "anda": 6508,
      "▁पंतप्रधान": 6509,
      "](https://mr.wikipedia.org/wiki/च": 6510,
      "](https://mr.wikipedia.org/wiki/द": 6511,
      "](https://mr.wikipedia.org/wiki/पाकिस्तान": 6512,
      "](https://mr.wikipedia.org/wiki/पंजाब": 6513,
      "▁(पूर्वी": 6514,
      "▁off": 6515,
      "asi": 6516,
      "ashi": 6517,
      "राक": 6518,
      "ानंतर": 6519,
      "▁India](https://en.wikipedia.org/wiki/C": 6520,
      "्याच्या": 6521,
      "raz": 6522,
      "▁prom": 6523,
      "entury": 6524,
      "▁आण": 6525,
      "ripura": 6526,
      "▁अशी": 6527,
      "am\")": 6528,
      "▁colle": 6529,
      "uss": 6530,
      "▁Central": 6531,
      "▁Cooperation": 6532,
      "ets": 6533,
      "adras": 6534,
      "▁fam": 6535,
      "▁प्रां": 6536,
      "loth": 6537,
      "▁दशक": 6538,
      "▁जास्त": 6539,
      "comm": 6540,
      "▁भारताने": 6541,
      "▁भारताचे": 6542,
      "▁Park": 6543,
      "](https://hi.wikipedia.org/wiki/भारत_का_": 6544,
      "लां": 6545,
      "स्कार": 6546,
      "▁तिस": 6547,
      "ासी": 6548,
      "ांनी": 6549,
      "]](https://en.wikipedia.org/wiki/India#cite_note-Combined": 6550,
      "▁Man": 6551,
      "▁att": 6552,
      "▁2012.": 6553,
      "▁2014.": 6554,
      "ign_": 6555,
      "igarh": 6556,
      ".[[40": 6557,
      "▁काश्मीर": 6558,
      "▁आहे,": 6559,
      "24.": 6560,
      "▁शत": 6561,
      "▁शे": 6562,
      "▁शक्ति": 6563,
      "hai": 6564,
      "▁Games": 6565,
      "▁H.": 6566,
      "▁उद्योग": 6567,
      "▁2001": 6568,
      "▁संख्या": 6569,
      "हिंदू": 6570,
      "aryana": 6571,
      "▁growth": 6572,
      "▁religion": 6573,
      "ability": 6574,
      "▁through": 6575,
      "▁[मूळ": 6576,
      "▁near": 6577,
      "_Act": 6578,
      "▁[\"G": 6579,
      "द्दु": 6580,
      "archive.org/detail": 6581,
      "27)": 6582,
      "AAJ": 6583,
      "166": 6584,
      "eccan": 6585,
      "्राम": 6586,
      "▁लोग": 6587,
      "matic": 6588,
      "े_आणि": 6589,
      "▁\"Mughal": 6590,
      "▁करण्यात": 6591,
      "a_d": 6592,
      "a_Empire": 6593,
      "](https://en.wikipedia.org/wiki/Mugh": 6594,
      "law": 6595,
      "▁Island": 6596,
      "्यांना": 6597,
      "्यांचा": 6598,
      "▁within": 6599,
      "▁Press,": 6600,
      "](https://en.wikipedia.org/wiki/British": 6601,
      "▁एकूण": 6602,
      "▁exp": 6603,
      "▁\"Template:": 6604,
      "▁प्राण": 6605,
      "arden": 6606,
      "▁झाल": 6607,
      "िळक": 6608,
      "](https://mr.wikipedia.org/wiki/मध्य": 6609,
      "▁मुघल": 6610,
      "▁चळ": 6611,
      "issing": 6612,
      "हाराज": 6613,
      "िवूड": 6614,
      "▁क्षेत्रीय": 6615,
      "▁वापर": 6616,
      "▁वाळवंट": 6617,
      "_population": 6618,
      "ender": 6619,
      "article": 6620,
      "_November": 6621,
      "हिन्द": 6622,
      "uggle": 6623,
      "जनसंख्या": 6624,
      "html)": 6625,
      "ignored": 6626,
      "▁स्वातंत्र्य": 6627,
      "हित.": 6628,
      "handigarh": 6629,
      "▁जनसंख्या": 6630,
      "▁मानवी": 6631,
      "_des": 6632,
      "▁शिक्षा": 6633,
      "AsherTalbot20": 6634,
      "](https://mr.wikipedia.org/wiki/बंगाल": 6635,
      "डाख": 6636,
      "ंग्रज": 6637,
      "ोबत": 6638,
      "ंदीगढ": 6639,
      "_Lank": 6640,
      "ediff": 6641,
      "]](https://hi.wikipedia.org/wiki/भारत#cite_note-FOOTNOTEStein1998": 6642,
      "]](https://hi.wikipedia.org/wiki/भारत#cite_note-FOOTNOTESingh2009": 6643,
      "स.ओ.": 6644,
      "▁ago": 6645,
      "▁use": 6646,
      "ote:": 6647,
      "mitt": 6648,
      "शिष्ट": 6649,
      "त्तराखण्ड": 6650,
      "Dyson2018),": 6651,
      "ॉलिवूड": 6652,
      "▁म्हणून": 6653,
      "ortal:": 6654,
      "▁गणराज्यचे": 6655,
      "rishna": 6656,
      "▁होती.": 6657,
      "▁especial": 6658,
      "▁कुल": 6659,
      "](https://mr.wikipedia.org/wiki/उत्तर": 6660,
      "View": 6661,
      "तो.": 6662,
      "▁Buddhist": 6663,
      "ण्यास": 6664,
      "विषुव": 6665,
      "▁Registrar": 6666,
      "▁increased": 6667,
      "▁जाते.": 6668,
      "culpture": 6669,
      "_मेला?action=edit&redlink=1": 6670,
      "▁पाहिले.\r\n": 6671,
      "▁2018](https://en.wikipedia.org/wiki/India#CITEREFDyson2018),": 6672,
      "ताजमहाल": 6673,
      "ेंजो": 6674,
      "▁क्रमांक": 6675,
      "Articles\\_contain": 6676,
      "▁वैशिष्ट": 6677,
      "arnataka": 6678,
      "जिंठा-वेरूळ": 6679,
      "▁ठिका": 6680,
      "violence": 6681,
      "िक्किम": 6682,
      "य.एस.ओ.": 6683,
      "adhya": 6684,
      "▁वर्षांपूर्वी": 6685,
      "osphere": 6686,
      "▁अप्रैल": 6687,
      "ैदराबाद": 6688,
      "▁[हिन्दी](https://hi.wikipedia.org/wiki/हिन्दी": 6689,
      "फगाणि": 6690,
      "▁आढळ": 6691,
      "ंडीगढ़": 6692,
      "ेकडील": 6693,
      "क्षेत्रफळानुसार": 6694,
      "▁Quote:": 6695,
      "ZvaGuaJIJgoC&pg=PA": 6696,
      "▁संग्रहित.": 6697,
      "द्दुचेरी": 6698,
      "archive.org/details/": 6699,
      "](https://en.wikipedia.org/wiki/Mughal_": 6700,
      "▁especially": 6701,
      "जिंठा-वेरूळची": 6702,
      "-ex": 6703,
      ".in_": 6704,
      "1-4": 6705,
      "2%": 6706,
      "8D": 6707,
      "Biodiversity": 6708,
      "Census": 6709,
      "ES": 6710,
      "National": 6711,
      "aul": 6712,
      "bhasha": 6713,
      "cia": 6714,
      "ds": 6715,
      "ece": 6716,
      "५७": 6717,
      "▁[सा": 6718,
      "▁[राज्य": 6719,
      "▁\"श": 6720,
      "▁(2014": 6721,
      "▁मंत्री": 6722,
      "rak": 6723,
      "▁Singh": 6724,
      "library": 6725,
      "▁प्रांत": 6726,
      "▁नौ": 6727,
      "1016": 6728,
      "▁गांधी": 6729,
      "content": 6730,
      "▁इत्या": 6731,
      "117": 6732,
      "ell": 6733,
      "▁house": 6734,
      "▁([स": 6735,
      "17.": 6736,
      "वर्ण": 6737,
      "▁२६": 6738,
      "india.gov.in_": 6739,
      "%E0%A4%B0%E0%A4%": 6740,
      "[![](https://upload.wikimedia.org/wikipedia/commons/thumb/7/": 6741,
      "ंपरा": 6742,
      "धीश": 6743,
      "▁शासित": 6744,
      "▁Programme": 6745,
      "▁स्थापत्य": 6746,
      "▁व्याप": 6747,
      "▁Minorities": 6748,
      "/index.php?": 6749,
      "/D": 6750,
      "1200": 6751,
      "6)\r\n": 6752,
      "B0%": 6753,
      "Forest": 6754,
      "_h": 6755,
      "_In": 6756,
      "a)": 6757,
      "tou": 6758,
      "रूप": 6759,
      "सू": 6760,
      "ो-": 6761,
      "ोला": 6762,
      "ంతి": 6763,
      "కాల": 6764,
      "కారం": 6765,
      "ఖ్": 6766,
      "గంగా": 6767,
      "టో": 6768,
      "డిన": 6769,
      "తీ": 6770,
      "ధి": 6771,
      "ధించ": 6772,
      "నల్": 6773,
      "మన": 6774,
      "మర": 6775,
      "ర్యా": 6776,
      "లం": 6777,
      "లతో": 6778,
      "లమె": 6779,
      "ీస్": 6780,
      "ూప": 6781,
      "ూరు": 6782,
      "ెనీ": 6783,
      "ౌక": 6784,
      "▁ద": 6785,
      "▁ఫ": 6786,
      "▁దక్షిణ": 6787,
      "▁హిందూ": 6788,
      "▁గాంధీ": 6789,
      "▁`|": 6790,
      "▁[घ": 6791,
      "▁[భారతదేశం": 6792,
      "▁[ఢిల్లీ": 6793,
      "▁[मुंबई": 6794,
      "▁समाज": 6795,
      "▁(अ": 6796,
      "asht": 6797,
      "▁मन": 6798,
      "र्मा": 6799,
      "ారస": 6800,
      "▁sq": 6801,
      "-05": 6802,
      "▁Conservation": 6803,
      "\\_identifiers": 6804,
      "ాలను": 6805,
      "chang": 6806,
      "స్](https://te.wikipedia.org/wiki/": 6807,
      "▁పెద్ద": 6808,
      "istor": 6809,
      "rowing": 6810,
      "ర్లు": 6811,
      "00–సా.శ.పూ.": 6812,
      "లు\")": 6813,
      "267": 6814,
      "ంది": 6815,
      "▁వే": 6816,
      "▁report": 6817,
      "ablish": 6818,
      "_of_India.svg": 6819,
      "త్తం": 6820,
      "▁(సా.శ.15": 6821,
      "▁(సా.శ.13": 6822,
      "▁అనే": 6823,
      "▁ప్రజ": 6824,
      "తం\")": 6825,
      "ంచి": 6826,
      "▁ఆఫ్": 6827,
      "▁[सी": 6828,
      "▁సాం": 6829,
      "ార్లమె": 6830,
      "కిస్థాన్": 6831,
      "▁నే": 6832,
      "▁నగర": 6833,
      "ాయి.": 6834,
      "టిబె": 6835,
      "angetic": 6836,
      "్రీ.పూ.": 6837,
      "ండియా": 6838,
      "▁ఎక్కువ": 6839,
      "▁ఎన్నో": 6840,
      "1971": 6841,
      "श्चिम_ब": 6842,
      "▁leg": 6843,
      "▁भूम": 6844,
      "▁./వర్గం:Wikipedia\\_articles": 6845,
      "▁[जम्मू": 6846,
      "_సం": 6847,
      "ారు.\r\n": 6848,
      "టుంబ": 6849,
      "1947)": 6850,
      "▁భారత్": 6851,
      "osey": 6852,
      "మెరి": 6853,
      "▁మొత్తం": 6854,
      "▁बंगाल\")": 6855,
      "బాద్": 6856,
      "ంపెనీ": 6857,
      "▁km2": 6858,
      "▁\"पंजाब\")": 6859,
      "హ్మ": 6860,
      "catal": 6861,
      "%E0%A5%87": 6862,
      "▁ఏర్": 6863,
      "ield": 6864,
      "్రిటిషు": 6865,
      "▁दीव": 6866,
      "aranth": 6867,
      "▁అత్యధిక": 6868,
      "ీర్ణ": 6869,
      "దక్షిణ_ఆసియా": 6870,
      "▁\"मुंबई\")": 6871,
      "▁Increase": 6872,
      "▁\"कर्नाटक\")": 6873,
      "श्चिम_बंगाल": 6874,
      "-an": 6875,
      "-se": 6876,
      ".P": 6877,
      "1-1": 6878,
      "221": 6879,
      "2)[[": 6880,
      "3).": 6881,
      "3.\r\n": 6882,
      "313": 6883,
      "7%": 6884,
      "7C": 6885,
      "9]](https://en.wikipedia.org/wiki/India#cite_note-": 6886,
      "9]](https://en.wikipedia.org/wiki/India#cite_note-FOOTNOTE": 6887,
      "9-5": 6888,
      "Alig": 6889,
      "Ex": 6890,
      "Paki": 6891,
      "Sikh": 6892,
      "_&": 6893,
      "_36": 6894,
      "ather": 6895,
      "ative": 6896,
      "ahib": 6897,
      "baki": 6898,
      "eth": 6899,
      "khand": 6900,
      "lm": 6901,
      "oti": 6902,
      "rh": 6903,
      "subcontinent": 6904,
      "top": 6905,
      "vent": 6906,
      "vil": 6907,
      "wana": 6908,
      "गल": 6909,
      "जि": 6910,
      "डु": 6911,
      "नता": 6912,
      "पि": 6913,
      "पदी": 6914,
      "यपुर": 6915,
      "लिस": 6916,
      "वरा": 6917,
      "श्य": 6918,
      "सित": 6919,
      "हात्": 6920,
      "िन्": 6921,
      "ुट": 6922,
      "ोडिया": 6923,
      "ौपदी": 6924,
      "▁ki": 6925,
      "▁ge": 6926,
      "▁36": 6927,
      "▁4.": 6928,
      "▁5.": 6929,
      "▁eng": 6930,
      "▁8.": 6931,
      "▁histor": 6932,
      "▁\"World": 6933,
      "▁\"तमिल": 6934,
      "en,": 6935,
      "ences": 6936,
      "](https://en.wikipedia.org/wiki/World": 6937,
      "erved": 6938,
      "erman": 6939,
      "artition": 6940,
      "rew": 6941,
      "](https://hi.wikipedia.org/wiki/च": 6942,
      "](https://hi.wikipedia.org/wiki/बा": 6943,
      "ederal": 6944,
      "▁(ed.).": 6945,
      "ichell": 6946,
      "▁India*.": 6947,
      "idy": 6948,
      "▁political": 6949,
      "ately": 6950,
      "▁coast": 6951,
      "▁As": 6952,
      "▁Comp": 6953,
      "▁Chand": 6954,
      "atna": 6955,
      "▁प्रौद्योगिकी": 6956,
      "▁bu": 6957,
      "ango": 6958,
      "ंगोल": 6959,
      "very": 6960,
      "ults": 6961,
      "लाओ": 6962,
      "stani": 6963,
      "iland": 6964,
      "▁work": 6965,
      "▁direct": 6966,
      "oln": 6967,
      "▁Rothermund": 6968,
      "▁Br": 6969,
      "▁By": 6970,
      "254": 6971,
      "10)": 6972,
      "ir_S": 6973,
      "hap": 6974,
      "hatt": 6975,
      "-39": 6976,
      "द्रौपदी": 6977,
      "_in_A": 6978,
      "▁gen": 6979,
      "harkhand": 6980,
      "oss": 6981,
      "ghts": 6982,
      "ustrial": 6983,
      "र्मू": 6984,
      "▁\"Cambridge": 6985,
      "eck": 6986,
      "Harmand": 6987,
      "orship": 6988,
      "_Comm": 6989,
      "▁[Cambridge": 6990,
      "ndhra": 6991,
      "▁[978-0-521": 6992,
      "▁राज्य\")": 6993,
      "ियार": 6994,
      "ourts": 6995,
      "ourbaki": 6996,
      "▁[↑](https://en.wikipedia.org/wiki/India#cite_ref-FOOTNOTEStein2010": 6997,
      "▁before": 6998,
      "वर्तन": 6999,
      "lative": 7000,
      "_Map": 7001,
      "ोलन": 7002,
      "▁राजवंश": 7003,
      "दाबाद": 7004,
      "aith": 7005,
      "परमाणु": 7006,
      "_Golden_Temple": 7007,
      "▁range": 7008,
      "iance": 7009,
      "aking": 7010,
      "_proj": 7011,
      "_pilgrim": 7012,
      "▁टा": 7013,
      "vention": 7014,
      "677": 7015,
      "class": 7016,
      "▁lite": 7017,
      "▁१९७": 7018,
      "जनप": 7019,
      "▁vill": 7020,
      "ambridge_University_Press": 7021,
      "ported": 7022,
      "erves": 7023,
      "न्नड": 7024,
      "स्वतंत्रता": 7025,
      "1977": 7026,
      "ंग्लादेश": 7027,
      "alayal": 7028,
      "aceu": 7029,
      "on-Alig": 7030,
      "▁[पश्चिम": 7031,
      "▁right": 7032,
[...]
