{"base_alphabet":["\u0000","\u0001","\u0002","\u0003","\u0004","\u0005","\u0006","\u0007","\b","\t","\n","\u000b","\f","\r","\u000e","\u000f","\u0010","\u0011","\u0012","\u0013","\u0014","\u0015","\u0016","\u0017","\u0018","\u0019","\u001a","\u001b","\u001c","\u001d","\u001e","\u001f"," ","!","\"","#","$","%","&","'","(",")","*","+",",","-",".","/","0","1","2","3","4","5","6","7","8","9",":",";","<","=",">","?","@","A","B","C","D","E","F","G","H","I","J","K","L","M","N","O","P","Q","R","S","T","U","V","W","X","Y","Z","[","\\","]","^","_","`","a","b","c","d","e","f","g","h","i","j","k","l","m","n","o","p","q","r","s","t","u","v","w","x","y","z","{","|","}","~","","","","","","","","","","","","","","","","","","","","","","","","","","","","","","","","",""," ","¡","¢","£","¤","¥","¦","§","¨","©","ª","«","¬","­","®","¯","°","±","²","³","´","µ","¶","·","¸","¹","º","»","¼","½","¾","¿","À","Á","Â","Ã","Ä","Å","Æ","Ç","È","É","Ê","Ë","Ì","Í","Î","Ï","Ð","Ñ","Ò","Ó","Ô","Õ","Ö","×","Ø","Ù","Ú","Û","Ü","Ý","Þ","ß","à","á","â","ã","ä","å","æ","ç","è","é","ê","ë","ì","í","î","ï","ð","ñ","ò","ó","ô","õ","ö","÷","ø","ù","ú","û","ü","ý","þ","ÿ","Ā"],"format":"tdes-bpe/1","merges":[["à","¤"],["à","¥"],["à","°"],["à¤","¾"],["s","Ā"],["e","Ā"],["à¤¾","à¤"],["à¥",""],["à¥","à¤"],[",","Ā"],["à¤",""],["à","±"],["à¥",""],["n","Ā"],["a","Ā"],["à","²"],["à¤","°"],["-","Ā"],[".","Ā"],["à¤","¿"],["à¤","¤"],["i","n"],["à¥",""],["à¤","¸"],["d","Ā"],["\"","Ā"],["e","r"],["t","Ā"],["t","h"],["à¤¾","Ā"],["à¤","¨"],["a","n"],["à¤","®"],["l","Ā"],["à¤",""],["e","n"],["à¥","Ā"],["_","Ā"],["o","r"],["o","Ā"],["à¤","¹"],["à¤","ª"],["a","r"],["y","Ā"],["à¥","Ā"],["à±",""],["d","i"],["r","e"],["à¥",""],["à±","à°"],["à°","¾"],["à¤","²"],[")","Ā"],["(","Ā"],["=","Ā"],["c","o"],["e","sĀ"],["à¤","µ"],["t","i"],["à¤","¯"],["th","eĀ"],["à¤¾à¤","°"],["à¥à¤","°"],["à°¾","à°"],["à°","¿"],["à¥à¤","¯"],["à¤","¦"],["d","eĀ"],["à¤","­"],["à¤","Ā"],["à¥",""],["à","³"],["f","Ā"],["¤","Ā"],["a","sĀ"],["s","t"],["e","dĀ"],[":","Ā"],["à±",""],["à¤°","Ā"],["a","lĀ"],["a","l"],["er","Ā"],["à¤","¶"],["o","sĀ"],["à¤",""],["d","e"],["à¤",""],["o","n"],["à¤","¬"],["0","Ā"],["à°",""],["u","r"],["c","i"],["in","di"],["l","aĀ"],["[","Ā"],["]","Ā"],["a","t"],["e","nĀ"],["r","o"],["à¤¤","Ā"],["l","i"],["o","nĀ"],["i","nĀ"],["c","h"],["à¤",""],["à¥",""],["a","s"],["a","m"],["or","Ā"],["g","Ā"],["u","n"],["à°¿","à°"],["en","t"],["à¥",""],["à¤°","à¥à¤"],["an","dĀ"],["à¤",""],["à¤","Ā"],["à¤","à¥Ā"],["à¤­","à¤¾à¤°"],["à¤",""],["à°","à°"],["s","i"],["à¥","¤Ā"],["à¥","Ā"],["à¤","§"],["r","i"],["o","fĀ"],["à¤®","à¥"],["indi","aĀ"],["in","gĀ"],["a","d"],["à°","°"],["a","nĀ"],["à¤®à¥","à¤Ā"],["co","n"],["à°","¨"],["à¤","£"],["a","c"],["à¤¸","à¥à¤"],["1","Ā"],["à¤ª","à¥à¤°"],["à¤¾à¤","¨"],["à°",""],["à°","ª"],["à±","Ā"],["à¤¨","Ā"],["m","Ā"],["s","h"],["","Ā"],["s","u"],["à°","²"],["e","x"],["à°¿","Ā"],["à³",""],["à¤¹","à¥"],["t","o"],["l","o"],["c","Ā"],["s","eĀ"],["s","e"],["à¤¾à¤","²"],["Ã","³"],["à¤¿","à¤¯"],["m","i"],["à°","¤"],["i","sĀ"],["â",""],["à³","à²"],["t","oĀ"],["à¤","à¥à¤"],["à²","¿"],["a","b"],["e","lĀ"],["à±",""],["p","o"],["à¤¯","Ā"],["s","tĀ"],["r","Ā"],["l","eĀ"],["co","m"],["à¤","¡"],["th","Ā"],["à¤¾à¤",""],["à±à°","°"],["à¤°","à¤¾à¤"],["à°","¦"],["l","e"],["à°","µ"],["à¤µ","à¤¿"],["à°","®"],["l","yĀ"],["r","a"],["à¤",""],["à¤","à¤¾Ā"],["à¤²","Ā"],["à°","¸"],["à¤","à¥Ā"],["u","l"],["1","9"],["à¤",""],["Ã","¡"],["d","o"],["à¤",""],["à¤­à¤¾à¤°","à¤¤"],["'","Ā"],["s","o"],["v","i"],["à¥","à¤Ā"],["%","Ā"],["à¤","à¥Ā"],["à¤¹à¥","Ā"],["q","u"],["Ã","­"],["p","a"],["à¤­à¤¾à¤°","à¤¤Ā"],["6","Ā"],["à°¾à°","°"],["c","eĀ"],["à¤","à¤°Ā"],["p","Ā"],["2","0"],["à¤","¥"],["à¤",""],["à¤¿","à¤Ā"],["à²","°"],["ar","Ā"],["h","i"],["à¤à¥à¤","·"],["2","Ā"],["ti","onĀ"],["à¤¨","à¥à¤"],["l","osĀ"],["à¥","à¤¯Ā"],["p","ar"],["à¤¿","Ā"],["à¤¾à¤","¤"],["f","i"],["p","ro"],["l","an"],["n","o"],["p","e"],["t","sĀ"],["à¤",""],["à²","¾"],["f","orĀ"],["m","o"],["a","g"],["à¤",""],["â","Ā"],["à¤¸","à¤¾à¤"],["à¥à¤¯","à¤¾Ā"],["à¥à¤¯","Ā"],["e","st"],["p","u"],["à¤¸","à¥Ā"],["à°¾à°","²"],["d","u"],["k","Ā"],["à¤¾à¤","¸"],["¦","Ā"],["e","m"],["v","er"],["à¤¸","à¤"],["à²¿","à²"],["à¤°","à¥"],["ch","Ā"],["3","Ā"],["à°","Ā"],["à¤","¼"],["Ã³","nĀ"],["m","a"],["r","eĀ"],["de","lĀ"],["à¤¾à¤°","Ā"],["à¥","§"],["","Ā"],["à¤¾à¤","¤Ā"],["en","tĀ"],["i","Ā"],["¨","Ā"],["#","Ā"],["à¤¾à¤",""],["à±",""],["b","i"],["d","oĀ"],["a","tĀ"],["4","Ā"],["5","Ā"],["m","an"],["t","ur"],["à¤¤","à¥à¤°"],["b","e"],["l","a"],["b","yĀ"],["7","Ā"],["p","i"],["r","u"],["à¤£","Ā"],["g","i"],["g","e"],["à¥","à¤¶"],["c","a"],["p","or"],["t","eĀ"],["l","asĀ"],["à¤¨","à¥Ā"],["à°","¶"],["à°¾","Ā"],["à³",""],["à¥à¤","µ"],["8","Ā"],["w","or"],["à±","Ā"],[";","Ā"],["à¤°à¤¾à¤",""],["à°","­"],["à¥§","à¥"],["u","s"],["à¤¨","à¤¾à¤"],["c","l"],["t","e"],["à¤","à¤¹"],["t","u"],["à±à°","¯"],["Ã","©"],["/","Ā"],["g","h"],["g","u"],["à¤¸","à¤®"],["b","Ā"],["m","in"],["à¤","·"],["à¥",""],["ci","Ã³nĀ"],["t","er"],["à¤¾à¤¨","Ā"],["0","0Ā"],["i","m"],["c","tĀ"],["p","re"],["to","k"],["c","u"],["w","i"],["{","Ā"],["}","Ā"],["p","er"],["à¤­","à¤¾à¤"],["o","l"],["","Ā"],["","à²"],["à¤¿à¤¯","à¤¾Ā"],["con","t"],["b","u"],["v","eĀ"],["®","Ā"],["w","Ā"],["à¤¿","à¤¤Ā"],["at","eĀ"],["t","edĀ"],["p","p"],["t","yĀ"],["n","e"],["o","u"],["à°",""],["à²¾","à²"],["sh","ar"],["à¤¤","à¥à¤"],[">","Ā"],["à¤²","à¥Ā"],["ent","eĀ"],["qu","eĀ"],["ex","tĀ"],["tok","en"],["à¤¹","à¥"],["ge","tĀ"],["à¤¹","à¤¿"],["à¥à¤",""],["à°à°","¦"],["d","sĀ"],["f","or"],["i","s"],["à¤","à¤"],["à±","Ā"],["t","r"],["à¤­à¤¾à¤°à¤¤","à¥à¤¯Ā"],["à¤¸à¥à¤","¥"],["a","dĀ"],["un","i"],["à¤","³"],["à±","à°¶"],["m","Ã¡"],["t","extĀ"],["à¤µ","Ā"],["à°ª","à±à°°"],["+","Ā"],["ci","on"],["m","e"],["à¤¦","à¥à¤¶"],["à±",""],["al","esĀ"],["<","Ā"],["mÃ¡","sĀ"],["à¤®","à¥"],["p","l"],["à¤","à¤°"],["à¤®","à¤¾Ā"],["à°",""],["e","s"],["à¤","«"],["à¤¨","à¤¿"],["à¥","à¤²Ā"],["h","as"],["p","orĀ"],["à¤°à¥à¤","µ"],["à°¦","à±à°¶"],["à¤¥","à¤¾Ā"],["9","Ā"],["c","sĀ"],["ti","on"],["x","Ā"],["à¤¤","à¤¾Ā"],["m","u"],["no","tĀ"],["à¤","à¤¾à¤°"],["à¤¸à¥à¤","¤"],["am","eĀ"],["à¤¨","à¤¾Ā"],["à±",""],["i","st"],["à¤µ","à¤¾à¤"],["à°¿à°",""],["à°",""],["à°°","à±à°"],["ad","oĀ"],["or","i"],["à¤¸","Ā"],["à¤¹à¥","à¤Ā"],["à°",""],["à°","¯"],["à°²","à±Ā"],["à²","¸"],["à²","à²"],["in","g"],["*","Ā"],["s","c"],["à¤","à¤¾à¤¤"],["à²","¨"],["ar","i"],["s","oĀ"],["à¤ª","à¥"],["à¤¯","à¤¾Ā"],["20","1"],["c","or"],["d","er"],["token","sĀ"],["à¤µ","à¤°à¥à¤"],["à¥",""],["à°",""],["à°","¡"],["di","ctĀ"],["à¤²","à¤¾à¤"],["ag","eĀ"],["à¤",""],["à¤","à¤¾à¤"],["b","o"],["c","alĀ"],["f","ro"],["w","h"],["Ã","º"],["à¤à¤¹","à¥Ā"],["à¤","à¥"],["à¤®","Ā"],["à²¿","Ā"],["on","eĀ"],["wi","thĀ"],["à¤¡","à¤¼"],["à¤ª","à¥"],["à¤¾à¤","ª"],["fro","mĀ"],["g","o"],["re","tur"],["ti","m"],["à¤¦","à¥à¤"],["à¤®","à¤¿"],["à°­","à°¾à°°"],["à±",""],["c","aĀ"],["e","l"],["k","e"],["lan","eĀ"],["n","oĀ"],["t","alĀ"],["Ã³","Ā"],["à²","¤"],["n","a"],["un","aĀ"],["à°¨","à±à°"],["à²","µ"],["n","u"],["à¤","à¤¦"],["à¤¨","à¥"],["à³","Ā"],["à¤","à¤Ā"],["à¤¹","à¥"],["à°",""],["do","csĀ"],["l","enĀ"],["por","tĀ"],["w","hi"],["à¤¤","à¤¿"],["à¤ª","à¤°"],["à¤¾à¤",""],["à°¸","à±à°"],["indi","anĀ"],["à¤",""],["à¤ª","à¤°Ā"],["f","ac"],["h","Ā"],["s","ur"],["t","erĀ"],["à¥à¤°","Ā"],["à³","Ā"],["c","esĀ"],["l","u"],["retur","nĀ"],["th","e"],["£","Ā"],["¯","à¥"],["à¤¤à¥à¤","¤"],["ad","aĀ"],["l","l"],["d","aĀ"],["m","ar"],["à¤¤","à¥Ā"],["à¤¤","à¥à¤¯"],["à¤¨à¥à¤","¦"],["à¤¾à¤²","Ā"],["a","tionĀ"],["g","en"],["t","ra"],["e","c"],["w","asĀ"],["à¤¹","à¤°à¥"],["à°à°¦","à°¿Ā"],["à±",""],["s","y"],["s","sĀ"],["s","ti"],["Ã­","aĀ"],["à¤®","à¤¹"],["à¤¾à¤","¯"],["à²","²"],["s","pe"],["à¤"," "],["à¤","¢"],["à¤²","à¤¾Ā"],["à¥","Ā"],["à²","®"],["co","nĀ"],["er","eĀ"],["er","sĀ"],["f","lo"],["so","ur"],["to","talĀ"],["à°¾à°²","à±Ā"],["al","lĀ"],["co","un"],["ent","r"],["n","erĀ"],["v","edĀ"],["à¤","Ā"],["à¤®","à¤§"],["à¥","à¤¨Ā"],["à°¾à°","¨"],["li","c"],["sh","Ā"],["¨","à¥"],["à¤¦à¥à¤","§"],["à¤¸","à¥"],["à¤¾à¤","®"],["à¤¾à¤","à¤"],["al","i"],["a","u"],["i","rĀ"],["à¤²","à¥Ā"],["à¤¾à¤","µ"],["à¥à¤","²"],["ar","eĀ"],["g","r"],["n","or"],["w","e"],["p","ri"],["m","er"],["whi","chĀ"],["à±à°","²"],["ab","leĀ"],["al","lyĀ"],["v","erĀ"],["à¤à¥à¤·","à¤¿"],["à¤°","à¥Ā"],["à¤°à¥à¤","®"],["à°","§"],["à°","¹"],["d","ingĀ"],["m","entĀ"],["p","erĀ"],["st","rĀ"],["à¤¬","à¤¾à¤"],["à¤¶","à¤¾à¤¸"],["f","er"],["h","o"],["t","an"],["à¤","Ā"],["à¤¦","à¤à¥à¤·à¤¿"],["à°¾à°","¯"],["at","edĀ"],["de","fĀ"],["Ã","±"],["à¤","Ā"],["à¤ª","Ā"],["à¤¹","Ā"],["à°­à°¾à°°","à°¤"],["f","u"],["¥","Ā"],["à¤","Ā"],["à¤¤","à¤¥à¤¾Ā"],["à¤µ","à¥à¤¯"],["à¤¸à¤¾à¤","®"],["à¥","à¤"],["à¥§à¥","¯à¥"],["à°à°",""],["à°","à±à°"],["à°°","à°¾à°"],["à²",""],["a","y"],["c","ul"],["n","ameĀ"],["|","Ā"],["à¤­à¤¾à¤","·"],["à¤¸","à¤¿"],["à¤¸à¥à¤","µ"],["à¥","¨à¥"],["à²","ª"],["\\","Ā"],["as","i"],["d","erĀ"],["en","dĀ"],["p","r"],["à¤¦à¥à¤¶","Ā"],["à¤­","à¥Ā"],["à²¾","à²°"],["am","bi"],["st","an"],["su","l"],["t","esĀ"],["th","erĀ"],["à¥à¤",""],["g","an"],["o","c"],["à¤¤","à¥Ā"],["à°",""],["à°","¬"],["à°¾à°","¤"],["à±","Ā"],["c","re"],["e","con"],["en","g"],["re","dĀ"],["s","onĀ"],["st","e"],["à°¨à±à°","¨"],["à²","¹"],["n","i"],["c","t"],["pu","sĀ"],["s","er"],["se","l"],["tion","sĀ"],["w","sĀ"],["à¤à¥à¤·","à¥"],["à°à°",""],["à±","Ā"],["a","k"],["b","eĀ"],["c","an"],["a","f"],["cl","u"],["for","m"],["in","du"],["l","oĀ"],["shar","dĀ"],["«","Ā"],["·","à¥à¤"],["à¤","à¤¾à¤°Ā"],["à¤¸","à¤°"],["à°à°","²"],["à²",""],["à²","¦"],["20","0"],["m","ent"],["","Ā"],["à¤",""],["à¤","à¤¿"],["à¤®","à¥à¤"],["à¤¾à¤",""],["à¤¾à¤¨","à¥Ā"],["à¤¾à¤¸","Ā"],["à¥à¤°","à¥"],["à±à°",""],["as","si"],["cion","esĀ"],["i","tsĀ"],["l","ar"],["man","u"],["sel","fĀ"],["¦","à¥"],["à¤à¥à¤·à¥","à¤¤à¥à¤°"],["à¤®à¥","à¤"],["à¤°","à¤¿"],["à¤¸","à¥"],["à±à°","µ"],["â","Ā"],["ad","osĀ"],["an","g"],["ci","aĀ"],["d","getĀ"],["e","po"],["f","a"],["min","ist"],["ri","t"],["th","isĀ"],["w","nĀ"],["¬","Ā"],["à¤","à¤°Ā"],["à¤²","à¥"],["à¤µà¤°à¥à¤","·"],["gen","er"],["h","a"],["p","has"],["à¤ªà¥","à¤°à¥à¤µ"],["à¤µà¤¿","à¤§"],["à°²","à±Ā"],["à±à°","¤"],["à²","­"],["0","00Ā"],["g","re"],["h","aĀ"],["ru","nĀ"],["à¤","à¤§"],["à¥","à¤¤"],["à¤","à¤¨"],["à¤¹","à¥Ā"],["à±","à°²à±Ā"],["c","ar"],["m","b"],["manu","fac"],["par","aĀ"],["sour","ceĀ"],["spe","cĀ"],["th","atĀ"],["ur","Ā"],["ª","Ā"],["à¤","à¤¤à¥à¤°"],["à¤¦","à¥à¤µ"],["à¤¨","à¥Ā"],["à¤®","à¤¾à¤"],["à¤¾à¤°","à¥à¤"],["à¤¾à¤²","à¥Ā"],["à¥","Ā"],["à¥","à¤¤Ā"],["d","osĀ"],["en","ceĀ"],["in","f"],["m","un"],["re","sĀ"],["f","e"],["¯","Ā"],["à¤¦à¤à¥à¤·à¤¿","à¤£Ā"],["à¤°à¤¾à¤","à¥à¤¯"],["à¤²","à¤¿"],["à¤¶","à¤¿"],["à°à°","¡"],["a","ciÃ³nĀ"],["bu","dgetĀ"],["cor","pusĀ"],["d","ur"],["de","s"],["f","r"],["i","z"],["im","portĀ"],["p","en"],["pa","thĀ"],["ro","wsĀ"],["st","ageĀ"],["t","aĀ"],["v","e"],["à¥",""],["à³",""],["19","9"],["c","le"],["c","oĀ"],["com","oĀ"],["e","le"],["f","in"],["gh","Ā"],["ou","tĀ"],["","Ā"],["à¤","à¤¡"],["à¤","à¤§"],["à¤","à¤¤à¥à¤¤"],["à¤","à¤¿à¤¯à¤¾Ā"],["à¤","à¤¨"],["à¤¤","à¤°Ā"],["à¤¨à¥à¤","¤"],["à°¾à°",""],["a","pp"],["d","adĀ"],["f","o"],["in","clu"],["ke","yĀ"],["on","esĀ"],["ti","veĀ"],["un","dĀ"],["à¤à¤¹","à¥à¤¤Ā"],["à¤¹à¤¿","à¤¨à¥à¤¦"],["à°µ","à°¿à°"],["à°¿","à°à°"],["à±",""],["b","as"],["l","esĀ"],["re","gi"],["shar","eĀ"],["su","b"],["à¤¯","à¥"],["à¤²","à¥"],["à¤®","à¤¾à¤¨"],["à¤¹","à¤¾Ā"],["à°à°²","à±Ā"],["à°­à°¾à°°à°¤","à°¦à±à°¶"],["à³à²","°"],["5","0Ā"],["ar","sĀ"],["d","at"],["de","m"],["ent","oĀ"],["l","am"],["l","dĀ"],["lo","c"],["t","a"],["wor","dsĀ"],["à¤","à¤¸"],["à¤","à¥à¤°"],["à¤¦","à¥"],["à¤¦à¥à¤§","Ā"],["à¤¬","à¤¹à¥"],["à¤°","à¥"],["à¤°à¥à¤","¥"],["à¤¸","à¤¦"],["à¤¸à¥à¤",""],["à¥à¤µ","Ā"],["ar","yĀ"],["co","sĀ"],["com","m"],["cont","in"],["econ","o"],["in","eĀ"],["ro","u"],["sur","vi"],["à¤°à¤¾à¤","·à¥à¤"],["à¤µà¤¿","à¤¶"],["à¤¾à¤","à¥à¤¯à¤¾Ā"],["à°¿à°","Ā"],["à³à²","¤"],["19","6"],["o","lĀ"],["pl","esĀ"],["t","en"],["­","Ā"],["à¤","à¤¸"],["à¤¨à¤¾à¤","µ"],["à¤®à¤§","à¥à¤¯"],["à¤¸","à¤¬"],["à¤¸à¤¾à¤","¥Ā"],["à¤¾à¤","¹"],["à¥à¤","¤Ā"],["à°",""],["à°","¤Ā"],["à°¿","à°à°¦à°¿Ā"],["as","tĀ"],["b","an"],["ci","alĀ"],["ex","am"],["hi","Ā"],["m","eĀ"],["p","tĀ"],["s","p"],["à¤","à¤¿"],["à¤","Ā"],["à¤¶","Ā"],["à¤¹à¤°à¥","Ā"],["à¥","Ā"],["à°¨","Ā"],["à°¯","Ā"],["à³","Ā"],["1","00Ā"],["app","endĀ"],["b","r"],["ch","sĀ"],["dem","andĀ"],["epo","chsĀ"],["flo","orĀ"],["pre","s"],["th","anĀ"],["à¤","à¤§"],["à¤","à¤¿"],["à¤","à¤¿"],["à¤¤","à¤Ā"],["à¤¦","à¥à¤¯"],["à¤®","à¥"],["à¤²","à¥à¤²"],["à¤¾à¤","¦"],["à¥","à¤¨Ā"],["à°","£"],["af","terĀ"],["at","chĀ"],["b","er"],["b","loc"],["d","edĀ"],["h","u"],["in","toĀ"],["l","on"],["li","stĀ"],["pa","Ã­"],["st","at"],["sti","tu"],["v","Ā"],["w","ereĀ"],["à¤à¤","à¥à¤°à¥"],["à¤¶","à¥à¤"],["à¥à¤","¤"],["à°¦","à±à°"],["à°¿à°","¨"],["à³à²","¯"],["20","2"],["as","sĀ"],["en","ti"],["f","ul"],["fi","r"],["g","a"],["has","hĀ"],["n","oneĀ"],["p","an"],["per","i"],["po","b"],["r","aĀ"],["ti","en"],["ti","v"],["à¤","à¤¯à¤¾Ā"],["à¤­","à¥"],["à¤°à¤¾à¤","à¥à¤¯Ā"],["à¤¸à¤¾à¤®","à¥à¤°"],["à¤¸à¤¾à¤®à¥à¤°","à¤¾à¤"],["à¤¾à¤¤","à¥à¤²Ā"],["à¥","à¤Ā"],["à±à°¯","Ā"],["à²",""],["à²","³"],["à²­","à²¾à²°"],["à³",""],["a","Ã±"],["an","ceĀ"],["c","ent"],["er","onĀ"],["ful","lĀ"],["li","gi"],["lic","en"],["m","enteĀ"],["on","lyĀ"],["p","leĀ"],["s","on"],["sc","ri"],["si","g"],["su","mĀ"],["su","pp"],["th","re"],["tu","redĀ"],["v","al"],["à¤",""],["à¤­à¤¾à¤°à¤¤","à¤¾à¤¤Ā"],["à¤µ","à¥"],["à¤¾à¤","¬"],["à¥à¤","®"],["à±","à°¤"],["au","di"],["co","deĀ"],["do","cĀ"],["du","p"],["er","nĀ"],["e","a"],["exam","plesĀ"],["indi","cĀ"],["li","tyĀ"],["manufac","turedĀ"],["me","di"],["ol","dĀ"],["p","ul"],["pa","irĀ"],["re","mo"],["so","u"],["stan","tĀ"],["survi","v"],["tion","alĀ"],["tur","eĀ"],["à¤",""],["à¤¤","à¤¿Ā"],["à¤¦","à¤¿"],["à°à°","à°¾Ā"],["à°¾à°¯","à°¿Ā"],["à³",""],["b","li"],["con","stitu"],["e","t"],["n","am"],["el","seĀ"],["h","indu"],["i","r"],["i","te"],["j","o"],["k","edĀ"],["l","li"],["na","cion"],["p","sĀ"],["pu","tĀ"],["Ã©","nĀ"],["à¤","à¥"],["à¤","à¤¼"],["à¤¨","à¥à¤¯"],["à¤¬","Ā"],["à¤°à¤¾à¤·à¥à¤","à¥à¤°"],["à¤¸à¤¬","à¤¸à¥Ā"],["à°à±à°","·"],["à°¨","à°¿à°"],["à°²","Ā"],["à°¿à°",""],["à°¿à°","¨Ā"],["à±","à°¯Ā"],["à±","à°"],["?","Ā"],["a","j"],["ambi","Ã©nĀ"],["c","adaĀ"],["c","entr"],["f","re"],["i","l"],["on","sĀ"],["q","Ā"],["t","ambiÃ©nĀ"],["tok","enĀ"],["à¤","à¤ª"],["à¤¬à¤¾à¤","¦Ā"],["à¤¾à¤°","à¤¾Ā"],["à¥à¤°","à¤¿"],["à°¨","à°¿Ā"],["à°®","à±"],["à³à²","²"],["am","enteĀ"],["assi","stantĀ"],["b","leĀ"],["c","e"],["comm","onĀ"],["h","ar"],["man","i"],["nam","esĀ"],["or","esĀ"],["or","sĀ"],["pp","edĀ"],["pr","in"],["pro","du"],["s","esĀ"],["su","Ā"],["t","ru"],["tra","di"],["us","erĀ"],["","Ā"],["à¤","à¤ª"],["à¤","Ā"],["à¤¢","à¤¼"],["à¤ª","à¤¶à¥à¤"],["à¤ªà¤¶à¥à¤","à¤¿"],["à¤¯","à¤¹Ā"],["à¤°à¥","à¤ªĀ"],["à¤·","à¥à¤"],["à¤¸à¥à¤¥","à¤¾à¤ª"],["à¤¾à¤","à¥Ā"],["à°¨","à±Ā"],["à²","¬"],["â","Ā"],["ch","ec"],["e","f"],["ex","ac"],["j","Ā"],["m","oĀ"],["mi","ll"],["ou","sĀ"],["par","ti"],["po","pul"],["s","in"],["tru","eĀ"],["u","sĀ"],["us","dĀ"],["wor","ldĀ"],["¸","à±à°¤"],["à¤²","à¤"],["à¤¶","à¤¤"],["à¤¸à¤","à¤¸à¥à¤"],["à¤¹","à¥Ā"],["à¤¾à¤","à¥Ā"],["à¤¾à¤²","à¤¾Ā"],["19","4"],["5","6Ā"],["a","in"],["al","menteĀ"],["an","d"],["di","s"],["lo","w"],["dur","ingĀ"],["fir","stĀ"],["fr","ac"],["gh","tĀ"],["l","at"],["lan","esĀ"],["lan","gu"],["ma","y"],["o","verĀ"],["sh","ing"],["st","r"],["supp","lyĀ"],["z","aĀ"],["z","Ā"],["","à¥à¤"],["¤","à±à°°"],["«","à¥"],["Ãº","nĀ"],["à¤",""],["à¤","à¤¿Ā"],["à¤","à¥"],["à¤¤","à¥"],["à¤°","à¥"],["à¤µà¥à¤¯","à¤µ"],["à¤¸","à¤°à¥à¤µ"],["à°¸à±à°","¥"],["à°¿à°","²"],["à±","Ā"],["a","v"],["ab","Ā"],["ac","eĀ"],["c","asĀ"],["c","tionĀ"],["go","ver"],["gover","n"],["h","ab"],["lli","onĀ"],["m","ul"],["re","portĀ"],["sh","aĀ"],["st","ri"],["t","em"],["ti","cĀ"],["tien","eĀ"],["token","iz"],["ur","sĀ"],["à¤","à¥"],["à¤à¤¿","à¤¤à¥à¤°"],["à¤¦à¥à¤µ","à¤¾à¤°à¤¾Ā"],["à¤§","à¤°à¥à¤"],["à¤§à¤°à¥à¤","®Ā"],["à¤ªà¥à¤°","à¤®à¥à¤"],["à¤®à¤§à¥à¤¯","à¥Ā"],["à¤¾à¤","Ā"],["à¥","à¤¤Ā"],["à¥§","Ā"],["à°",""],["à±","à°"],["à±à°",""],["à²","¦Ā"],["à²","¶"],["à²¸","à²à²"],["19","7"],["201","1Ā"],["3","0Ā"],["bi","er"],["bu","tĀ"],["c","edĀ"],["c","f"],["cf","gĀ"],["de","pen"],["e","v"],["e","ver"],["g","lo"],["i","d"],["ite","mĀ"],["mo","delĀ"],["n","edĀ"],["ne","arĀ"],["o","b"],["paÃ­","sĀ"],["phas","esĀ"],["remo","vedĀ"],["t","ingĀ"],["t","ri"],["y","aĀ"],["y","e"],["Ã©","sĀ"],["à¤","à¥à¤"],["à¤","à¤¨à¥"],["à¤¥","à¤¿à¤¯"],["à¤§","à¤°à¥à¤®"],["à¤¨","à¥"],["à¤ªà¥à¤°à¤®à¥à¤","Ā"],["à¤¬","à¤à¤§"],["à¤²à¤¾à¤","Ā"],["à¤¹à¤¿à¤¨à¥à¤¦","à¥Ā"],["à°à°",""],["à°","à±Ā"],["à°°à°¾à°",""],["à²­à²¾à²°","à²¤"],["à²²","à³à²²"],["19","8"],["a","yĀ"],["ac","tu"],["an","s"],["c","ro"],["ca","st"],["chec","kĀ"],["cle","arĀ"],["en","ciaĀ"],["est","eĀ"],["f","tĀ"],["g","in"],["li","t"],["am","i"],["m","al"],["p","la"],["pro","x"],["re","alĀ"],["re","ligi"],["si","st"],["sou","thĀ"],["su","sĀ"],["us","ableĀ"],["v","oc"],["w","o"],["à¤à¤§","à¤¿"],["à¤à¤¨","à¥"],["à¤à¤¨à¥","à¤Ā"],["à¤à¤¤à¥à¤¤","à¤°Ā"],["à¤","à¤à¥Ā"],["à¤¤","à¤¾à¤¤Ā"],["à¤¨","à¥Ā"],["à¤¬","à¥à¤°à¤¿"],["à¤­à¤¾à¤",""],["à¤¯","à¥"],["à¤µ","à¥"],["à¤¶à¤¾à¤¸","à¤¨Ā"],["à¤·","à¥à¤"],["à¤¿","à¤¸à¥à¤¤"],["à¤¿à¤¯","à¥à¤Ā"],["à¤ª","à¤¾à¤°"],["à¥à¤","¦"],["à°","·"],["2","56Ā"],["ad","asĀ"],["al","soĀ"],["ang","eĀ"],["asi","aĀ"],["aÃ±","osĀ"],["ca","ppedĀ"],["cent","ur"],["cont","ro"],["dat","aĀ"],["do","cu"],["econo","m"],["ent","esĀ"],["j","son"],["json","lĀ"],["l","ineĀ"],["la","ciÃ³nĀ"],["licen","seĀ"],["lo","wĀ"],["m","or"],["mi","s"],["m","at"],["mo","stĀ"],["nu","clearĀ"],["o","f"],["p","ctĀ"],["p","le"],["par","teĀ"],["ste","mĀ"],["sy","stemĀ"],["the","irĀ"],["ti","erĀ"],["v","ari"],["z","eĀ"],["¬","à¥"],["à¤","à¤à¤à¥à¤°à¥"],["à¤","Ā"],["à¤","à¥Ā"],["à¤à¤¿","à¤¸"],["à¤¨à¤¿","à¤°à¥à¤®"],["à¤ª","à¤¹"],["à¤ª","à¤¾à¤"],["à¤ªà¥à¤°à¥à¤µ","Ā"],["à¤ªà¥à¤°","à¤¦à¥à¤¶Ā"],["à¤¬à¥à¤°à¤¿","à¤à¤¿"],["à¤°","à¤¾Ā"],["à¤°","à¥"],["à¤²","à¥à¤¯à¤¾Ā"],["à¤µà¤°à¥à¤·","Ā"],["à¤¸à¤°","à¤à¤¾à¤°Ā"],["à¤¸à¤¾à¤","¹"],["à¤¾à¤","à¤¾Ā"],["à°µ","à°¾à°"],["à²","¡"],["à²°","à³à²"],["1","7Ā"],["am","Ā"],["b","alĀ"],["c","r"],["c","ur"],["cl","sĀ"],["con","gre"],["ge","stĀ"],["go","bier"],["l","Ã­"],["lar","g"],["ment","sĀ"],["mi","entoĀ"],["mun","doĀ"],["nacion","alĀ"],["o","tr"],["qu","i"],["ra","therĀ"],["ri","teĀ"],["s","r"],["si","onĀ"],["t","ro"],["ter","rit"],["thre","sh"],["tokeniz","erĀ"],["wh","o"],["","Ā"],["ª","à¥"],["Ã¡","nĀ"],["à¤","à¤°à¥à¤"],["à¤à¥","à¤à¤¦"],["à¤","à¥"],["à¤à¤¿à¤¤à¥à¤°","à¤ª"],["à¤","à¥Ā"],["à¤","Ā"],["à¤£","à¥à¤¯"],["à¤§","à¤¾à¤¨"],["à¤ªà¤¾à¤","à¤¿à¤¸à¥à¤¤"],["à¤ªà¥à¤°","à¤¾à¤"],["à¤µà¤¿à¤¶","à¥à¤µĀ"],["à¤¸","à¥Ā"],["à¤¸à¥","à¤¨à¤¾Ā"],["à¥","à¤²"],["à°°","à°¿à°"],["à²",""],["à²",""],["à²à²","¦"],["à²²à³à²²","à²¿Ā"],["194","7Ā"],["a","i"],["an","doĀ"],["ci","alesĀ"],["com","pi"],["d","Ã©"],["di","Ā"],["exac","tĀ"],["govern","mentĀ"],["hi","st"],["l","ab"],["l","edĀ"],["o","dĀ"],["pob","laciÃ³nĀ"],["s","edĀ"],["u","d"],["u","eĀ"],["ul","dĀ"],["w","riteĀ"],["wor","dĀ"],["©","Ā"],["à¤","Ā"],["à¤","à¤à¤¡"],["à¤à¥à¤","¤"],["à¤","à¤°"],["à¤","à¥"],["à¤","à¥à¤°"],["à¤à¤¾à¤¤","à¤¾Ā"],["à¤à¤¾à¤¤","à¥Ā"],["à¤¥","à¥Ā"],["à¤ª","à¤¦"],["à¤¬","à¤¡à¤¼"],["à¤¬","à¤¨"],["à¤­à¤¾à¤·","à¤¾Ā"],["à¤¯","à¥"],["à¤¶à¤¿","à¤à¥à¤·"],["","à¤Ā"],["à¤¸","à¤¹"],["à¤¸","à¤¾à¤°Ā"],["à¤¾à¤",""],["à¥","à¤¡à¤¼"],["à°",""],["à°","Ā"],["à°¤","à°°"],["à°®","à°¾à°°"],["à°¸","à°à°"],["à°¾à°","®"],["à³",""],["à³","à²"],["19","50Ā"],["ay","sĀ"],["b","daĀ"],["b","eng"],["c","tedĀ"],["compi","leĀ"],["d","d"],["di","alĀ"],["di","f"],["dup","lic"],["es","pe"],["fo","undĀ"],["gobier","noĀ"],["ha","veĀ"],["lam","bdaĀ"],["lo","calĀ"],["m","on"],["mo","der"],["on","gĀ"],["or","yĀ"],["pro","b"],["se","g"],["sour","cesĀ"],["territ","ori"],["tim","eĀ"],["à¤","à¤¬"],["à¤à¥à¤",""],["à¤à¥à¤·à¥à¤¤à¥à¤°","Ā"],["à¤","à¤£"],["à¤","à¥Ā"],["à¤","à¥"],["à¤¦à¥","à¤"],["à¤¨","à¤¿à¤Ā"],["à¤¨à¤¾à¤","®Ā"],["à¤ªà¥","à¤°à¥à¤"],["à¤­à¤¾à¤·","à¤¾à¤"],["à¤®","à¤à¤¤à¥à¤°"],["à¤®","à¤¾à¤¨Ā"],["à¤®","à¥"],["à¤°","à¤à¥à¤·"],["à¤³","à¥Ā"],["à¤µà¥à¤¯à¤µ","à¤¸à¥à¤¥"],["à¤¸à¤¾à¤¹","à¤¿"],["à¤¸à¥à¤","²"],["à¤¹à¥","à¤Ā"],["à¤¾à¤°","à¥Ā"],["à°­à°¾à°°","à°¤Ā"],["à°­à°¾à°°à°¤à°¦à±à°¶","à°Ā"],["à°°","à±"],["à±",""],["à²¤","à³à²¤"],["à²¿à²","à²"],["à²¿à²","¯"],["0","0"],["1","8"],["2","0Ā"],["a","de"],["ag","esĀ"],["audi","tedĀ"],["b","atchĀ"],["bas","eĀ"],["be","enĀ"],["bo","thĀ"],["c","ameĀ"],["ch","ar"],["ch","o"],["e","tĀ"],["ent","aĀ"],["ever","yĀ"],["f","ol"],["fac","t"],["frac","Ā"],["glo","balĀ"],["ir","sĀ"],["j","sonĀ"],["k","sĀ"],["l","shĀ"],["nu","mb"],["ori","gin"],["p","assĀ"],["phas","eĀ"],["pri","meĀ"],["prox","yĀ"],["pu","bli"],["re","sul"],["scri","ptĀ"],["se","qu"],["sr","cĀ"],["thresh","oldĀ"],["v","en"],["wor","kĀ"],["®","à¥"],["·","à±à°"],["Â","°"],["Â°","Ā"],["à¤",""],["à¤","à¤¤"],["à¤°","à¥Ā"],["à¤","à¤¡"],["à¤","à¤¾à¤²"],["à¤","à¥à¤¯à¤¾Ā"],["à¤¤","à¥"],["à¤ªà¤¾à¤à¤¿à¤¸à¥à¤¤","à¤¾à¤¨Ā"],["à¤­","à¤¿"],["à¤­à¤¾à¤°à¤¤","à¤¾à¤à¥à¤¯à¤¾Ā"],["à¤®","à¥Ā"],["à¤®","à¥"],["à¤°à¥","à¤ª"],["à¤°à¥","Ā"],["à¤µ","à¤¾Ā"],["à¤¸","à¥"],["à¤¹à¥","à¤Ā"],["à¥","à¤ª"],["à¥à¤","¡"],["à°","Ā"],["à°","à°§"],["à°","à°¨à±à°¨"],["à°","à°¾à°¤"],["à°¦","à°¿Ā"],["à°®","à±"],["à°¾à°°","à±Ā"],["à±","à°°"],["à³à²",""],["$","Ā"],["`","Ā"],["a","p"],["al","aĀ"],["an","teĀ"],["at","e"],["at","esĀ"],["be","t"],["ch","esĀ"],["coun","tĀ"],["cre","as"],["di","ver"],["espe","ci"],["fer","ti"],["im","por"],["in","depen"],["ma","in"],["man","yĀ"],["mill","onesĀ"],["mor","eĀ"],["mun","dialĀ"],["ou","t"],["p","yĀ"],["prin","ci"],["si","d"],["st","ru"],["su","m"],["surviv","orsĀ"],["t","osĀ"],["ti","Ā"],["tra","in"],["w","oĀ"],["t","woĀ"],["·à±à°","à±à°°"],["à¤à¤¾à¤","³"],["à¤£","à¥Ā"],["à¤¦","à¤¿à¤¯à¤¾Ā"],["à¤¦","à¥à¤°"],["à¤¦à¥à¤¶","à¥à¤Ā"],["à¤¨à¥à¤¯","à¤¾à¤¯"],["à¤ªà¥à¤°à¤¾à¤","à¥à¤¨Ā"],["à¤®","à¤¾à¤²"],["à¤¯","à¤¸"],["à¤²à¥","à¤"],["à¤¸","à¥"],["à¤¸à¤®","à¤¯Ā"],["à¤¸à¤¾à¤®à¥à¤°à¤¾à¤","à¥à¤¯"],["à¤¹à¥","à¤¤à¤¾Ā"],["à¤¾à¤","Ā"],["à¤²","à¤¿à¤¯"],["à¤¾à¤à¤","à¥à¤¯à¤¾Ā"],["à°","à±à°"],["à°","à°¨"],["à°­","à°¾à°"],["à°°à°¾à°","·à±à°à±à°°"],["à°¿à°","ª"],["à±à°",""],["à²",""],["à²°","Ā"],["à²¿à²","¦"],["20","0Ā"],["ad","esĀ"],["an","sĀ"],["ar","onĀ"],["c","in"],["c","urĀ"],["centr","alĀ"],["com","er"],["congre","ssĀ"],["contro","lĀ"],["ct","orĀ"],["de","fa"],["defa","ul"],["di","re"],["ferti","lityĀ"],["in","putĀ"],["in","v"],["is","mĀ"],["j","ac"],["jo","inĀ"],["lab","elĀ"],["lar","gestĀ"],["m","anĀ"],["ma","j"],["mal","ay"],["mer","g"],["o","ver"],["o","wnĀ"],["pa","irsĀ"],["po","in"],["se","tĀ"],["su","chĀ"],["un","derĀ"],["us","edĀ"],["voc","abĀ"],[" ","à¥Ā"],["¦à¥","¦Ā"],["à¤",""],["à¤à¤§","à¤¿à¤Ā"],["à¤à¤¨","à¥à¤¯Ā"],["à¤","à¤¦"],["à¤","à¥"],["à¤¤","à¥Ā"],["à¤¤","à¥à¤¯Ā"],["à¤¨","à¤¦"],["à¤¬","à¤¢à¤¼"],["à¤¬","à¥"],["à¤®à¤¾à¤","£"],["à¤°","à¥"],["à¤²à¤¾à¤",""],["à¤µà¤¿","à¤¸à¥à¤¤"],["à¤¶à¤¤","à¤¾à¤¬"],["à¤¶à¤¤à¤¾à¤¬","à¥à¤¦"],["à¤¸à¤","à¤¸à¤¦"],["à¤¾à¤à¤","à¤¾Ā"],["à¤¾à¤ª","à¥à¤¤Ā"],["à¤¾à¤®","à¥"],["à¥","à¤·à¥à¤"],["à¥","à¤Ā"],["à¥à¤¶","Ā"],["à°à°","¤à±à°°"],["à°","à°²"],["à°¾à°","¦"],["à±","à°¡"],["à²¨","à³Ā"],["à²¾","Ā"],["4","0Ā"],["an","ne"],["anne","alĀ"],["be","cameĀ"],["c","as"],["c","ri"],["centur","yĀ"],["co","st"],["coun","tsĀ"],["do","esĀ"],["e","i"],["er","i"],["f","ec"],["fi","xĀ"],["g","oĀ"],["em","b"],["g","rou"],["gu","Ā"],["in","creas"],["in","i"],["in","ter"],["indi","osĀ"],["indi","oĀ"],["inf","lu"],["k","eĀ"],["lan","gĀ"],["langu","ageĀ"],["lo","ssĀ"],["lu","guĀ"],["mi","cĀ"],["mi","lit"],["minist","erĀ"],["n","sĀ"],["o","kĀ"],["po","si"],["r","ateĀ"],["r","oĀ"],["ra","wĀ"],["ser","vedĀ"],["st","ar"],["sur","Ā"],["th","ingĀ"],["b","re"],["ti","caĀ"],["to","olĀ"],["v","ingĀ"],["w","est"],["wh","atĀ"],["who","leĀ"],["","à³à²¯"],["­","à¥"],["·","Ā"],["à¤","à¤£"],["à¤","à¤°à¥à¤¥"],["à¤à¤°à¥à¤¥","à¤¿à¤Ā"],["à¤","à¤¸Ā"],["à¤","à¤¤à¥à¤"],["à¤","à¤¶"],["à¤","à¤¾à¤²Ā"],["à¤à¥à¤","¤Ā"],["à¤","à¥à¤"],["à¤à¤¼","à¥Ā"],["à¤¤","à¤®à¤¿"],["à¤¤à¤¿","à¤¶"],["à¤¥à¤¿à¤¯","à¥Ā"],["à¤¦","Ā"],["à¤¬à¥","à¤¦à¥à¤§Ā"],["à¤°à¤¾à¤à¥à¤¯","à¥à¤Ā"],["à¤°à¤¾à¤·à¥à¤à¥à¤°","à¥à¤¯Ā"],["à¤°à¥à¤","¦"],["à¤²à¤¿","à¤Ā"],["à¤³","Ā"],["à¤µ","à¥Ā"],["à¤µà¤¿à¤§","à¤¾à¤¨Ā"],["à¤µà¥à¤¯à¤µà¤¸à¥à¤¥","à¤¾Ā"],["à¤¸à¤","à¤"],["à¤¸à¤","à¤µà¤¿à¤§à¤¾à¤¨Ā"],["à¤¾à¤","£Ā"],["à¥","Ā"],["à¥à¤¡à¤¼","Ā"],["à°","à°¾à°°"],["à°¤","à°¿Ā"],["à°¨","à±"],["à°ª","à°¾à°"],["à°µ","à°à±à°"],["à°µ","à±à°¯"],["à°µ","Ā"],["à°¾à°","¬"],["à°¿à°","¯"],["à±",""],["à±","à°²"],["à²","à²³"],["à²°","à²¿à²"],["à²¾à²","¨Ā"],["à²¿à²","¸"],["al","sĀ"],["ar","m"],["ar","ti"],["ban","dsĀ"],["bet","we"],["betwe","enĀ"],["car","dĀ"],["char","ac"],["co","stĀ"],["di","rĀ"],["do","wnĀ"],["e","stĀ"],["e","ar"],["er","aĀ"],["et","te"],["ette","erĀ"],["g","pu"],["ga","z"],["gaz","etteerĀ"],["gpu","Ā"],["gr","anĀ"],["h","adĀ"],["is","moĀ"],["jac","cardĀ"],["le","g"],["li","ter"],["mi","llionĀ"],["mu","ch"],["o","p"],["p","osĀ"],["r","angeĀ"],["re","p"],["ro","leĀ"],["s","asĀ"],["se","t"],["si","zeĀ"],["so","ci"],["su","bĀ"],["sub","contin"],["t","re"],["ver","dictĀ"],["ye","arsĀ"],["","Ā"],["Ã¡","Ā"],["à¤","à¤µ"],["à¤à¤§","à¥"],["à¤à¤§à¥","à¤¨à¤¿à¤Ā"],["à¤à¤à¤¡","à¤¿à¤¯à¤¾Ā"],["à¤à¤°","à¤¨à¥Ā"],["à¤","à¥à¤¯à¤¾Ā"],["à¤à¥","à¤¨à¤¾à¤µ"],["à¤","à¥"],["à¤¡","Ā"],["à¤£","à¥à¤¡"],["à¤¤","à¥à¤¤"],["à¤¤à¤¿","à¤¹"],["à¤¦","à¥Ā"],["à¤¦à¥à¤¯","à¥"],["à¤ªà¥à¤°à¥à¤","£Ā"],["à¤¬","à¤¾à¤"],["à¤¬à¥à¤°à¤¿à¤à¤¿","à¤¶Ā"],["à¤­à¤¾à¤","µ"],["à¤­à¤¾à¤°à¤¤","à¤à¥Ā"],["à¤®","à¥"],["à¤®à¥","à¤¦"],["à¤¯à¥","à¤Ā"],["à¤¶","à¤¹"],["à¤¸","à¤­"],["à¤¸","à¥"],["à¤¸à¥à¤¥","à¤¾à¤¨"],["à¤¸à¥à¤µ","à¤¤"],["à¤¹","à¥à¤Ā"],["à¤¾à¤","¡"],["à¤¾à¤","§"],["à¤¿","à¤à¤¾Ā"],["à¥à¤","à¥Ā"],["à¥","à¤·"],["à¥","à¤·"],["à°",""],["à°¦à±à°","§"],["à°¿à°","à°¿Ā"],["à²","à³"],["à²¸à²à²","à³à²¯"],["à³",""],["199","1Ā"],["2","8Ā"],["9","1Ā"],["a","kĀ"],["ade","mÃ¡sĀ"],["al","eĀ"],["an","aĀ"],["ari","oĀ"],["at","ur"],["b","anĀ"],["b","ri"],["bloc","kĀ"],["bre","ak"],["c","es"],["ch","arsĀ"],["ch","i"],["cont","ri"],["contri","bu"],["d","anceĀ"],["d","hiĀ"],["defaul","tĀ"],["des","deĀ"],["e","ur"],["em","pi"],["empi","reĀ"],["eng","thĀ"],["ent","osĀ"],["est","adoĀ"],["est","sĀ"],["fu","eĀ"],["gener","alĀ"],["gh","o"],["o","m"],["g","ro"],["ho","ursĀ"],["hu","manĀ"],["i","cĀ"],["impor","tan"],["k","ist"],["lat","erĀ"],["may","orĀ"],["ol","sĀ"],["p","y"],["pa","kist"],["princi","p"],["pro","te"],["r","an"],["re","la"],["s","ameĀ"],["seg","ÃºnĀ"],["si","gu"],["t","ableĀ"],["th","ou"],["ti","vi"],["u","Ā"],["uni","tsĀ"],["v","esĀ"],["Ã­","Ā"],["Ã³","mi"],["à¤à¤¦","à¤¿"],["à¤","à¤¨à¥à¤¤"],["à¤","à¤°à¥à¤¥"],["à¤à¤à¤à¥à¤°à¥","à¤à¤¼à¥Ā"],["à¤à¤°","à¥à¤¡à¤¼Ā"],["à¤à¤¾à¤°","à¤£Ā"],["à¤à¥à¤¤","à¤¿Ā"],["à¤¦","à¤°à¥à¤"],["à¤¨à¥","à¤¤à¥à¤¤"],["à¤ª","à¥"],["à¤ªà¤¶à¥à¤à¤¿","à¤®Ā"],["à¤­à¥","à¤®à¤¿"],["à¤°","à¤£Ā"],["à¤°","à¤¹à¤¾Ā"],["à¤µà¤¿","à¤µà¤¿à¤§"],["à¤¸","à¥"],["à¤¸à¤¾à¤®à¥à¤°à¤¾à¤","à¥à¤¯Ā"],["à¤¹à¥","à¤Ā"],["à¤¾à¤",""],["à¤¾à¤²","à¥Ā"],["à¤¿à¤¯","Ā"],["à¥","à¤ªĀ"],["à°",""],["à°","à±"],["à°","à±"],["à°","à±à°"],["à°ª","à°¾à°°"],["à°®","à±"],["à°²","à±"],["à°¾à°","¨Ā"],["à°¾à°","¸"],["à°¿à°","¤"],["à±à°","ª"],["à²à³","à²"],["à²­à²¾à²°à²¤","à²¦Ā"],["19","Ā"],["5","1Ā"],["a","st"],["ab","outĀ"],["ar","esĀ"],["at","sĀ"],["be","stĀ"],["bu","dd"],["cast","eĀ"],["cl","assi"],["constitu","tionĀ"],["cont","entĀ"],["d","ateĀ"],["d","ra"],["de","mo"],["g","ra"],["ea","chĀ"],["econ","Ã³mi"],["eng","li"],["engli","shĀ"],["ent","alĀ"],["es","tim"],["est","adosĀ"],["fi","leĀ"],["fu","er"],["gho","stĀ"],["h","ea"],["has","h"],["hi","ghĀ"],["in","doĀ"],["inclu","y"],["k","ingĀ"],["larg","eĀ"],["li","ber"],["ma","xĀ"],["moder","nĀ"],["mul","ti"],["no","teĀ"],["p","at"],["p","lan"],["pe","lineĀ"],["pi","pelineĀ"],["po","derĀ"],["pre","sid"],["pro","pi"],["publi","cĀ"],["r","un"],["regi","on"],["shing","leĀ"],["star","tĀ"],["te","luguĀ"],["the","mĀ"],["ti","esĀ"],["un","d"],["vi","r"],["¹","à¥Ā"],["à¤","à¤"],["à¤","à¤¤à¤°Ā"],["à¤","à¤¾à¤"],["à¤à¥à¤à¤¦","à¥à¤°Ā"],["à¤","à¤°à¤¿"],["à¤°","à¤¹"],["à¤à¥à¤","Ā"],["à¤","à¥à¤"],["à¤à¤¾à¤¤","à¤¿Ā"],["à¤£à¥à¤¯","à¤¾à¤¤Ā"],["à¤¤","à¤¸à¥"],["à¤¤à¤¸à¥","à¤Ā"],["à¤¦","à¤¶"],["à¤¨","à¤¹à¥à¤Ā"],["à¤¨à¤¿à¤°à¥à¤®","à¤¾à¤£Ā"],["à¤¨à¥à¤","¹"],["à¤ª","à¥"],["à¤«","Ā"],["à¤¬","à¤à¤"],["à¤¬","à¤¦"],["à¤¬","à¥à¤"],["à¤¬à¤¾à¤","Ā"],["à¤­à¤¾à¤",""],["à¤®à¤à¤¤à¥à¤°","à¥Ā"],["à¤®à¤§","à¥à¤¯Ā"],["à¤°à¥","à¤¨Ā"],["à¤²","à¥à¤¯"],["à¤¸à¤","à¤à¥à¤¯à¤¾Ā"],["à¤¸à¤à¤¸à¥à¤","à¥à¤¤"],["à¤¸à¤à¤¸à¥à¤","à¥à¤¤Ā"],["à¤¸à¥à¤¥","à¤¾à¤¨Ā"],["à¤¹à¥","à¤¤à¥Ā"],["à¤¹à¥","à¤¤à¥Ā"],["à¤¾à¤","Ā"],["à¤¿","à¤à¤¾à¤°"],["à¥à¤",""],["à¥à¤","ª"],["à¥à¤°","à¥"],["à°","à°à°¦à°¿Ā"],["à°à°¨à±à°¨","à°¾à°¯à°¿Ā"],["à°","à±à°°"],["à°à±à°",""],["à°à°¾à°¤","à±à°¯Ā"],["à°¤","à±à°¤"],["à°¦à±à°¶","à°¾à°²"],["à°¨à±à°","¨Ā"],["à°®","à°§"],["à°®à°¾à°°","à±à°"],["à°µà±à°¯","à°µ"],["à°¸à±à°","µ"],["à°¿","à°à°¦"],["à±à°",""],["à±à°","®"],["à²","à²¨"],["à²¨","à³à²"],["à²ª","à²¾à²"],["actu","allyĀ"],["ad","minist"],["al","seĀ"],["ali","z"],["ami","lĀ"],["ar","ro"],["b","aj"],["bloc","kedĀ"],["c","al"],["c","allĀ"],["c","anĀ"],["c","en"],["c","tionsĀ"],["ca","u"],["ch","edĀ"],["cl","assĀ"],["co","de"],["co","o"],["co","ur"],["com","par"],["d","aysĀ"],["dire","ct"],["e","dadĀ"],["ef","fec"],["el","dĀ"],["em","entĀ"],["pl","ac"],["em","er"],["en","si"],["f","alseĀ"],["f","ami"],["fe","der"],["fre","qĀ"],["gan","dhiĀ"],["h","anĀ"],["h","e"],["hi","malay"],["id","enti"],["inf","oĀ"],["is","ationĀ"],["j","pĀ"],["b","jpĀ"],["l","hiĀ"],["de","lhiĀ"],["m","enĀ"],["m","inĀ"],["manufac","tur"],["mu","gh"],["n","onĀ"],["ne","edĀ"],["ne","wĀ"],["no","i"],["noi","seĀ"],["o","fi"],["o","therĀ"],["or","tedĀ"],["or","Ã­aĀ"],["p","as"],["p","li"],["po","lÃ­"],["popul","ationĀ"],["r","ul"],["r","ur"],["re","pres"],["ri","caĀ"],["s","ingĀ"],["s","ortedĀ"],["shing","lesĀ"],["si","Ã³nĀ"],["stat","esĀ"],["t","amilĀ"],["t","enĀ"],["ter","sĀ"],["the","yĀ"],["tim","erĀ"],["tivi","tyĀ"],["to","kĀ"],["tr","ans"],["tur","aĀ"],["v","oĀ"],["west","ernĀ"],["©","à¥"],["à¤","à¤°"],["à¤à¤¨à¥","à¤¸à¤¾à¤°Ā"],["à¤","à¤Ā"],["à¤","à¥"],["à¤à¥à¤°","à¤®"],["à¤","à¥"],["à¤à¥à¤",""],["à¤","à¤¾Ā"],["à¤¤","à¤¾à¤"],["à¤¦à¤à¥à¤·à¤¿","à¤£"],["à¤¨à¤¿","à¤°"],["à¤¨à¥à¤¤à¥à¤¤","à¥à¤µĀ"],["à¤¨à¥à¤","¨"],["à¤ª","à¥à¤¤Ā"],["à¤ªà¥à¤°","à¤§à¤¾à¤¨"],["à¤¬","à¤¨à¤¾à¤"],["à¤­à¤¾à¤·à¤¾à¤","à¤Ā"],["à¤®à¤¹","à¤¾à¤¦"],["à¤®à¤¹","à¤¾à¤°"],["à¤®à¥à¤","à¥à¤¯Ā"],["à¤¯à¥","à¤¥"],["à¤µà¤°à¥à¤",""],["à¤¸à¤","à¤¬à¤à¤§"],["à¤¸à¤°","à¤à¤¾à¤°"],["à¤¹à¤¿","à¤®à¤¾à¤²"],["à¤¾à¤",""],["à¤¾à¤","£"],["à¥à¤·","Ā"],["à¥à¤","¨"],["à°","à°¤"],["à°à°§","à°¿à°"],["à°à°§à°¿à°","à°¾à°°"],["à°","à±à°°"],["à°","à°¿Ā"],["à°ª","à°¾à°²"],["à°ª","à±Ā"],["à°¸à±à°¥","à°¾à°¨"],["à°¿à°","¸"],["à±à°","à°¾Ā"],["à±à°","¸"],["à²",""],["à²","à³à²"],["à²à²¨","à²¸à²à²à³à²¯"],["à²¨à³à²","¨"],["à²¿à²¦","à³Ā"],["à³à²",""],["3","5Ā"],["an","osĀ"],["v","o"],["ar","tĀ"],["as","u"],["b","ac"],["be","ingĀ"],["c","am"],["ca","tionĀ"],["ci","oĀ"],["classi","calĀ"],["co","l"],["com","pan"],["cre","ci"],["cro","ssĀ"],["cu","entr"],["d","asĀ"],["de","cl"],["di","r"],["di","st"],["duplic","ateĀ"],["dur","anteĀ"],["e","astĀ"],["em","br"],["en","cesĀ"],["en","cuentr"],["en","doĀ"],["fact","orĀ"],["fe","stĀ"],["fin","alĀ"],["flo","psĀ"],["for","ma"],["g","anĀ"],["g","ar"],["gro","w"],["h","indi"],["hindi","Ā"],["hist","ori"],["in","do"],["inclu","dingĀ"],["indepen","d"],["ke","e"],["l","ad"],["l","engthĀ"],["la","p"],["le","ftĀ"],["le","gi"],["lon","gĀ"],["low","ingĀ"],["mani","f"],["mani","festĀ"],["manufactur","ingĀ"],["mat","chesĀ"],["mugh","alĀ"],["na","tionalĀ"],["nor","thĀ"],["numb","erĀ"],["or","gan"],["par","lam"],["ra","j"],["re","main"],["ri","cul"],["se","le"],["si","caĀ"],["so","l"],["t","Ã©"],["th","ereĀ"],["th","ernĀ"],["th","rou"],["ti","calĀ"],["po","li"],["u","p"],["ur","banĀ"],["val","ueĀ"],["w","arĀ"],["wh","oĀ"],["wo","uldĀ"],["","Ā"],["","Ā"],["Ã¡","ni"],["Ãº","l"],["à¤","à¤¶"],["à¤à¤£","à¤¿Ā"],["à¤","à¤à¤"],["à¤","à¤¤à¤¿à¤¹"],["à¤","à¤¸à¥à¤²"],["à¤à¤¸","à¤à¥Ā"],["à¤à¤¶","à¤¿à¤¯à¤¾Ā"],["à¤à¤°","à¤£Ā"],["à¤à¤¾à¤","¹à¥Ā"],["à¤à¤¾à¤°","à¥à¤¯"],["à¤","à¤ "],["à¤","à¥"],["à¤à¤¿à¤¤à¥à¤°à¤ª","à¤Ā"],["à¤à¥à¤¨à¤¾à¤µ","à¥à¤Ā"],["à¤¤","à¤¿à¤Ā"],["à¤¤à¥à¤°","Ā"],["à¤¦à¤¶","à¤Ā"],["à¤¦à¤¿","à¤²à¥à¤²"],["à¤¦à¥à¤","¦"],["à¤¨","à¤¿à¤¯"],["à¤¨à¥à¤","§"],["à¤ªà¤°","à¥à¤¯"],["à¤ªà¤¾à¤°","à¥à¤"],["à¤ªà¥à¤°","à¤à¤¾à¤¤à¥Ā"],["à¤ªà¥à¤°","à¤¾à¤ªà¥à¤¤Ā"],["à¤¬à¥à¤","Ā"],["à¤­","à¤Ā"],["à¤®à¤¹à¤¾à¤¦","à¥à¤µ"],["à¤®à¥","à¤ "],["à¤¯à¤¸","à¤à¥Ā"],["à¤²à¤","à¤­à¤Ā"],["à¤µ","à¤¨Ā"],["à¤µ","à¥à¤Ā"],["à¤µà¤°à¥à¤","¤"],["à¤µà¤¾à¤","¦"],["à¤µà¤¿","à¤¦à¥à¤¯"],["à¤µà¤¿à¤µà¤¿à¤§","Ā"],["à¤¶à¤¾à¤¸","à¤¿à¤¤Ā"],["à¤¸à¤à¤¸à¤¦","Ā"],["à¤¸à¤à¤¸à¥à¤à¥à¤¤","à¤¿Ā"],["à¤¸à¤®","à¤¾à¤"],["à¤¹à¤¿","à¤à¤¦"],["à¤¾à¤","·à¥à¤"],["à¤¾à¤","à¤®à¤§à¥à¤¯à¥Ā"],["à¤¾à¤¤","à¥à¤®"],["à¤¿","à¤®Ā"],["à¤¿à¤¯","à¤¾à¤Ā"],["à¥","à¤¨"],["à¥","à¤¯"],["à¥à¤","à¥à¤¯à¤¾Ā"],["à°","³"],["à°","à°¨à±à°¨"],["à°","à°¾à°²"],["à°","à±à°¡"],["à°¦à±à°¶","à°Ā"],["à°ªà°¾à°",""],["à°°à±","à°²à±Ā"],["à°¾à°","à°¤"],["à°¿à°","µ"],["à°¿à°","¸à±à°¤"],["à°¿à°²","à±à°²"],["à±à°","à±"],["à±","à°²"],["à±à°","¨"],["à²","¤Ā"],["à²¤à³à²¤","à³Ā"],["à²°","à³"],["à³",""],["196","5Ā"],["197","1Ā"],["3","1Ā"],["4","2Ā"],["5","5Ā"],["9","6Ā"],["ab","sĀ"],["ag","ricul"],["am","ongĀ"],["ambi","gu"],["ar","e"],["ar","mĀ"],["at","aĀ"],["audi","tĀ"],["b","har"],["a","ti"],["b","rit"],["be","ganĀ"],["break","downĀ"],["brit","Ã¡ni"],["c","yĀ"],["ca","pĀ"],["cau","seĀ"],["ch","in"],["com","pu"],["com","uni"],["con","ver"],["di","v"],["docu","mentsĀ"],["docu","mentĀ"],["e","j"],["econo","micĀ"],["econom","Ã­aĀ"],["ensi","tivityĀ"],["epo","chĀ"],["es","ti"],["ex","por"],["ex","tr"],["er","oĀ"],["fami","li"],["for","mĀ"],["gr","and"],["grou","pĀ"],["h","am"],["m","aĀ"],["h","ereĀ"],["i","esĀ"],["im","peri"],["in","d"],["j","oĀ"],["k","ri"],["l","in"],["la","pĀ"],["la","y"],["li","tĀ"],["m","en"],["manif","estsĀ"],["may","orÃ­aĀ"],["mi","embr"],["min","hashĀ"],["mu","si"],["nor","m"],["nor","teĀ"],["ori","tyĀ"],["out","putĀ"],["over","lapĀ"],["p","un"],["pe","o"],["pen","in"],["po","olĀ"],["po","w"],["prob","esĀ"],["ra","ti"],["ru","leĀ"],["s","ensitivityĀ"],["s","ing"],["se","qĀ"],["sh","i"],["s","or"],["sh","o"],["sist","em"],["so","cialĀ"],["so","meĀ"],["sp","litĀ"],["st","re"],["st","y"],["tiv","oĀ"],["tr","yĀ"],["uni","onĀ"],["vi","e"],["we","i"],["we","stĀ"],["Ãºl","tim"],["à¤à¤","à¤¾Ā"],["à¤à¤à¥à¤°à¥","à¤¸Ā"],["à¤à¤¡","Ā"],["à¤","à¤®"],["à¤à¤°","à¤¬Ā"],["à¤à¤§","à¤¿à¤à¤¾à¤°"],["à¤à¤§à¤¿à¤à¤¾à¤°","à¤¿à¤Ā"],["à¤","à¤¨Ā"],["à¤","à¤¨"],["à¤à¥","à¤à¤à¥à¤°à¥à¤¸Ā"],["à¤à¥à¤","à¥Ā"],["à¤à¥à¤·à¥à¤¤à¥à¤°","à¥à¤¯Ā"],["à¤","Ā"],["à¤à¤£","à¤°à¤¾à¤à¥à¤¯Ā"],["à¤à¤°à¤¿","à¤à¤à¥Ā"],["à¤","à¥à¤·"],["à¤","à¥à¤¨Ā"],["à¤","à¥Ā"],["à¤","à¥à¤¯"],["à¤à¤¾à¤¤","à¥Ā"],["à¤à¥","à¤¨Ā"],["à¤à¥à¤",""],["à¤¦","à¥"],["à¤§","à¥"],["à¤¨à¤¾à¤",""],["à¤¨à¥à¤","¨Ā"],["à¤ª","à¤¡à¤¼"],["à¤ªà¤°","à¤¿"],["à¤ªà¥","à¤°"],["à¤ªà¥à¤°","à¤¾à¤°"],["à¤ªà¥à¤°à¤§à¤¾à¤¨","à¤®à¤à¤¤à¥à¤°à¥Ā"],["à¤ªà¥à¤°à¤¾à¤°","à¤®à¥à¤"],["à¤¬","à¥"],["à¤®","à¤¨"],["à¤®à¤§","à¥à¤²Ā"],["à¤®à¤¹à¤¾à¤°","à¤¾à¤·à¥à¤"],["à¤¯","à¤¾à¤¸Ā"],["à¤¯","à¥"],["à¤°à¥à¤ª","à¤®à¤¾Ā"],["à¤µ","à¤°Ā"],["à¤µà¤¾à¤","¦Ā"],["à¤µà¤¾à¤","¯"],["à¤µà¥à¤¯","à¤¾à¤ª"],["à¤¶à¤¤à¤¾à¤¬à¥à¤¦","à¥Ā"],["à¤¶à¤¿à¤à¥à¤·","à¤£"],["à¤¸","à¤¾Ā"],["à¤¸","à¤¿à¤¯"],["à¤¸à¤­","à¤¾Ā"],["à¤¸à¤¾à¤¹à¤¿","à¤¤à¥à¤¯Ā"],["à¤¸à¥à¤µà¤¤","à¤à¤¤à¥à¤°"],["à¤¹à¤°à¥","à¤²à¥Ā"],["à¤¾à¤","à¤¨à¥Ā"],["à¤¾à¤à¤","à¥Ā"],["à¤¾à¤¨","à¤¾Ā"],["à¤¾à¤°à¥à¤","¥"],["à¥","à¤¤Ā"],["à¥","à¤²"],["à¥","à¤¨"],["à°","à°¾Ā"],["à°","à±"],["à°¦","à°à±à°·"],["à°ª","à°à°"],["à°ª","à°°"],["à°ª","à±à°°"],["à°ªà±à°°","à°§"],["à°ªà±à°°","à°¾à°à°¤"],["à°®à°§","à±à°¯Ā"],["à°®à±","à°¦"],["à°°à±à°","µ"],["à°¸à±à°","¤"],["à°¹","à°¿à°à°¦"],["à°¾à°¨","à±Ā"],["à±","à°µ"],["à±","à°à°¡"],["à±à°¯","à°Ā"],["à²à²","¤"],["à²¨à³à²¨","à³Ā"],["à²ªà²¾à²",""],["à²µ","à²¾à²"],["à³à²","¥"],["1","4Ā"],["201","4Ā"],["3","6Ā"],["3","7Ā"],["4","4Ā"],["al","l"],["am","pĀ"],["ambigu","ousĀ"],["an","ingĀ"],["an","zaĀ"],["ar","iĀ"],["au","ment"],["b","ceĀ"],["b","ra"],["be","lowĀ"],["bi","diĀ"],["budd","hi"],["c","allyĀ"],["c","ciÃ³nĀ"],["c","la"],["c","lo"],["ch","e"],["ci","vi"],["con","vir"],["coun","terĀ"],["cr","Ã­"],["de","du"],["de","fin"],["dedu","pĀ"],["der","e"],["dif","fer"],["e","cu"],["effec","tiveĀ"],["entr","asĀ"],["er","e"],["er","r"],["er","raĀ"],["eur","o"],["fi","edĀ"],["gan","g"],["i","calĀ"],["i","di"],["in","tĀ"],["increas","edĀ"],["indi","asĀ"],["j","an"],["langu","agesĀ"],["legi","s"],["low","erĀ"],["m","emb"],["me","asu"],["merg","esĀ"],["mi","entrasĀ"],["min","u"],["mu","stĀ"],["mu","sul"],["nu","ev"],["nu","mĀ"],["o","ursĀ"],["otr","osĀ"],["p","aĀ"],["p","h"],["p","ur"],["s","am"],["pakist","anĀ"],["par","tyĀ"],["penin","sul"],["peo","pleĀ"],["poin","tsĀ"],["pow","erĀ"],["pro","beĀ"],["qu","e"],["re","cor"],["re","pe"],["ro","undĀ"],["sc","aleĀ"],["sin","ceĀ"],["sor","tĀ"],["st","ateĀ"],["stat","usĀ"],["t","ex"],["t","lyĀ"],["thou","ghĀ"],["throu","ghĀ"],["u","pĀ"],["ur","ban"],["vie","wĀ"],["z","w"],["","Ā"],["«à¥","¦Ā"],["¸","Ā"],["Ã­","asĀ"],["Ä",""],["à¤",""],["à¤","à¤ª"],["à¤","à¤«"],["à¤","à¤­"],["à¤à¤°à¥à¤¥","à¤µà¥à¤¯à¤µà¤¸à¥à¤¥à¤¾Ā"],["à¤","à¤ª"],["à¤","à¤¤à¤°Ā"],["à¤à¤ª","à¤®à¤¹à¤¾à¤¦à¥à¤µ"],["à¤","à¤"],["à¤à¤¾à¤²","à¥à¤¨Ā"],["à¤à¥","à¤²à¥Ā"],["à¤à¥à¤·","Ā"],["à¤","à¤¿"],["à¤à¤¿à¤¤à¥à¤°à¤ª","à¤"],["à¤","à¤"],["à¤","à¤°à¤¾à¤"],["à¤à¤¨","à¤à¤¾à¤¤à¤¿Ā"],["à¤","à¤¾à¤²à¤¾Ā"],["à¤","à¤à¥à¤à¥Ā"],["à¤","à¥Ā"],["à¤¢à¤¼","Ā"],["à¤£","à¥Ā"],["à¤¤","à¥à¤²Ā"],["à¤¦","à¥"],["à¤§","à¥Ā"],["à¤¨","à¥à¤¯Ā"],["à¤¨à¥à¤¯à¤¾à¤¯","à¤¾à¤²"],["à¤ª","à¤à¤"],["à¤ª","à¤¹à¤¿"],["à¤ª","à¤¾à¤²"],["à¤ªà¤°","à¤®à¤¾à¤£"],["à¤ªà¤°à¤®à¤¾à¤£","à¥Ā"],["à¤ªà¥à¤°","à¤£"],["à¤ªà¥à¤°","à¤¤à¥à¤¯"],["à¤¬","à¤¿"],["à¤¬","à¥"],["à¤­","à¤°"],["à¤­à¥à¤®à¤¿","à¤à¤¾Ā"],["à¤®","à¤¾à¤°"],["à¤®à¥à¤","¹"],["à¤¯à¥","à¤¦à¥à¤§Ā"],["à¤°","à¥à¤¯Ā"],["à¤°à¤à¥à¤·","à¤¾Ā"],["à¤²","à¤¾à¤²Ā"],["à¤²","à¤¿à¤¯à¤¾Ā"],["à¤²à¤¿à¤¯","à¥Ā"],["à¤µ","à¤"],["à¤·à¥à¤"," "],["à¤¸à¤®","à¤¾à¤µ"],["à¤¸à¤®à¤¾à¤","Ā"],["à¤¸à¤¾à¤®","à¤¾à¤"],["à¤¸à¤¾à¤®à¤¾à¤","à¤¿à¤Ā"],["à¤¸à¥","à¤¨à¥à¤¯Ā"],["à¤¸à¥à¤",""],["à¤¹","à¤¾à¤²"],["à¤¾à¤à¤","à¥Ā"],["à¤¾à¤¤","à¤¾Ā"],["à¤¿","à¤²"],["à¥","¬à¥"],["à¥","à¤°Ā"],["à¥","à¤°"],["à°à°²","à±"],["à°","à°¯"],["à°","à°°"],["à°¦à°à±à°·","à°¿à°"],["à°¦à±à°","¦"],["à°¨","à±Ā"],["à°ªà°¾à°°","à±à°"],["à°®à±","à°"],["à°°","à±Ā"],["à°°à°¾à°","à±à°¯"],["à°°à±à°","ª"],["à°°à±à°","²"],["à°µà°¾à°","£"],["à°¾à°",""],["à°¾à°","­"],["à°¾à°","µ"],["à°¾à°¤","à±à°°"],["à°¾à°¨","à°¿à°à°¿Ā"],["à°¿","à°à°"],["à°¿à°","à°¾Ā"],["à°¿à°¯","à°¾Ā"],["à±","à°¨"],["à²","·"],["à²à³à²","à²¿Ā"],["à²","à³à²"],["à²ªà²¾à²","à²¿à²¸"],["à²ªà²¾à²à²¿à²¸","à³à²¤"],["à²ªà²¾à²à²¿à²¸à³à²¤","à²¾à²¨Ā"],["à²°","à³Ā"],["à²¾à²","µ"],["à²¿à²",""],["à³","Ā"],["0","1Ā"],["1","0"],["1","0Ā"],["1","2Ā"],["1","6Ā"],["7","2Ā"],["200","1Ā"],["202","2Ā"],["4","3Ā"],["5","9Ā"],["6","00Ā"],["a","ver"],["ab","haĀ"],["ac","ro"],["ac","ti"],["ac","yĀ"],["acro","ssĀ"],["ad","dingĀ"],["administ","ra"],["an","deĀ"],["an","ti"],["ari","aĀ"],["ari","osĀ"],["arro","ll"],["as","aĀ"],["at","ingĀ"],["aÃ±","oĀ"],["bac","kĀ"],["be","com"],["bli","caĀ"],["bri","ti"],["briti","shĀ"],["c","cionesĀ"],["c","ru"],["ca","ciÃ³nĀ"],["ca","pi"],["can","di"],["charac","tersĀ"],["chin","aĀ"],["co","ali"],["co","paĀ"],["com","b"],["compan","yĀ"],["con","du"],["con","si"],["contin","ueĀ"],["cro","s"],["cur","r"],["d","ar"],["d","enceĀ"],["d","ri"],["de","ve"],["der","i"],["dere","ch"],["des","arroll"],["deve","lo"],["di","vi"],["dup","esĀ"],["dÃ©","cadaĀ"],["econom","yĀ"],["en","s"],["en","z"],["ent","alesĀ"],["est","ab"],["est","asĀ"],["est","Ã¡Ā"],["euro","pe"],["ex","Ā"],["re","g"],["feder","alĀ"],["fol","lowingĀ"],["g","arĀ"],["g","erĀ"],["g","n"],["ge","o"],["gr","andeĀ"],["hindu","Ā"],["i","lityĀ"],["ab","ilityĀ"],["in","edĀ"],["ing","sĀ"],["j","ain"],["k","no"],["ke","tĀ"],["l","en"],["l","lĀ"],["le","v"],["li","dĀ"],["m","atchĀ"],["m","lĀ"],["ma","keĀ"],["maj","orĀ"],["mer","oĀ"],["minist","roĀ"],["musul","man"],["n","ingĀ"],["w","ar"],["n","Ãº"],["ne","verĀ"],["no","lo"],["nor","thernĀ"],["nÃº","meroĀ"],["o","urĀ"],["p","oĀ"],["par","li"],["par","tĀ"],["parli","am"],["paÃ­","sesĀ"],["peninsul","arĀ"],["per","oĀ"],["peri","odĀ"],["pl","aceĀ"],["pl","anĀ"],["popul","arĀ"],["posi","tionsĀ"],["pr","acti"],["r","am"],["re","ci"],["re","du"],["re","publicĀ"],["remain","ingĀ"],["rur","alĀ"],["s","abhaĀ"],["s","an"],["s","ans"],["s","mĀ"],["se","ctorĀ"],["se","ver"],["si","deĀ"],["si","k"],["si","Ā"],["sing","leĀ"],["sp","aceĀ"],["ta","gĀ"],["ten","i"],["the","seĀ"],["thre","eĀ"],["tim","esĀ"],["train","ingĀ"],["u","mĀ"],["uni","tedĀ"],["uni","tĀ"],["v","aĀ"],["vi","daĀ"],["vi","ol"],["¯","à¤¾Ā"],["±","à¥à¤¯à¤¾Ā"],["Ãº","blicaĀ"],["à¤","Ā"],["à¤","à¤¤Ā"],["à¤","à¤"],["à¤","à¤®à¥"],["à¤","à¤¸à¥Ā"],["à¤à¤®à¥","à¤°à¤¿"],["à¤","à¤Ā"],["à¤","à¤¦"],["à¤à¤¦","à¤¾à¤¹"],["à¤","à¤°Ā"],["à¤","à¥à¤Ā"],["à¤à¤¿","à¤²à¥à¤²"],["à¤à¥","à¤Ā"],["à¤à¥","à¤¨à¥à¤¦"],["à¤à¥","à¤µ"],["à¤","à¤Ā"],["à¤","à¥à¤²"],["à¤à¥","à¤ªà¥à¤¤Ā"],["à¤","à¤²"],["à¤","à¤¾à¤°Ā"],["à¤","à¤¨à¥Ā"],["à¤","à¤¹"],["à¤","à¤¾Ā"],["à¤à¤¨","à¤¸à¤à¤à¥à¤¯à¤¾Ā"],["à¤¡","à¥"],["à¤¥","à¥Ā"],["à¤¦à¤¿à¤²à¥à¤²","à¥Ā"],["à¤¦à¥à¤µ","à¥à¤ªĀ"],["à¤§à¥","à¤°à¥Ā"],["à¤¨","à¤µ"],["à¤¨à¤¿","à¤µ"],["à¤¨à¥à¤",""],["à¤ª","à¤¡"],["à¤ª","à¤¾Ā"],["à¤ªà¤¶à¥à¤à¤¿","à¤®à¥Ā"],["à¤ªà¤¹","à¤²à¥Ā"],["à¤ªà¥à¤°","à¤à¤¾à¤°"],["à¤ªà¥à¤°","à¤à¤¾à¤°Ā"],["à¤ªà¥à¤°","à¤­à¤¾à¤µ"],["à¤¬à¤¹à¥","à¤¤Ā"],["à¤­à¤¾à¤","Ā"],["à¤®","à¤à¤¦à¤¿"],["à¤®à¥à¤¹","à¤£"],["à¤¯à¥à¤¥","à¥à¤²Ā"],["à¤°","à¤¿à¤Ā"],["à¤°à¥à¤","¤"],["à¤²","à¥"],["à¤²à¤¾à¤","µ"],["à¤µ","à¤¾à¤¸"],["à¤µà¤°à¥à¤·","à¥à¤Ā"],["à¤¶","à¥"],["à¤¶à¤¾à¤¸","à¥à¤¤"],["à¤¸","à¤¾à¤²Ā"],["à¤¸à¤¦","à¤¸"],["à¤¸à¤®à¤¾à¤µ","à¥à¤¶Ā"],["à¤¸à¤¾à¤","¯"],["à¤¸à¥","à¤®à¤¾Ā"],["à¤¾à¤","¦Ā"],["à¤¾à¤","¬Ā"],["à¤¾à¤","à¤¤Ā"],["à¤¾à¤","à¤¨à¤¾Ā"],["à¤¾à¤¨","à¤à¤¤à¤°Ā"],["à¤¾à¤¨","à¥Ā"],["à¤¿","à¤"],["à¥","©à¥"],["à¥","­à¥"],["à¥","à¤¦"],["à¥à¤¯","à¤¤à¤¾Ā"],["à¥§à¥¯à¥","¯à¥"],["à°à°","¤"],["à°à°¦","à±à°°"],["à°à°²à±","à°¨à°¿Ā"],["à°","à°¤à°°"],["à°","à°¦à°¿Ā"],["à°","à°¨à±à°¨Ā"],["à°","à±"],["à°à±","à°à°¦à±à°°"],["à°à°¨","à°¾à°­"],["à°ªà±à°°","à±Ā"],["à°ªà±à°°","à°ªà°à°"],["à°ªà±à°°","à°­"],["à°ªà±à°°à°­","à±à°¤"],["à°ªà±à°°à°­à±à°¤","à±à°µ"],["à°¬","à°¡"],["à°®","à°¤"],["à°µ","à±"],["à°¸","à°­"],["à°¾à°",""],["à°¿à°","°"],["à°¿à°à°","à°¿à°à°¦à°¿Ā"],["à±","à°¸"],["à±","à°·"],["à±à°²","à±Ā"],["à²®","à²¤à³à²¤à³Ā"],["à²°","à³Ā"],["à²µ","Ā"],["à²¾à²","·"],["à²¿à²à²","¦Ā"],["0","4Ā"],["2","7Ā"],["200","8Ā"],["200","9Ā"],["201","2Ā"],["201","6Ā"],["201","8Ā"],["3","3Ā"],["3","8"],["9","3Ā"],["ad","u"],["ag","ain"],["ag","e"],["again","stĀ"],["am","sĀ"],["an","ci"],["an","yĀ"],["anci","entĀ"],["and","am"],["ar","goĀ"],["at","oĀ"],["sul","tan"],["be","causeĀ"],["beng","alaĀ"],["bi","r"],["c","ambi"],["ca","usedĀ"],["can","notĀ"],["can","on"],["canon","icalĀ"],["ci","d"],["ci","ud"],["cle","aningĀ"],["co","lon"],["com","enz"],["com","ple"],["con","sist"],["con","sum"],["convir","ti"],["creci","mientoĀ"],["cros","s"],["cross","fa"],["crossfa","deĀ"],["crÃ­","qu"],["crÃ­qu","etĀ"],["cul","arĀ"],["de","sigu"],["de","ter"],["decl","ar"],["develo","p"],["di","gi"],["diver","si"],["do","min"],["e","dedĀ"],["e","du"],["e","ligi"],["ele","ctionĀ"],["em","enteĀ"],["emb","argoĀ"],["ent","sĀ"],["est","ampĀ"],["estim","atedĀ"],["ex","tre"],["extr","aĀ"],["for","eĀ"],["fu","eronĀ"],["fu","lĀ"],["w","a"],["g","aĀ"],["gang","esĀ"],["gh","tsĀ"],["h","al"],["h","ru"],["himalay","asĀ"],["hru","Ā"],["i","mĀ"],["idi","om"],["il","ingĀ"],["in","ste"],["in","tro"],["incluy","enĀ"],["inste","adĀ"],["intro","du"],["is","edĀ"],["is","ticĀ"],["k","an"],["kno","wnĀ"],["kri","tĀ"],["l","arĀ"],["l","astĀ"],["l","nĀ"],["lad","derĀ"],["le","yĀ"],["li","f"],["lu","garĀ"],["mi","x"],["miembr","osĀ"],["mo","deĀ"],["much","asĀ"],["ne","hruĀ"],["o","esteĀ"],["ob","sĀ"],["of","fi"],["or","der"],["p","addingĀ"],["pa","dĀ"],["pa","Ã±"],["per","son"],["pi","iĀ"],["pla","y"],["presid","enteĀ"],["princip","alesĀ"],["pro","ven"],["proven","anceĀ"],["pun","j"],["py","th"],["pyth","onĀ"],["re","a"],["re","d"],["ac","tĀ"],["re","fer"],["re","form"],["re","ser"],["re","viewĀ"],["regi","onĀ"],["region","alĀ"],["rep","ÃºblicaĀ"],["repres","ent"],["ri","verĀ"],["run","sĀ"],["s","arĀ"],["s","osĀ"],["sans","kritĀ"],["se","con"],["sele","ctorĀ"],["set","defaultĀ"],["sh","edĀ"],["ab","o"],["shar","dsĀ"],["si","sĀ"],["sig","loĀ"],["sistem","aĀ"],["so","cialesĀ"],["st","erĀ"],["stat","sĀ"],["ste","pĀ"],["subcontin","enteĀ"],["t","ab"],["t","ak"],["t","resĀ"],["tim","estampĀ"],["tra","v"],["tradi","cion"],["trav","Ã©sĀ"],["tur","alĀ"],["uni","Ã³nĀ"],["v","ementĀ"],["v","enĀ"],["ve","zĀ"],["wh","yĀ"],["","à³Ā"],["¦","à³"],["¦à¥","¦à¥"],["§","à¥à¤¯"],["Ã¡","ti"],["Ã­","n"],["Ãº","sicaĀ"],["m","ÃºsicaĀ"],["à¤","à¤"],["à¤","à¤¤à¤¿à¤¶"],["à¤","à¤¥"],["à¤à¤ª","à¤¨à¥Ā"],["à¤","à¤"],["à¤à¤à¤","à¥à¤°"],["à¤","à¤¦à¥à¤¯à¥"],["à¤à¤¤à¥à¤","ª"],["à¤","à¤µ"],["à¤","à¤«Ā"],["à¤à¤¾à¤","®"],["à¤à¤¾à¤°","à¥Ā"],["à¤à¥","à¤²Ā"],["à¤à¥","à¤²à¥Ā"],["à¤à¥à¤à¤¦","à¥à¤°"],["à¤","à¤à¤à¤¾Ā"],["à¤","à¤¾à¤"],["à¤à¥","à¤à¤°à¤¾à¤"],["à¤","à¤¾à¤²"],["à¤","à¤¸"],["à¤à¥","à¤¨Ā"],["à¤","à¤¾à¤²à¥Ā"],["à¤","à¥"],["à¤","à¥Ā"],["à¤£","à¤¾Ā"],["à¤¤","à¥à¤¯à¤¾Ā"],["à¤¤à¤®à¤¿","à¤²Ā"],["à¤¦","à¤¾Ā"],["à¤¦","à¥à¤·à¥à¤"],["à¤¦à¤°à¥à¤","¶"],["à¤¨","à¥"],["à¤¨à¤¾à¤","¡"],["à¤¨à¤¾à¤","®"],["à¤¨à¥à¤¤","à¥Ā"],["à¤ª","à¤°à¥à¤µ"],["à¤ª","à¤¾à¤"],["à¤ª","à¤¾à¤¸Ā"],["à¤ª","à¥à¤²"],["à¤ªà¤¾à¤²","à¤¿à¤à¤¾Ā"],["à¤ªà¥à¤°à¥à¤µ","à¥Ā"],["à¤ªà¥à¤°","à¤¤à¤¿"],["à¤ªà¥à¤°","à¤¯à¤¾à¤¸Ā"],["à¤ªà¥à¤°","à¤¾à¤£"],["à¤ªà¥à¤°à¤£","à¤¾à¤²à¥Ā"],["à¤¬","à¤¢"],["à¤¬","à¤¨à¥Ā"],["à¤¬","à¤¾à¤°Ā"],["à¤¬","à¥à¤"],["§","Ā"],["à¤¬à¤à¤§","à¤¨Ā"],["à¤­","à¤à¤à¥Ā"],["à¤­à¤¾à¤°à¤¤","à¥à¤¯"],["à¤­à¤¿","à¤¨à¥à¤¨Ā"],["à¤®","à¤¤Ā"],["à¤®","à¤°à¤¾à¤"],["à¤®","à¥à¤¯"],["à¤®à¤¿","à¤³"],["à¤¯à¥","à¤à¥à¤¤Ā"],["à¤°à¤¾à¤","à¤¨à¥"],["à¤²à¤¾à¤","à¤¿Ā"],["à¤²à¥","à¤²à¥à¤¯à¤¾Ā"],["à¤µ","à¤°"],["à¤µà¤¿à¤¦à¥à¤¯","à¤¾à¤°à¥à¤¥"],["à¤µà¤¿à¤¸à¥à¤¤","à¤¾à¤°Ā"],["à¤¶","à¥à¤·Ā"],["à¤¸","à¤¿à¤¤Ā"],["à¤µà¤¿","à¤"],["à¤µà¤¿à¤","à¤¸à¤¿à¤¤Ā"],["à¤¸à¤","à¤"],["à¤¸à¤à¤¬à¤à¤§","Ā"],["à¤¸à¤®","à¥à¤°"],["à¤¸à¤®à¥à¤°","à¤¾à¤Ā"],["à¤¸à¤°à¥à¤µ","à¥"],["à¤¸à¥à¤","Ā"],["à¤¸à¥à¤¥à¤¾à¤ª","à¤¨à¤¾Ā"],["à¤¸à¥à¤µ","à¤°à¥à¤ªĀ"],["à¤¹à¤¿à¤®à¤¾à¤²","à¤¯Ā"],["à¤¾à¤",""],["à¤¾à¤","à¤¡"],["à¤¾à¤","à¥Ā"],["à¤¾à¤®","à¥Ā"],["à¤¾à¤®à¥","à¤"],["à¥à¤¯","à¤¾à¤¨à¥Ā"],["à¤¾à¤®à¥","à¤³à¥Ā"],["à¤¾à¤¸","à¤¾à¤"],["à¤¾à¤¹","à¤°à¥"],["à¥","ªà¥"],["à¥","«à¥"],["à¥","à¤"],["à¥","à¤Ā"],["à¥à¤¯","à¥Ā"],["à¥¨à¥","¦à¥¦à¥"],["à°à°",""],["à°à°¤","à±à°¯"],["à°","à°°à±à°"],["à°","à±"],["à°","à±"],["à°","à±à°²"],["à°¦","à±à°°"],["à°¦","à±à°µ"],["à°¨à°¿à°","°"],["à°ª","à°°à°¿à°"],["à°ª","à±à°ª"],["à°ªà±à°°","à°"],["à°­à°¾à°°à°¤","à±à°¯Ā"],["à°­à°¾à°°à°¤à°¦à±à°¶","à°à°²à±Ā"],["à°®","à±Ā"],["à°®à°¾à°°à±à°","à°¾à°²à±Ā"],["à°®à±","à°¨Ā"],["à°µ","à°°à±à°"],["à°µà°à±à°","à°¿à°à°¦à°¿Ā"],["à°¶","à°¾à°"],["à°¸","à°®"],["à°¸","à°°à°¿à°"],["à°¾à°²","Ā"],["à°¿à°","®"],["à±","à°¨à±à°¨"],["à±à°","à±"],["à±à°","¡"],["à±à°","¦"],["à²",""],["à²","§"],["à²","¯"],["à²¨","à³"],["à³","à²¸"],["à³à²","¯"],["à³","à²¶"],["1","6"],["19","51Ā"],["196","2Ā"],["199","8Ā"],["2","9Ā"],["201","0Ā"],["201","3Ā"],["3","00Ā"],["3","9Ā"],["4","0"],["5","2Ā"],["5","4Ā"],["6","2Ā"],["6","3Ā"],["7","0Ā"],["7","6Ā"],["a","cionesĀ"],["abo","veĀ"],["ac","cor"],["accor","dingĀ"],["age","timerĀ"],["al","g"],["an","im"],["an","tesĀ"],["an","tsĀ"],["ang","edĀ"],["ar","chi"],["as","hĀ"],["as","onĀ"],["as","ser"],["ate","lyĀ"],["b","h"],["b","y"],["bas","edĀ"],["ber","n"],["bi","llionĀ"],["bo","lĀ"],["sy","m"],["sym","sĀ"],["bo","olĀ"],["bra","h"],["c","ab"],["c","adoĀ"],["c","lĀ"],["c","ra"],["c","Ã¡"],["ce","ilingĀ"],["cen","susĀ"],["ci","asĀ"],["cl","Ã¡"],["cla","im"],["code","pointsĀ"],["comer","cioĀ"],["con","fi"],["confi","denceĀ"],["consi","der"],["coun","tryĀ"],["cu","andoĀ"],["d","en"],["d","in"],["de","se"],["des","pu"],["desarroll","oĀ"],["dese","m"],["despu","Ã©sĀ"],["di","dĀ"],["ea","st"],["ear","li"],["el","lĀ"],["en","cedĀ"],["en","cyĀ"],["en","u"],["ent","ementeĀ"],["est","aĀ"],["est","osĀ"],["ex","i"],["ex","ist"],["f","ur"],["flo","atĀ"],["g","yĀ"],["g","Ã­aĀ"],["gener","ateĀ"],["go","bern"],["grand","esĀ"],["grow","thĀ"],["gu","asĀ"],["h","eldĀ"],["ha","ciaĀ"],["ho","we"],["ho","wĀ"],["howe","verĀ"],["hu","man"],["i","ldĀ"],["bu","ildĀ"],["i","oĀ"],["i","tem"],["imperi","oĀ"],["in","stru"],["indu","stri"],["item","sĀ"],["jo","in"],["k","erĀ"],["k","in"],["kee","pĀ"],["l","y"],["lap","sedĀ"],["li","tesĀ"],["licen","sesĀ"],["lif","eĀ"],["lo","gi"],["m","sĀ"],["m","us"],["ma","ch"],["ma","inĀ"],["mar","ri"],["merg","edĀ"],["milit","aryĀ"],["mus","li"],["musi","cĀ"],["n","at"],["n","aĀ"],["n","f"],["no","thingĀ"],["numb","ersĀ"],["o","ci"],["o","per"],["o","sasĀ"],["on","ceĀ"],["or","alĀ"],["origin","alĀ"],["p","al"],["pa","in"],["parlam","entoĀ"],["pe","akĀ"],["pi","bĀ"],["pi","calĀ"],["pl","ateĀ"],["pla","inĀ"],["plac","aĀ"],["polÃ­","ti"],["prin","tĀ"],["pro","por"],["pro","vi"],["prote","ctedĀ"],["rati","oĀ"],["re","asonĀ"],["re","pĀ"],["re","spe"],["resul","tĀ"],["s","pi"],["sam","pleĀ"],["se","ededĀ"],["se","enĀ"],["secon","dĀ"],["si","aĀ"],["st","agetimerĀ"],["st","ashĀ"],["st","aĀ"],["sti","llĀ"],["subcontin","entĀ"],["sultan","ateĀ"],["t","asaĀ"],["t","asĀ"],["u","bi"],["u","di"],["v","asĀ"],["v","sĀ"],["w","ayĀ"],["wi","th"],["wo","menĀ"],["wor","stĀ"],["z","asĀ"],["","à¤Ā"],["","à³à²"],["¦à¥","¦à¥¦Ā"],["ªà¥","­Ā"],["¹","à°¦à±à°¦"],["Ã­","sti"],["à¤",""],["à¤","à¤¹Ā"],["à¤à¤","Ā"],["à¤à¤¤","à¥Ā"],["à¤","à¤²"],["à¤à¤¤à¤¿à¤¶","à¤¯Ā"],["à¤à¤¥","à¤µà¤¾Ā"],["à¤à¤§à¤¿","à¤à¤¾à¤"],["à¤à¤§à¤¿à¤à¤¾à¤","à¤¶Ā"],["à¤à¤ª","à¤¨à¥Ā"],["à¤","à¤à¥à¤°à¤®"],["à¤à¤§","à¤¾à¤°"],["à¤","Ā"],["à¤à¤¸","à¥Ā"],["à¤","à¤¸à¤¾Ā"],["à¤à¤¦à¤¾à¤¹","à¤°à¤£Ā"],["à¤","à¤¹"],["à¤à¤°","à¤¨à¤¾Ā"],["à¤","à¤°à¥à¤"],["à¤","à¤°Ā"],["à¤à¤ ","à¤¬à¤à¤§à¤¨Ā"],["à¤à¤°","à¥Ā"],["à¤","à¤¨à¤¾Ā"],["à¤","à¥à¤"],["à¤","à¤¬"],["à¤","à¤¯"],["à¤","à¥"],["à¤à¤¿","à¤¨"],["à¤","à¤¾à¤²"],["à¤¤à¥à¤¤","à¥à¤µ"],["à¤¦","à¤¿à¤Ā"],["à¤¦","à¥à¤¨"],["à¤¦à¥à¤¶","à¥Ā"],["à¤§","à¤¾à¤°"],["à¤¨","à¥à¤¤"],["à¤¨à¤¾à¤",""],["à¤¨à¤¿","à¤­à¤¾à¤Ā"],["à¤¨à¥à¤¤","à¥à¤¯Ā"],["à¤¨à¥à¤","Ā"],["à¤¨à¥à¤¤","à¥à¤°"],["à¤ª","à¤"],["à¤ªà¤°","à¤à¤¤à¥Ā"],["à¤ªà¤¾à¤°à¥à¤","à¥Ā"],["à¤ªà¥","à¤°à¤¾à¤"],["à¤ªà¥à¤°","à¤¸à¤¿"],["à¤ªà¥à¤°","à¤¾à¤"],["à¤ªà¥à¤°à¤¤à¥à¤¯","à¥à¤Ā"],["à¤ªà¥à¤²","à¥"],["à¤ªà¥à¤²à¥","à¤Ā"],["à¤«","à¤¼"],["à¤¬","à¤°"],["à¤¬à¤¡à¤¼","à¤¾Ā"],["à¤¬à¤¡à¤¼","à¥Ā"],["à¤­à¤¾à¤","Ā"],["à¤­à¤¾à¤","à¤ªà¤¾Ā"],["à¤®","à¤¸"],["à¤®","à¤¾à¤°à¥à¤"],["à¤®","à¤¾à¤°Ā"],["à¤®","à¥"],["à¤®à¤¾à¤","§à¥à¤¯"],["à¤®à¥","à¤¸à¥à¤²"],["à¤®à¥à¤","à¥à¤¯"],["à¤®à¥à¤¦","à¤¾à¤¨Ā"],["à¤®à¥","à¤°à¥à¤¯Ā"],["à¤®à¥à¤","ª"],["à¤®à¥à¤","¬"],["à¤¯","à¤¹"],["à¤¦","à¥Ā"],["à¤¯à¥","à¤¦à¥à¤§"],["à¤°à¤¹","à¥Ā"],["à¤°à¤¾à¤à¤¨à¥","à¤¤à¤¿à¤Ā"],["à¤°à¤¾à¤·à¥à¤","à¥à¤°Ā"],["à¤°à¥","à¤ª"],["à¤°à¥à¤",""],["à¤°à¥à¤","·Ā"],["à¤²","à¥"],["à¤³","à¥Ā"],["à¤µ","à¥"],["à¤µ","à¥Ā"],["à¤µà¤°à¥à¤","Ā"],["à¤µà¤¾à¤","¹"],["à¤µà¤¾à¤¦","à¥Ā"],["à¤µà¤¿","à¤­à¤¿à¤¨à¥à¤¨Ā"],["à¤µà¤¿à¤","à¤¾à¤¸Ā"],["à¤µà¥","à¤"],["à¤µà¥","à¤¦à¤¿à¤Ā"],["à¤¶","à¤à¥à¤¤à¤¿Ā"],["à¤¶","à¤¾à¤"],["à¤·à¥à¤","£"],["à¤¸","à¤à¥à¤"],["à¤¸","à¤£Ā"],["à¤¸","à¤²"],["à¤¸","à¤¾à¤°"],["à¤¸","à¥à¤°"],["à¤¸à¤","à¤¯à¥à¤à¥à¤¤Ā"],["à¤¸à¤®","à¥à¤ª"],["à¤¸à¤°à¥à¤µ","à¤¾à¤§"],["à¤¸à¤°à¥à¤µà¤¾à¤§","à¤¿à¤Ā"],["à¤¸à¤°à¥à¤µà¥","à¤à¥à¤Ā"],["à¤¸à¤¾à¤¹à¤¿","à¤¤à¥à¤¯"],["à¤¸à¤¿","à¤à¤¹Ā"],["à¤¸à¥","à¤°à¥"],["à¤¸à¥à¤°à¥","à¤µ"],["à¤¸à¥à¤","®"],["à¤¸à¥à¤µà¤¤à¤à¤¤à¥à¤°","à¤¤à¤¾Ā"],["à¤¹","à¤¥à¤¿à¤¯"],["à¤¹","à¤°"],["à¤¹à¤¾à¤²","à¤¾à¤"],["à¤¹à¤¾à¤²à¤¾à¤","à¤à¤¿Ā"],["à¤¹à¤¿","à¤"],["à¤¾à¤",""],["¹","Ā"],["à¤¾à¤","®Ā"],["à¤¾à¤","Ā"],["à¤¾à¤®","à¤§"],["à¤¾à¤®","à¤¾Ā"],["à¤¾à¤¸","à¥à¤¨Ā"],["à¤¾à¤¸à¤¾à¤"," à¥Ā"],["à¥",""],["à¥","à¤°à¥Ā"],["à¥","à¤¨"],["à¥","à¤¤à¥à¤¯"],["à¥à¤²","à¤¨Ā"],["à¥à¤","¨Ā"],["à¥à¤®","à¥à¤°Ā"],["à¥à¤¯","à¤¾à¤¤Ā"],["à¥à¤¯","à¥Ā"],["à¥§à¥","¦Ā"],["à¥§à¥","ªĀ"],["à¥§à¥¯à¥","­à¥"],["à°","«"],["à°à°¡","à°¿Ā"],["à°","à°à°¡"],["à°","à°¤à±à°¤"],["à°","à°ª"],["à°","à°°à±à°ª"],["à°","à°°"],["à°","à°¾à°"],["à°à°¾à°","à°à±à°°"],["à°à°¾à°à°à±à°°","à±à°¸"],["à°","à±"],["à°à°°","à°¿à°"],["à°¤","à±Ā"],["à°¤","à±à°µ"],["à°¦à°à±à°·à°¿à°","£"],["à°¦à±à°","¦Ā"],["à°¨","à±"],["à°ª","à°à±à°"],["à°¬","à±à°°"],["à°­à°¾à°",""],["à°­à°¾à°","·"],["à°®","à°à°¤à±à°°"],["à°°","à°µà°¾à°£"],["à°°","à±à°à°¡"],["à°°","Ā"],["à°°à°µà°¾à°£","à°¾Ā"],["à°²","à±Ā"],["à°µ","à°¿Ā"],["à°¸","à°¿à°à°"],["à°¸","à±"],["à°¸à°°à°¿à°","¹à°¦à±à°¦"],["à°¾à°",""],["à°¾à°¬","à±à°¦"],["à°¿à°",""],["à±","à°à°¦à°¿Ā"],["à±à°¨","à°¿Ā"],["à²",""],["à²",""],["à²","£"],["à²à²¨à²¸à²à²à³à²¯","à³Ā"],["à²­à²¾à²°","à²¤Ā"],["à²®","à³"],["à²°à³à²","µ"],["à²¹","à³à²"],["à²¹","à³"],["à²¹à³à²","à³à²"],["à²¿","à²°à³"],["à³","à²"],["à³à²","¦"],["â","²"],["â²","Ā"],["1","2"],["198","0Ā"],["199","9Ā"],["3","91Ā"],["4","00Ā"],["4","8Ā"],["5","3Ā"],["a","iĀ"],["a","th"],["ab","aj"],["actu","alĀ"],["ad","ingĀ"],["ad","orĀ"],["ain","sĀ"],["an","cesĀ"],["an","nedĀ"],["ar","getĀ"],["are","asĀ"],["as","h"],["ri","Ā"],["au","Ā"],["aument","oĀ"],["b","al"],["baj","oĀ"],["be","foreĀ"],["beng","al"],["bo","s"],["by","teĀ"],["c","adasĀ"],["c","li"],["ca","p"],["candi","dateĀ"],["centur","iesĀ"],["ch","angedĀ"],["ch","angeĀ"],["ch","arĀ"],["cin","coĀ"],["co","mi"],["co","uldĀ"],["com","paÃ±"],["comb","inedĀ"],["compaÃ±","Ã­aĀ"],["contribu","t"],["ct","osĀ"],["cu","alĀ"],["cu","entaĀ"],["cul","tyĀ"],["d","adesĀ"],["d","allĀ"],["d","av"],["d","ayĀ"],["d","pĀ"],["d","r"],["de","ci"],["demo","cra"],["deter","min"],["di","aĀ"],["di","enteĀ"],["di","oĀ"],["dif","fi"],["diffi","cultyĀ"],["dir","nameĀ"],["dis","pu"],["e","ctĀ"],["e","lapsedĀ"],["ear","lyĀ"],["east","ernĀ"],["ele","ccionesĀ"],["ele","ctionsĀ"],["ele","gi"],["eligi","bleĀ"],["em","ple"],["emer","g"],["en","ni"],["encuentr","aĀ"],["enu","mer"],["enumer","ateĀ"],["especi","allyĀ"],["especi","esĀ"],["ev","alĀ"],["ex","ce"],["ex","pan"],["ex","ten"],["ex","ter"],["exac","tlyĀ"],["extre","m"],["f","lu"],["f","rĀ"],["fe","asi"],["fi","caĀ"],["fin","dallĀ"],["fo","urĀ"],["form","edĀ"],["frac","tionĀ"],["g","osĀ"],["j","u"],["g","pusĀ"],["g","ru"],["gener","atedĀ"],["gr","Ã¡"],["gu","erraĀ"],["h","er"],["h","y"],["hab","i"],["tan","tesĀ"],["hab","l"],["ham","br"],["hash","esĀ"],["hea","pĀ"],["hi","gh"],["identi","calĀ"],["idiom","asĀ"],["in","cĀ"],["in","te"],["indi","ansĀ"],["ing","re"],["ir","dĀ"],["is","lam"],["j","a"],["k","aĀ"],["k","esĀ"],["k","i"],["kin","dĀ"],["la","ti"],["lar","esĀ"],["li","mi"],["li","z"],["liter","acyĀ"],["lon","gerĀ"],["ma","h"],["mach","ineĀ"],["maj","orityĀ"],["mb","resĀ"],["measu","redĀ"],["memb","ersĀ"],["minu","tesĀ"],["mix","tureĀ"],["mo","vementĀ"],["nacion","alesĀ"],["nf","cĀ"],["ni","v"],["no","mb"],["no","min"],["oc","cid"],["or","din"],["organ","iz"],["otr","asĀ"],["p","hi"],["p","tionĀ"],["parti","dosĀ"],["parti","doĀ"],["po","coĀ"],["po","sedĀ"],["poli","ticalĀ"],["pre","ci"],["pre","fixĀ"],["pri","mer"],["pri","v"],["pro","ces"],["q","sĀ"],["fre","qsĀ"],["qu","esĀ"],["r","at"],["r","atesĀ"],["religi","onsĀ"],["religi","ousĀ"],["ri","ghtĀ"],["rul","esĀ"],["s","al"],["s","ationĀ"],["sc","annedĀ"],["sc","ul"],["scul","p"],["sequ","enceĀ"],["si","onsĀ"],["stre","amĀ"],["t","adosĀ"],["t","ag"],["t","al"],["t","argetĀ"],["t","ari"],["t","fĀ"],["te","ch"],["te","spaceĀ"],["territori","osĀ"],["territori","oĀ"],["th","enĀ"],["th","irdĀ"],["ti","ersĀ"],["ti","lĀ"],["tiv","amenteĀ"],["to","dosĀ"],["tr","abaj"],["train","edĀ"],["tro","picalĀ"],["tÃ©","r"],["u","tfĀ"],["u","ti"],["un","asĀ"],["v","ar"],["val","u"],["ve","ge"],["vi","si"],["wh","enĀ"],["wh","ereĀ"],["whi","tespaceĀ"],["ye","arĀ"],["z","eroĀ"],["~","Ā"],["²","à²¿à²¯"],["à¤","à¤"],["à¤","à¤­à¤¿"],["à¤","à¤°à¥à¤"],["à¤à¤à¤à¥à¤°à¥","à¤à¥Ā"],["à¤","à¤¨à¥à¤¦"],["à¤","à¤²à¥Ā"],["à¤à¤¦","à¤¿Ā"],["à¤à¤§à¤¾à¤°","à¤¿à¤¤Ā"],["à¤à¤¹","à¤¾à¤°"],["à¤à¤¤à¤¿à¤¹","à¤¾à¤¸"],["à¤","à¤­"],["à¤à¤¤à¥à¤¤","à¤°"],["à¤à¤¤à¥à¤¤","à¤°à¥Ā"],["à¤","à¤"],["à¤","à¤Ā"],["à¤","à¥"],["à¤à¤°","à¤¤à¤¾Ā"],["à¤à¤°à¥à¤","Ā"],["à¤à¤¾à¤","¶"],["à¤à¤¾à¤³","à¤¾à¤¤Ā"],["à¤à¤¿","à¤¨à¥à¤¤à¥Ā"],["à¤à¤¿à¤²à¥à¤²","à¤¾Ā"],["à¤","à¤Ā"],["à¤","à¤°à¥à¤¦"],["à¤à¤¾à¤","à¤§à¥Ā"],["à¤à¥à¤°","à¥"],["à¤","à¤²"],["à¤","à¤²à¥"],["à¤à¤¿à¤¸","à¤à¥Ā"],["à¤","à¤¾à¤²à¥Ā"],["à¤¡à¥","à¤²"],["à¤¡à¥à¤²","à¤°Ā"],["à¤£","à¤¾à¤"],["à¤¤","à¥à¤¨Ā"],["à¤¤","à¥à¤²"],["à¤¤à¤¾à¤","à¤¶"],["à¤¤à¤¾à¤à¤¶","à¥Ā"],["à¤¥","à¤¿"],["à¤¦","à¤¾à¤¨Ā"],["à¤¦à¥à¤¨","à¥à¤Ā"],["à¤§","Ā"],["à¤¨à¥","à¤¸à¥à¤¨à¤¾Ā"],["à¤¨à¥à¤¯à¤¾à¤¯à¤¾à¤²","à¤¯Ā"],["à¤¨à¥à¤¹","à¥à¤Ā"],["à¤ª","à¤¾à¤"],["à¤ª","à¤¾à¤¸à¥à¤¨Ā"],["à¤ª","à¤¿Ā"],["à¤ª","à¥"],["à¤ª","à¥"],["à¤ªà¤à¤","à¤¾à¤¬Ā"],["à¤ªà¤¹","à¤¾à¤¡"],["à¤ªà¤¾à¤°","à¤"],["à¤ªà¥","à¤¤à¥à¤°Ā"],["à¤ªà¥","à¤°à¥"],["à¤ªà¥à¤°","à¤¦à¥à¤¶"],["à¤ªà¥à¤°","à¤®à¤¾à¤£"],["à¤ªà¥à¤°","à¤¾à¤®à¥à¤"],["à¤ªà¥à¤°à¤¾à¤®à¥à¤","à¥à¤¯à¤¾à¤¨à¥Ā"],["à¤ªà¥à¤°à¤¾à¤°à¤®à¥à¤","­"],["à¤«","à¥"],["à¤¬","à¤à¥à¤"],["à¤¬","à¤¨Ā"],["à¤¬à¤à¤","à¤¾à¤²Ā"],["à¤¬à¤¡à¤¼","à¥Ā"],["à¤¬à¤¹à¥","à¤¤à¤¾à¤à¤¶à¥Ā"],["à¤¬à¤¹à¥","à¤®à¤¤Ā"],["à¤¬à¤¾à¤","¹"],["à¤¬à¤¾à¤","à¤§"],["à¤­à¤°","à¤¤Ā"],["à¤­à¤¾à¤°à¤¤","à¤®à¤¾Ā"],["à¤®","à¤¨Ā"],["à¤®à¤¹","à¤¾à¤¸"],["à¤®à¤¹à¤¾à¤¸","à¤¾à¤"],["à¤®à¤¾à¤","£Ā"],["à¤®à¤¿","à¤²"],["à¤®à¤¿","à¤¶"],["à¤®à¥","à¤"],["à¤®à¥à¤¸à¥à¤²","à¤¿à¤®Ā"],["à¤®à¥","à¤²Ā"],["à¤®à¥à¤","®"],["à¤¯","à¥Ā"],["à¤¯","à¥Ā"],["à¤¯à¥","à¤Ā"],["à¤°","à¤"],["à¤°à¤¾à¤·à¥à¤à¥à¤°","à¤ª"],["à¤°à¥à¤ª","à¥à¤¯Ā"],["à¤²à¤¾à¤","Ā"],["à¤µ","à¤¨"],["à¤µà¤°à¥à¤¤","à¤®à¤¾à¤¨Ā"],["à¤µà¤¾à¤","ª"],["à¤µà¤¾à¤¯","à¥Ā"],["à¤µà¤¾à¤¸","à¥à¤¤"],["à¤µà¤¿","à¤¦à¥à¤¶à¥Ā"],["à¤µà¤¿à¤¶","à¥à¤µ"],["à¤µà¤¿à¤¸à¥à¤¤","à¥à¤¤Ā"],["à¤µà¥à¤¯","à¥"],["à¤¶","à¥à¤°à¥Ā"],["à¤¶","à¥"],["à¤¶","à¥à¤°à¥"],["à¤¶à¤¤à¤¾à¤¬à¥à¤¦","à¥"],["à¤¶à¤¾à¤¸à¥à¤¤","à¥à¤°"],["à¤¶à¤¿à¤à¥à¤·","à¤£Ā"],["à¤·à¥à¤ ","Ā"],["à¤¸","à¤¨à¥Ā"],["à¤¸","à¤°à¥Ā"],["à¤¸","à¤¾à¤"],["à¤¸à¤à¤","Ā"],["à¤¸à¤¦","à¤¨Ā"],["à¤¸à¤®","à¥"],["à¤¸à¤¾à¤",""],["à¤¸à¤¿","à¤à¤§"],["à¤¸à¥","à¤°à¥Ā"],["à¤¸à¥à¤¤","à¥à¤°Ā"],["à¤¸à¥à¤¥à¤¾à¤¨","à¤¿à¤Ā"],["à¤¸à¥à¤¥à¤¾à¤ª","à¤¤à¥à¤¯"],["à¤¸à¥à¤µ","à¤¾à¤¤"],["à¤¸à¥à¤µà¤¾à¤¤","à¤à¤¤à¥à¤°"],["à¤¹à¤°à¥","à¤®à¤¾Ā"],["à¤¹à¥","à¤¤Ā"],["à¤¼","à¥Ā"],["à¤¼","Ā"],["à¤¾à¤¤à¥à¤®","à¤Ā"],["à¤¾à¤¯","à¤¾Ā"],["à¤¾à¤°à¥à¤","¥Ā"],["à¤¿à¤¯","à¥Ā"],["à¥","à¤à¤°à¤£Ā"],["à¥à¤","à¥Ā"],["à¥","à¤°Ā"],["à¥à¤¯","à¥à¤Ā"],["à¥§à¥","¨Ā"],["à¥§à¥","©Ā"],["à¥§à¥","«Ā"],["à¥§à¥","®à¥"],["à¥§à¥¯à¥","«à¥¦Ā"],["à¥§à¥¯à¥","¬à¥"],["à¥§à¥¯à¥","®à¥"],["à°","¢"],["à°à°","¬"],["à°à°¤à±à°¯","à°§"],["à°à°¤à±à°¯à°§","à°¿à°Ā"],["à°à°¤à°°","Ā"],["à°","à°à°"],["à°","à°"],["à°","à°Ā"],["à°à°¾à°°","à°Ā"],["à°","à°à°à°¾Ā"],["à°µ","à±"],["à°","à°²Ā"],["à°à±","à°¸"],["à°à°¨à°¾à°­","à°¾Ā"],["à°¡","à±Ā"],["à°¡","à±à°¡"],["à°¦","à°¾à°°"],["à°¦à±à°§","à°¿Ā"],["à°¨","à°¡"],["à°ª","à±"],["à°ªà°¾à°°à±à°","à±Ā"],["à°ªà±à°°","à°¤"],["à°ªà±à°°à°§","à°¾à°¨Ā"],["à°°","à±"],["à°°à°¾à°·à±à°à±à°°","à°ª"],["à°°à±à°",""],["à°µ","à°²"],["à°µà°¿à°","¸à±à°¤"],["à°µà±à°¯à°µ","à°¸à±à°¥"],["à°¸","à°¾à°®"],["à°¾à°",""],["à°¾à°¨","à±à°¨à°¿Ā"],["à°¾à°µ","à°°"],["à°¿à°",""],["à°¿à°","¤à±à°°"],["à°¿à°à°","à°¿Ā"],["à°¿à°¨","à±à°"],["à°¿à°¨à±à°","¨Ā"],["à°¿à°²","à±Ā"],["à±","Ā"],["à±","à°¦à±à°§à°¿Ā"],["à±à°¯","à°¾à°²"],["à²",""],["à²","¨Ā"],["à²","à²¤"],["à²à³à²","·Ā"],["à²¨","à²"],["à²ª","à³à²°"],["à²²","à²à³à²·Ā"],["à²µ","à²°"],["à²µ","à²²"],["à²µ","à²¿à²"],["à²¸","à³à²¥"],["à²¹","à³à²¸"],["à²¹à³","à²à²¦"],["à²¾à²","²"],["à²¿à²","Ā"],["à²¿à²","²à²¿à²¯"],["à²¿à²°à³","à²µĀ"],["à³",""],["à³","à²²"],["!","Ā"],["1","000Ā"],["199","0Ā"],["2","8"],["200","4Ā"],["200","7Ā"],["202","1Ā"],["202","3Ā"],["3","2Ā"],["4","1Ā"],["5","00Ā"],["5","7Ā"],["5","8Ā"],["6","8"],["9","0Ā"],["a","tionsĀ"],["ac","ces"],["ad","amenteĀ"],["ad","oresĀ"],["ad","v"],["ag","enti"],["agenti","cĀ"],["ai","lĀ"],["al","re"],["ali","zeĀ"],["am","pli"],["ang","esĀ"],["ar","a"],["li","Ā"],["ar","o"],["as","s"],["at","roĀ"],["atur","eĀ"],["aver","ageĀ"],["b","andĀ"],["baj","aĀ"],["beng","alĀ"],["bloc","ksĀ"],["bo","d"],["britÃ¡ni","coĀ"],["buddhi","stĀ"],["c","tr"],["c","tureĀ"],["can","onĀ"],["car","ri"],["cas","eĀ"],["ci","almenteĀ"],["ci","doĀ"],["ci","tiesĀ"],["ci","tyĀ"],["ciud","adesĀ"],["cl","as"],["cle","anĀ"],["co","ast"],["co","dingĀ"],["co","lĀ"],["code","dataĀ"],["colon","i"],["com","mer"],["comer","cialesĀ"],["compar","is"],["comparis","onĀ"],["con","oci"],["con","se"],["constitu","ciÃ³nĀ"],["contin","u"],["contribut","orĀ"],["convirti","Ã³Ā"],["cul","turalĀ"],["cÃ¡","mar"],["cÃ¡mar","aĀ"],["d","lyĀ"],["d","ram"],["de","nĀ"],["de","sig"],["de","st"],["de","v"],["demo","cr"],["derech","osĀ"],["di","al"],["digi","tĀ"],["direct","lyĀ"],["dist","asĀ"],["diversi","tyĀ"],["du","leĀ"],["duplic","atesĀ"],["dÃ©","cadasĀ"],["dÃ©","mi"],["e","lyĀ"],["e","qu"],["e","qui"],["e","th"],["e","ti"],["e","zĀ"],["am","e"],["em","poĀ"],["en","d"],["en","dÃ©mi"],["en","i"],["encuentr","anĀ"],["enni","umĀ"],["ens","aĀ"],["ent","aryĀ"],["ent","lyĀ"],["ent","on"],["enton","cesĀ"],["er","esĀ"],["ever","y"],["ex","ecu"],["f","arĀ"],["f","und"],["f","yĀ"],["feasi","bleĀ"],["flu","shĀ"],["forma","tĀ"],["fr","on"],["fuer","zaĀ"],["fur","therĀ"],["g","dpĀ"],["g","nĀ"],["g","ol"],["gan","Ã³Ā"],["gr","adu"],["gre","wĀ"],["gru","posĀ"],["gu","i"],["h","andĀ"],["h","or"],["h","ou"],["h","t"],["ha","staĀ"],["hea","p"],["hindu","ismĀ"],["hist","oryĀ"],["ht","mlĀ"],["i","lu"],["i","so"],["id","xĀ"],["importan","tesĀ"],["in","form"],["inclu","deĀ"],["indepen","dienteĀ"],["influ","encedĀ"],["inv","ol"],["ist","asĀ"],["ist","aĀ"],["j","ec"],["j","eresĀ"],["j","un"],["jan","ataĀ"],["ju","stĀ"],["l","andĀ"],["l","ing"],["le","ssĀ"],["le","t"],["len","guasĀ"],["ma","kesĀ"],["ma","thĀ"],["man","teni"],["medi","osĀ"],["medi","oĀ"],["mi","dĀ"],["mi","Ā"],["milit","aresĀ"],["mill","enniumĀ"],["min","osĀ"],["mis","sionĀ"],["mo","h"],["mo","vi"],["mu","jeresĀ"],["mu","yĀ"],["musli","mĀ"],["n","alĀ"],["n","ar"],["na","cionesĀ"],["norm","alizeĀ"],["of","fĀ"],["of","tenĀ"],["offi","cialĀ"],["ofi","cialĀ"],["ol","dsĀ"],["op","enĀ"],["or","chĀ"],["or","derĀ"],["ori","entalesĀ"],["par","amsĀ"],["parliam","entaryĀ"],["pat","ter"],["pe","sarĀ"],["per","si"],["plan","nedĀ"],["po","pĀ"],["po","st"],["polÃ­","ticaĀ"],["por","teĀ"],["practi","ceĀ"],["pre","servedĀ"],["pre","tokenĀ"],["priv","ateĀ"],["produ","c"],["produ","ctosĀ"],["pu","aĀ"],["punj","abĀ"],["r","Ã¡"],["ran","kĀ"],["re","be"],["re","co"],["re","produ"],["red","ac"],["refer","enceĀ"],["regi","Ã³nĀ"],["rep","lĀ"],["respe","c"],["ri","s"],["rit","tenĀ"],["s","a"],["s","ariĀ"],["s","pre"],["sc","en"],["se","csĀ"],["se","cularĀ"],["se","tsĀ"],["sequ","encesĀ"],["shar","esĀ"],["shi","pĀ"],["si","doĀ"],["si","mi"],["sp","on"],["stan","dar"],["sty","lesĀ"],["sty","leĀ"],["su","per"],["s","aĀ"],["su","pre"],["sultan","atoĀ"],["survi","veĀ"],["surviv","alĀ"],["t","adoĀ"],["t","orchĀ"],["tak","eĀ"],["ter","mĀ"],["th","arĀ"],["the","astĀ"],["ti","empoĀ"],["tiv","aĀ"],["to","olsĀ"],["to","tĀ"],["to","u"],["tra","inĀ"],["trabaj","oĀ"],["tradi","tionalĀ"],["tu","voĀ"],["tÃ©r","minosĀ"],["uni","codedataĀ"],["up","aĀ"],["us","esĀ"],["vari","osĀ"],["ve","lyĀ"],["vege","tari"],["ver","i"],["vi","ceĀ"],["vi","ct"],["w","aysĀ"],["w","ellĀ"],["w","ingĀ"],["w","onĀ"],["w","rittenĀ"],["wei","ghtĀ"],["who","seĀ"],["x","i"],["i","iĀ"],["","à¤Ā"],["","à¤¤Ā"],["¡","Ā"],["¨","à¤¾à¤"],["¨","à³"],["¶","à±à°°"],["·","à¤¿à¤Ā"],["»","Ā"],["½","Î"],["½Î","´"],["Â","«Ā"],["Â","»Ā"],["Ã","¼"],["Ã¡","n"],["Ã¡","ticaĀ"],["Ã­","co"],["ag","r"],["agr","Ã­co"],["Ãºltim","osĀ"],["Î","½Î´"],["à¤","±à¥à¤¯à¤¾Ā"],["à¤","à¤Ā"],["à¤à¤¦","à¥à¤°"],["à¤","à¤¬Ā"],["à¤","à¤­à¥Ā"],["à¤","à¤¸à¤®"],["à¤à¤«","à¥à¤°à¥"],["à¤à¤«à¥à¤°à¥","à¤à¤¾Ā"],["à¤à¤­","à¤¿à¤¯"],["à¤à¤®","à¤°à¥"],["à¤à¤®à¥à¤°à¤¿","à¤à¤¾Ā"],["à¤à¤µ","à¤§"],["à¤à¤¶","à¥"],["à¤à¤¸","à¤¤à¥Ā"],["à¤à¤¸","à¤²à¥"],["à¤","à¤à¤°à¥à¤"],["à¤","à¤¢"],["à¤","à¤¯Ā"],["à¤à¤à¤°à¥à¤","·"],["à¤à¤¸","à¤à¥Ā"],["à¤à¤¸à¥à¤²","à¤¾à¤®à¥Ā"],["à¤","à¤à¥à¤Ā"],["à¤","à¤ "],["à¤","à¤°à¥à¤¦"],["à¤","à¤¸"],["à¤à¤¦à¥à¤¯à¥","à¤Ā"],["à¤à¤ª","à¤¯à¥à¤Ā"],["à¤à¤ªà¤®à¤¹à¤¾à¤¦à¥à¤µ","à¥à¤ª"],["à¤à¤°à¥à¤¦","à¥Ā"],["à¤","à¤·"],["à¤","à¤à¤Ā"],["à¤","à¤à¤¾Ā"],["à¤","à¤¸à¤¿à¤¯"],["à¤à¤µ","à¤Ā"],["à¤","à¤¡"],["à¤","à¤®à¥à¤ª"],["à¤","à¤®Ā"],["à¤","à¤°à¥à¤¨Ā"],["à¤","à¤²"],["à¤","à¤²à¤¾Ā"],["à¤","à¤¶"],["à¤à¤¡","à¥Ā"],["à¤à¤°","à¤£à¥à¤¯à¤¾à¤¤Ā"],["à¤à¤°","à¤¤à¤¾à¤¤Ā"],["à¤à¤°","à¤¤à¥Ā"],["à¤à¤°à¥à¤","¨à¤¾à¤"],["à¤à¤¶","à¥à¤®à¥à¤°Ā"],["à¤à¥à¤µ","à¤²Ā"],["à¤à¥à¤·","à¤£Ā"],["à¤à¥à¤·","à¤¾Ā"],["à¤","à¤à¥à¤"],["à¤","à¤¤à¤¿Ā"],["à¤","à¤°à¥"],["à¤","à¥à¤Ā"],["à¤à¤¿","à¤à¥Ā"],["à¤à¥à¤·","à¤£à¤¾Ā"],["à¤","à¤³"],["à¤","à¥"],["à¤","à¥"],["à¤à¤³","à¤µ"],["à¤","à¤à¤"],["à¤²","à¥à¤Ā"],["à¤","à¤¬Ā"],["à¤","à¤¾à¤¤Ā"],["à¤","à¤¾à¤¨à¤¾Ā"],["à¤","à¥Ā"],["à¤à¤","à¤¾à¤¤à¥à¤²Ā"],["à¤à¤¬","à¤à¤¿Ā"],["à¤à¤²à¥","à¤¢à¤¼Ā"],["à¤à¤¹","à¤¾à¤Ā"],["à¤à¤¿à¤¸","à¤®à¥à¤Ā"],["à¤","à¥à¤"],["à¤£à¥à¤¡","Ā"],["à¤¤","à¤"],["à¤¤","à¤°"],["à¤¤","à¤¾à¤"],["à¤¤","à¥à¤µ"],["à¤¤à¤¿à¤¶","à¤¤Ā"],["à¤¤à¥à¤",""],["à¤¤à¥à¤¤","à¤°Ā"],["à¤¥à¤¿","à¤à¤à¤Ā"],["à¤¦","à¥"],["à¤¦","à¥"],["à¤¦à¤°à¥à¤",""],["à¤¦à¥à¤","à¤¾Ā"],["à¤¦à¥à¤¯à¥","à¤à¤¿à¤à¥Ā"],["à¤¦à¥à¤°","à¥"],["à¤§","à¥à¤°"],["à¤§à¥à¤°","à¥Ā"],["à¤¨","à¤à¤°Ā"],["à¤¨","à¤¤Ā"],["à¤¨","à¥"],["à¤¨à¤¿à¤°","à¤ªà¥"],["à¤¨à¤¿à¤°à¥à¤®","à¤¿"],["à¤¨à¥à¤¤","à¥à¤°Ā"],["à¤ª","à¤ "],["à¤ª","à¤¨"],["à¤ªà¤¡à¤¼","à¥"],["à¤ªà¤¡à¤¼à¥","à¤¸à¥Ā"],["à¤ªà¤°à¥à¤¯","à¤à¤¤Ā"],["à¤ªà¤°à¥à¤¯","à¤"],["à¤ªà¥","à¤°à¥Ā"],["à¤ªà¥à¤°à¤¾à¤","¤"],["à¤ªà¥à¤°à¥","à¤·"],["à¤ªà¥","à¤à¥Ā"],["à¤ªà¥à¤°","à¤à¤²"],["à¤ªà¥à¤°","à¤¤à¤¿à¤¶à¤¤Ā"],["à¤ªà¥à¤°","à¤¦à¤¾à¤¨Ā"],["à¤ªà¥à¤°","à¤¿à¤¯Ā"],["à¤ªà¥à¤°à¤¸à¤¿","à¤¦à¥à¤§Ā"],["à¤ªà¥à¤°à¤¾à¤£","à¥à¤¯"],["à¤«","à¤²Ā"],["à¤¬","à¤"],["à¤¬","à¤¨à¤¾Ā"],["à¤¬","à¤¨à¥Ā"],["à¤¬","à¤¨à¥à¤§"],["à¤¬","à¥"],["à¤¬à¤¦","à¤²Ā"],["à¤¬à¤¨","à¤¾à¤¨à¥Ā"],["à¤¬à¤¾à¤","à¤à¥à¤²"],["à¤­à¤¾à¤°à¤¤","à¤¾à¤¨à¥Ā"],["à¤­à¥","à¤·"],["à¤®","à¤¤"],["à¤®","à¤¿Ā"],["à¤®à¤¹à¤¾à¤°à¤¾à¤·à¥à¤","à¥à¤°"],["à¤®à¤¹à¤¾à¤°à¤¾à¤·à¥à¤","à¥à¤°Ā"],["à¤®à¤¾à¤¨","à¤¾Ā"],["à¤®à¤¿","à¤²à¤¾Ā"],["à¤®à¤¿","à¤²à¤¿à¤¯"],["à¤®à¤¿à¤²à¤¿à¤¯","à¤¨Ā"],["à¤®à¥à¤","à¤²Ā"],["à¤®à¥","à¤¹"],["à¤®à¥à¤ ","à¥à¤¯à¤¾Ā"],["à¤®à¥à¤¯","à¤¾à¤¨"],["à¤¯","à¤¾à¤¤Ā"],["à¤¯à¥","à¤°à¥à¤ªà¥à¤¯Ā"],["à¤¯à¥","à¤"],["à¤°","à¥à¤¯"],["à¤°à¤¾à¤","®"],["à¤°à¤¾à¤","à¤¸à¥à¤¥à¤¾à¤¨Ā"],["à¤°à¥à¤¥","à¤¨Ā"],["à¤²","à¤¡à¤¼"],["à¤²à¤¾à¤µ","à¤¾Ā"],["à¤µ","à¤¾à¤°à¥à¤"],["à¤µ","à¥à¤"],["à¤µà¤°à¥à¤","£"],["à¤µà¤¾à¤","®"],["à¤µà¤¾à¤°à¥à¤","·à¤¿à¤Ā"],["à¤µà¤¿","à¤µà¤¾à¤¦Ā"],["à¤µà¤¿","à¤·"],["à¤µà¤¿à¤¦à¥à¤¯à¤¾à¤°à¥à¤¥","à¥à¤¯"],["à¤µà¤¿à¤§","à¤¾à¤¯"],["à¤µà¥à¤¯","à¤¾à¤µ"],["à¤µà¥à¤¯à¤¾à¤µ","à¤¸à¤¾à¤¯"],["à¤¶","à¤¾à¤¹"],["à¤¶à¤¹","à¤°à¥Ā"],["à¤¶à¤¾à¤¸","à¤¨"],["à¤¶à¤¿","à¤·à¥à¤"],["à¤¶à¥à¤°à¥","à¤²"],["à¤¸","à¥à¤¨Ā"],["à¤¸à¤","à¤°à¤à¥à¤·"],["à¤¸à¤à¤","à¥à¤¤Ā"],["à¤¸à¤à¤¸à¤¦","à¥à¤¯Ā"],["à¤¸à¤®","à¤¯"],["à¤¸à¤®","à¤°à¥à¤¥à¤¨Ā"],["à¤¸à¤®","à¥à¤"],["à¤¸à¤°","à¥Ā"],["à¤¸à¤²","à¥à¤¤"],["à¤¸à¤²à¥à¤¤","à¤¨à¤¤Ā"],["à¤¸à¤¹","à¤¯à¥à¤Ā"],["à¤¸à¤¾à¤"," à¥Ā"],["à¤¸à¤¿","à¤¨à¥à¤§"],["à¤¸à¥","à¤§à¤¾à¤°"],["à¤¸à¥","à¤¬"],["à¤¸à¥à¤","ª"],["à¤¸à¥à¤","¸"],["à¤¸à¥à¤¤","à¤°Ā"],["à¤¸à¥à¤¥","à¤¿"],["à¤¸à¥à¤®","à¤¾à¤°"],["à¤¹","à¤¸à¥à¤¤"],["à¥à¤","·"],["à¤¹","à¤¾à¤°Ā"],["à¤¹à¤¥à¤¿à¤¯","à¤¾à¤°Ā"],["à¤¹à¤°à¥","à¤²à¤¾à¤Ā"],["à¤¹à¤¿","à¤¸à¥à¤¸"],["à¤¹à¤¿à¤à¤¦","à¥Ā"],["à¤¹à¤¿à¤¨à¥à¤¦","à¥Ā"],["à¤¾à¤","³"],["à¤¾à¤","à¤²Ā"],["à¤¾à¤¤","à¥à¤¨Ā"],["à¤¾à¤¨","à¥à¤Ā"],["à¤¾à¤ª","à¥à¤¤"],["à¤¾à¤¯","à¤Ā"],["à¤¾à¤°","à¥Ā"],["à¤¿","à¤à¤¾à¤"],["à¤¿","à¤°Ā"],["à¥","¦à¥¦à¥¦Ā"],["à¥","©Ā"],["à¥","à¤²à¤¾Ā"],["à¥à¤","à¤¾Ā"],["à¥à¤¶","à¤¨Ā"],["à¥à¤¶","à¤¿à¤¯"],["à¥","à¤°Ā"],["à¥§","à¥§Ā"],["à¥§à¥","¨à¥"],["à¥§à¥","­Ā"],["à¥§à¥","®Ā"],["à¥§à¥¯à¥","ªà¥­Ā"],["à¥¨à¥","¦"],["à¥¨à¥","¨Ā"],["à¥¨à¥","¬Ā"],["à°",""],["à°","£Ā"],["à°à°","ª"],["à°à°","à±à°²"],["à°","à°­"],["à°à°à°¡","à°¿à°¯à°¾Ā"],["à°","à°¾à°"],["à°à°²","à°¿à°"],["à°à°¾à°²","à°à°²à±Ā"],["à°à±à°¡","à°¾Ā"],["à°à±","à°°à±à°"],["à°à±à°°","à°®"],["à°","à°£"],["à°à±","à°à°¦"],["à°£","à°à°à°¾Ā"],["à°¤","à°à°¤à±à°°"],["à°¤","à°¾à°¬à±à°¦"],["à°¤","à±à°¸"],["à°¤à°°","à±"],["à°¤à°°à±","à°µà°¾à°"],["à°¤à°°à±à°µà°¾à°","¤Ā"],["à°¦","à±"],["à°¦à±à°¶","à°à°²à±à°¨à°¿Ā"],["à°¨","à±Ā"],["à°¨à°¡","à°¿à°ª"],["à°¨à°¿à°°","à±à°µ"],["à°¨à±","à°à°¡à°¿Ā"],["à°ª","à°à°¡"],["à°ª","à±"],["à°ªà±à°°","à°à°¾à°°à°Ā"],["à°ªà±à°°","à°¸à±à°¤"],["à°ªà±à°°à°¾à°à°¤","à°¾à°²à±Ā"],["à°¬à±à°°","à°¿à°"],["à°­","à±"],["à°­à°¾à°°à°¤","à±Ā"],["à°®","à°¹"],["à°®à±","à°¦à±à°°"],["à°®à±à°¦","à°à°¿Ā"],["à°°","à°Ā"],["à°°","à°¹"],["à°°à°¹","à°¦à°¾à°°"],["à°°à°¾à°","à°"],["à°°à±à°","¤"],["à°µ","à°°"],["à°µà±à°¯à°µ","à°¸à±à°"],["à°µà±à°¯à°µà°¸à±à°","¥Ā"],["à°¶","à°¤à°¾à°¬à±à°¦"],["à°¶","à±à°°"],["à°¸","à°¾à°"],["à°¸","à°¾à°°"],["à°¸","à±"],["à°¸à°¿à°à°","§"],["à°¸à±","à°à°°"],["à°¸à±à°",""],["à°¾à°²","à±Ā"],["à°¾à°²","à±à°²à±Ā"],["à°¿à°","¤Ā"],["à±","à°ª"],["à±à°à±","à°à°"],["à±","à°ª"],["à±","à°¤"],["à±à°","¥"],["à±à°²","Ā"],["à²","Ā"],["à²","¯Ā"],["à²à²","¡"],["à²à²","¤Ā"],["à²à²¦","à²°à³Ā"],["à²à³à²","à³Ā"],["à²¦","à³à²¶"],["à²¨à³","Ā"],["à²ª","à²¶"],["à²ª","à³"],["à²ªà²¶","à³à²"],["à²ªà²¶à³à²","à²¿à²"],["à²ªà²¶à³à²à²¿à²","®Ā"],["à²ªà³","à²°à³à²µ"],["à²ªà³à²°à³à²µ","Ā"],["à²¬","à³"],["à²®","à²¾à²"],["à²®","à²¿à²²à²¿à²¯"],["à²°","à²²à³à²²à²¿Ā"],["à²µ","à²°à³à²"],["à²µà²²","à²¸"],["à²µà²²à²¸","à³Ā"],["à²µà²¾à²",""],["à²¹","à³"],["à²¾à²",""],["à²¾à²","¨"],["à²¾à²°","à³à²"],["à²¿à²","¤"],["à²¿à²","à²³"],["à³","¨à³"],["à³","ªĀ"],["à³","à²à²¦à²°à³Ā"],["à³à²°","Ā"],["á","¹"],["&","Ā"],["00","0"],["196","0Ā"],["196","1Ā"],["196","7Ā"],["199","6Ā"],["20","19Ā"],["20","2Ā"],["20","6"],["200","3Ā"],["200","6Ā"],["201","7Ā"],["202","6Ā"],["3","8Ā"],["4","5Ā"],["4","8"],["7","7Ā"],["8","6Ā"],["a","irĀ"],["a","stri"],["a","un"],["ac","cĀ"],["ac","tiveĀ"],["ad","edĀ"],["ag","oĀ"],["ag","u"],["agrÃ­co","laĀ"],["al","ber"],["al","im"],["al","isationĀ"],["al","ongĀ"],["al","thoughĀ"],["ami","entoĀ"],["arm","sĀ"],["aro","undĀ"],["arti","fac"],["as","kĀ"],["ash","mi"],["asi","anĀ"],["asi","Ã¡ti"],["at","o"],["at","t"],["aun","queĀ"],["av","esĀ"],["ay","backĀ"],["b","ang"],["b","at"],["b","erĀ"],["b","ol"],["bas","isĀ"],["bhar","atĀ"],["bi","lityĀ"],["bi","ll"],["bi","o"],["bo","tĀ"],["bo","undĀ"],["bod","yĀ"],["bu","il"],["buddhi","smĀ"],["c","ali"],["c","atchĀ"],["c","eraĀ"],["c","tsĀ"],["c","turaĀ"],["cam","pe"],["cambi","osĀ"],["capi","talĀ"],["car","r"],["carr","yĀ"],["cast","asĀ"],["centr","oĀ"],["ch","a"],["ch","an"],["ch","ingĀ"],["ci","esĀ"],["civi","li"],["clo","seĀ"],["coali","ciÃ³nĀ"],["coali","tionĀ"],["col","lap"],["com","posedĀ"],["comenz","Ã³Ā"],["compu","tedĀ"],["compu","teĀ"],["comuni","dadĀ"],["con","di"],["consist","eĀ"],["cont","ainsĀ"],["coo","kedĀ"],["coo","per"],["cor","di"],["cost","aĀ"],["coun","tedĀ"],["cour","tsĀ"],["cre","atedĀ"],["ctr","lĀ"],["cu","atroĀ"],["d","ancesĀ"],["d","anzaĀ"],["d","oneĀ"],["d","ro"],["d","Ã³"],["dat","esĀ"],["dd","leĀ"],["de","ca"],["de","lyĀ"],["de","shĀ"],["declar","edĀ"],["den","o"],["deno","min"],["determin","isticĀ"],["differ","entĀ"],["diver","sasĀ"],["do","mĀ"],["dri","ftĀ"],["dÃ³","laresĀ"],["e","pi"],["e","seĀ"],["e","vi"],["ec","tosĀ"],["econÃ³mi","cosĀ"],["ecu","tivoĀ"],["edu","cationĀ"],["ei","gnĀ"],["ej","ecutivoĀ"],["el","esĀ"],["elegi","doĀ"],["em","pres"],["emer","gen"],["en","codeĀ"],["en","do"],["en","er"],["en","vĀ"],["er","asĀ"],["er","osĀ"],["es","c"],["est","at"],["est","edĀ"],["europe","anĀ"],["exam","pleĀ"],["execu","tiveĀ"],["f","es"],["f","un"],["fa","ilu"],["failu","resĀ"],["famili","esĀ"],["fi","gu"],["fi","veĀ"],["figu","resĀ"],["form","sĀ"],["fu","tureĀ"],["fuer","zasĀ"],["g","am"],["gh","atsĀ"],["gn","mentĀ"],["gra","phi"],["gre","at"],["grou","psĀ"],["grow","ingĀ"],["gu","j"],["ha","vingĀ"],["habi","tantesĀ"],["hash","li"],["hashli","bĀ"],["he","adĀ"],["ho","mbresĀ"],["human","osĀ"],["i","dsĀ"],["i","pĀ"],["importan","teĀ"],["in","forma"],["in","oĀ"],["in","vari"],["incluy","endoĀ"],["independ","enciaĀ"],["independ","entĀ"],["indi","raĀ"],["indu","str"],["industr","yĀ"],["inf","erĀ"],["ing","l"],["ing","lyĀ"],["ingl","Ã©sĀ"],["ini","ti"],["ini","tĀ"],["is","lasĀ"],["j","am"],["jan","u"],["janu","aryĀ"],["k","ashmi"],["k","enĀ"],["b","ro"],["k","u"],["ke","tsĀ"],["l","alĀ"],["l","lan"],["l","or"],["la","tionĀ"],["larg","oĀ"],["lay","ersĀ"],["le","adingĀ"],["le","ar"],["leg","alĀ"],["lev","elĀ"],["li","br"],["li","cĀ"],["li","edĀ"],["li","teĀ"],["li","veĀ"],["lin","e"],["lin","esĀ"],["ling","Ã¼"],["ll","am"],["ll","ingĀ"],["llan","ur"],["lo","kĀ"],["lo","y"],["em","p"],["logi","tsĀ"],["low","edĀ"],["m","allĀ"],["m","askĀ"],["m","hĀ"],["ma","deĀ"],["man","dat"],["mar","ath"],["mar","kerĀ"],["mar","ketĀ"],["mar","yĀ"],["mat","eri"],["me","tr"],["mi","ddleĀ"],["mi","ti"],["mo","diĀ"],["movi","mientoĀ"],["mu","chĀ"],["mu","pĀ"],["multi","pli"],["multipli","erĀ"],["musulman","esĀ"],["n","adaĀ"],["n","extĀ"],["n","jĀ"],["ni","fi"],["nor","mĀ"],["o","ch"],["o","cu"],["o","d"],["o","soĀ"],["o","us"],["oc","cu"],["ofi","cialesĀ"],["on","ingĀ"],["or","o"],["organiz","aciÃ³nĀ"],["out","sideĀ"],["over","ri"],["overri","deĀ"],["p","ac"],["p","elĀ"],["p","eĀ"],["pa","pelĀ"],["pa","tĀ"],["pa","y"],["pain","tingĀ"],["per","man"],["per","mĀ"],["person","asĀ"],["po","olsĀ"],["poin","tĀ"],["post","eri"],["pp","ingĀ"],["pp","lĀ"],["pres","entĀ"],["presid","entĀ"],["produ","ceĀ"],["propi","edadĀ"],["propi","osĀ"],["prox","im"],["r","en"],["r","entaĀ"],["r","on"],["raj","yaĀ"],["re","aliz"],["re","as"],["re","callĀ"],["re","sol"],["re","spon"],["re","writeĀ"],["recor","dedĀ"],["reg","ul"],["regi","onsĀ"],["region","alesĀ"],["rela","cionesĀ"],["reser","veĀ"],["resul","tsĀ"],["retur","nsĀ"],["rÃ¡","pi"],["s","ac"],["s","ang"],["s","bĀ"],["s","che"],["s","mallĀ"],["s","riĀ"],["sculp","tureĀ"],["se","eĀ"],["se","par"],["sever","alĀ"],["si","veĀ"],["sig","losĀ"],["sig","nifi"],["sin","ghĀ"],["so","loĀ"],["so","me"],["stri","pĀ"],["su","peri"],["sub","sequ"],["sy","n"],["t","ar"],["t","selfĀ"],["i","tselfĀ"],["t","t"],["ta","cionesĀ"],["ta","x"],["tan","do"],["te","c"],["te","stĀ"],["tech","nolo"],["ter","ceraĀ"],["territori","esĀ"],["thou","ghtĀ"],["ti","lesĀ"],["tien","enĀ"],["tiv","osĀ"],["to","doĀ"],["tr","aĀ"],["tradi","tionsĀ"],["tradicion","alesĀ"],["tri","b"],["tu","pleĀ"],["u","resĀ"],["u","voĀ"],["est","uvoĀ"],["un","knownĀ"],["un","kĀ"],["un","osĀ"],["un","oĀ"],["un","tilĀ"],["uni","codeĀ"],["urban","aĀ"],["uti","liz"],["v","astĀ"],["v","ol"],["val","leyĀ"],["ver","si"],["ver","sĀ"],["vi","aĀ"],["vi","ll"],["vict","ori"],["voc","ab"],["w","an"],["w","aybackĀ"],["w","entĀ"],["w","in"],["war","mupĀ"],["we","e"],["wei","ghtsĀ"],["whi","leĀ"],["wi","delyĀ"],["wi","deĀ"],["wi","dgetĀ"],["with","inĀ"],["wo","odĀ"],["wor","nĀ"],["wor","thĀ"],["zw","jĀ"],["zw","njĀ"],["","¹Ā"],["","Ā"],["","à¥à¤·"],["","Ā"],["¥","à¤¾à¤¨Ā"],["«à¥","­Ā"],["°","Î½Î´"],["µ","à°¤à±à°¸"],["¶","à¥Ā"],["¸","à³à²¥"],["¸à±à°¤","à±à°°"],["¼","°Î½Î´"],["Ã¡","bi"],["Ã©","n"],["Ã©","ticaĀ"],["Ã­","anĀ"],["Ã­","osĀ"],["Ã­n","di"],["Ã±","osĀ"],["Ã³","gi"],["à¤","à¤Ā"],["à¤","à¤à¤¾Ā"],["à¤","à¤¤à¥Ā"],["à¤à¤¦","Ā"],["à¤à¤¬","à¤Ā"],["à¤","à¤"],["à¤","à¤¤à¥à¤¯"],["à¤","à¤¹à¤¿à¤"],["à¤à¤","à¥à¤¨"],["à¤à¤","à¥à¤¨"],["à¤à¤à¥à¤¨","à¤¹à¥Ā"],["à¤à¤§à¤¿","à¤à¤¾à¤°Ā"],["à¤à¤¨à¥à¤¤","à¤°à¥à¤"],["à¤à¤µ","à¤¶à¥à¤·Ā"],["à¤","à¤"],["à¤","à¤«"],["à¤","à¤²à¥Ā"],["à¤à¤à¤°à¥à¤·","à¤¿à¤¤Ā"],["à¤à¤¢","à¤³"],["à¤à¤§","à¤¾à¤°Ā"],["à¤à¤¨à¥à¤¦","à¥à¤²à¤¨Ā"],["à¤","à¤¨à¥à¤"],["à¤à¤à¤à¥à¤°","à¤à¥Ā"],["à¤à¤¤à¤¿à¤¹","à¤¾à¤¸Ā"],["à¤à¤¸à¥à¤²","à¤¾à¤®Ā"],["à¤","à¤¸à¥à¤Ā"],["à¤à¤ªà¤®à¤¹à¤¾à¤¦à¥à¤µ","à¥à¤ªĀ"],["à¤à¤¸","à¤à¥Ā"],["à¤à¤·","à¤­"],["à¤","à¤¨"],["à¤","à¤ªà¤°"],["à¤à¤ªà¤°","à¥à¤¶à¤¨Ā"],["à¤","à¤³"],["à¤","à¤à¤ª"],["à¤","à¤à¤¿"],["à¤","à¤®à¥Ā"],["à¤","à¤°à¥à¤®"],["à¤","à¤²Ā"],["à¤","à¤¾à¤¨"],["à¤¡","à¥Ā"],["à¤","à¤¿à¤¯à¥Ā"],["à¤à¤¡","à¥à¤²Ā"],["à¤à¤°à¥à¤","¤"],["à¤à¤°à¥à¤¨à¤¾à¤","à¤Ā"],["à¤à¤¹","à¤¤à¥Ā"],["à¤à¤¾à¤","µ"],["à¤à¤¾à¤³","Ā"],["à¤à¤¿","à¤¨"],["à¤à¥","à¤·"],["à¤à¥à¤à¤¦à¥à¤°","à¤¶à¤¾à¤¸à¤¿à¤¤Ā"],["à¤à¥à¤¨à¥à¤¦","à¥à¤°"],["à¤à¥","à¤Ā"],["à¤","à¤¡"],["à¤","à¤¤Ā"],["à¤","à¥à¤µ"],["à¤à¤£","à¤¤"],["à¤à¥à¤à¤°à¤¾à¤","¤Ā"],["à¤à¥","à¤²à¥à¤¯à¤¾Ā"],["à¤à¥à¤·","à¤¿à¤¤Ā"],["à¤","à¥"],["à¤","à¥"],["à¤à¥","à¤à¥Ā"],["à¤","à¤®à¥à¤®"],["à¤","à¤µ"],["à¤","à¤¾à¤¸"],["à¤à¤¨","à¤¤à¤¾Ā"],["à¤à¤¯","à¤à¤¤à¥Ā"],["à¤à¤²","à¤µà¤¾à¤¯à¥Ā"],["à¤à¤¾à¤¤","à¥Ā"],["à¤à¤¾à¤¸","à¥à¤¤Ā"],["à¤à¤¿à¤¸","à¤à¤¾Ā"],["à¤à¥","à¤¸à¥Ā"],["à¤ ","à¤¿à¤à¤¾à¤"],["à¤¡","à¤¾à¤²"],["à¤¡à¤¼","à¤¾Ā"],["à¤¡à¤¾à¤²","à¤°Ā"],["à¤¢","Ā"],["à¤£","à¤¾à¤¤Ā"],["à¤¤","à¤Ā"],["à¤¤","à¤¤à¥à¤"],["à¤¤","à¤®Ā"],["à¤¤","à¤¯"],["à¤¤","à¤°à¥Ā"],["à¤¤à¤¤à¥à¤","à¤¾à¤²"],["à¤¤à¤¤à¥à¤à¤¾à¤²","à¥à¤¨Ā"],["à¤¤à¤®à¤¿","à¤³"],["à¤¤à¤®à¤¿à¤³","à¤¨à¤¾à¤¡"],["à¤¤à¤¯","à¤¾à¤°Ā"],["à¤¤à¤¾à¤","à¤¤à¥à¤°"],["à¤¤à¤¾à¤","à¤®à¤¹"],["à¤¤à¤¿","à¤¨à¥"],["à¤¤à¥","à¤¸à¤°à¥Ā"],["à¤¤à¥à¤","¨Ā"],["à¤¦","à¥"],["à¤¦à¤à¥à¤·à¤¿à¤£","à¥"],["à¤¦à¤°à¥à¤¶","à¤¨Ā"],["à¤¦à¤¿","à¤µ"],["à¤¦à¥à¤·à¥à¤","à¤¿Ā"],["à¤¦à¥","à¤µ"],["à¤¦à¥à¤","à¤¿Ā"],["à¤§","à¤¾à¤°à¥à¤"],["®","à¤¿à¤Ā"],["à¤§à¤¾à¤¨","à¥Ā"],["à¤§à¤¾à¤°à¥à¤","®à¤¿à¤Ā"],["à¤¨","à¥à¤¤à¥à¤¯"],["à¤¨à¤¦","à¤¿à¤¯à¤¾à¤Ā"],["à¤¨à¤¦","à¥Ā"],["à¤¨à¤¾à¤","à¤à¥Ā"],["à¤¨à¤¿","à¤°à¥à¤µ"],["à¤¨à¤¿à¤°à¤ªà¥","à¤à¥à¤·Ā"],["à¤¨à¥","à¤ª"],["à¤¨à¥","à¤¤à¤¿à¤Ā"],["à¤¨à¥à¤","¦Ā"],["à¤¨à¥à¤¦","à¤¾Ā"],["à¤¨à¥à¤¯à¤¾à¤¯","à¤ªà¤¾à¤²à¤¿à¤à¤¾Ā"],["à¤ª","à¤¾à¤µ"],["à¤ªà¤¨","à¤¿Ā"],["à¤ªà¤°","à¥"],["à¤ªà¤°à¥","à¤à¥à¤·à¤£Ā"],["à¤ªà¤°à¥à¤µ","à¤¤"],["à¤ªà¥","à¤°à¥à¤¤"],["à¤ªà¥à¤°à¤¾à¤¤","à¤¨Ā"],["à¤ªà¥à¤°à¥à¤¤","à¤"],["à¤ªà¥à¤°à¥à¤µ","à¥à¤à¥Ā"],["à¤ªà¥à¤°","à¤®à¤¾à¤£Ā"],["à¤ªà¥à¤°","à¥"],["à¤","à¤ªà¥à¤°à¥"],["à¤à¤ªà¥à¤°à¥","à¤²Ā"],["à¤ªà¥à¤°","à¥"],["à¤ªà¥à¤°à¤à¤¾à¤°","à¤à¥à¤¯à¤¾Ā"],["à¤ªà¥à¤°à¤¾à¤","à¤¤"],["à¤ªà¥à¤°à¤¾à¤°à¤®à¥à¤","­Ā"],["à¤ªà¥à¤°à¥","à¤¦à¥à¤¯à¥à¤à¤¿à¤à¥Ā"],["à¤¬","à¤°Ā"],["à¤¬","à¤¹"],["à¤¬","à¥"],["à¤¬","à¥Ā"],["à¤¬","à¥à¤°"],["à¤¬à¤à¥à¤","à¤¾à¤²"],["à¤¬à¤","à¤Ā"],["à¤¬à¤¢à¤¼","à¤à¤°Ā"],["à¤¬à¤¦","à¤²"],["à¤¬à¤¨à¤¾à¤","Ā"],["à¤­","à¤¨à¥à¤¦à¤¾Ā"],["à¤­","à¤µà¤¨Ā"],["à¤­","à¥à¤²Ā"],["à¤­","à¥"],["à¤­à¤¾à¤","à¤¾à¤¤Ā"],["à¤­à¤¾à¤°à¤¤","à¤¾à¤à¥Ā"],["à¤­à¤¾à¤·à¤¾à¤","à¤Ā"],["à¤­à¥","à¤®à¤¿Ā"],["à¤®","à¤à¤"],["à¤®","à¤£à¥à¤¡"],["à¤®","à¤²"],["à¤®à¤°à¤¾à¤"," à¥Ā"],["à¤®à¤¹","à¤¤à¥à¤¤à¥à¤µ"],["à¤®à¤¹","à¤¾à¤¤à¥à¤®"],["à¤®à¤¹à¤¾à¤¤à¥à¤®","à¤¾Ā"],["à¤®à¤¹à¤¾à¤¸à¤¾à¤","à¤°Ā"],["à¤®à¤¾à¤§à¥à¤¯","à¤®Ā"],["à¤®à¤¾à¤¨","à¤µĀ"],["à¤®à¤¾à¤¨","à¤¸à¥à¤¨Ā"],["à¤®à¥","à¤à¤¬à¤Ā"],["à¤®à¥","à¤¦à¥Ā"],["à¤®à¥à¤¯à¤¾à¤¨","à¤®à¤¾à¤°Ā"],["à¤¯","à¤°Ā"],["à¤°","à¤à¤"],["à¤°","à¤¤à¤¾Ā"],["à¤¨à¤¿","à¤°à¥à¤"],["à¤°","à¤²Ā"],["à¤°","à¤¹à¥Ā"],["à¤°","à¥à¤Ā"],["à¤°à¤¾à¤",""],["à¤°à¤¾à¤","µ"],["à¤°à¤¾à¤","à¤§à¤¾à¤¨à¥Ā"],["à¤°à¤¾à¤","à¤¨à¥à¤¤à¤¿à¤Ā"],["à¤°à¤¾à¤à¥à¤¯","à¥Ā"],["à¤°à¤¾à¤·à¥à¤à¥à¤°à¤ª","à¤¤à¤¿Ā"],["à¤°à¥","à¤à¤°à¤£Ā"],["à¤°à¥","à¤"],["à¤¶","à¥"],["à¤°à¥","à¤¸Ā"],["à¤°à¥à¤","£Ā"],["à¤²","à¤à¤¬"],["à¤²","à¥à¤¯Ā"],["à¤²à¥","à¤à¤°Ā"],["à¤²à¥","à¤£à¥Ā"],["à¤²à¥","à¤Ā"],["à¤²à¥","à¤à¥à¤Ā"],["à¤²à¥à¤","à¤ªà¥à¤°à¤¿à¤¯Ā"],["à¤µ","à¤¨à¥à¤¯"],["à¤µ","à¤°à¥Ā"],["à¤µ","à¤¿à¤¯"],["à¤µà¤","à¤¶Ā"],["à¤µà¤¨","à¤¸à¥à¤ª"],["à¤µà¤¨à¤¸à¥à¤ª","à¤¤à¥"],["à¤µà¤°à¥à¤·","à¤¾à¤¤Ā"],["à¤µà¤¿","à¤¦à¥à¤°à¥"],["à¤µà¤¿","à¤­à¤¾à¤"],["à¤µà¤¿","à¤°à¥"],["à¤µà¥à¤","à¤³à¥Ā"],["à¤µà¥","à¤µà¤¿à¤§"],["à¤µà¥","à¤¶à¤¿à¤·à¥à¤"],["à¤µà¥à¤¯à¤¾à¤ª","à¤¾à¤°Ā"],["à¤µà¥à¤¯à¤¾à¤µà¤¸à¤¾à¤¯","à¤¿à¤Ā"],["à¤¶","à¥"],["à¤¶à¤¤","à¤"],["à¤¶à¥","à¤°à¥à¤"],["à¤¶à¥à¤°à¥à¤²","à¤à¤à¤¾Ā"],["à¤¸","à¤"],["à¤¸","à¤Ā"],["à¤¸","à¤¤"],["à¤¸","à¤§"],["à¤¸","à¤¸à¥à¤¤"],["à¤¸","à¥à¤·à¥à¤"],["à¤¸à¤à¤","à¤°à¥à¤·Ā"],["à¤¸à¤à¤","à¥à¤¯Ā"],["à¤¸à¤®","à¤¾à¤ªà¥à¤¤Ā"],["à¤¸à¤®","à¥"],["à¤¸à¤®","à¥à¤®"],["à¤¸à¤°à¤à¤¾à¤°","à¥à¤Ā"],["à¤¸à¤¸à¥à¤¤","à¤¨Ā"],["à¤¸à¤¹","à¤¾à¤¯à¤Ā"],["à¤¸à¤¾à¤",""],["à¤¸à¤¾à¤","à¤¸à¥à¤"],["à¤¸à¤¾à¤à¤¸à¥à¤","à¥à¤¤"],["à¤¸à¤¾à¤à¤¸à¥à¤à¥à¤¤","à¤¿à¤Ā"],["à¤¸à¤¿","à¤à¥à¤"],["à¤¸à¤¿à¤¨à¥à¤§","à¥Ā"],["à¤¸à¥","à¤à¤¨à¤¾Ā"],["à¤¸à¥","à¤¨à¤¿"],["à¤¸à¥à¤","¤Ā"],["à¤¸à¥à¤µ","à¥Ā"],["à¤¹","à¤³"],["à¤¹à¤°à¥","à¤à¥Ā"],["à¤¹à¤¿","à¤¨à¥à¤¦Ā"],["à¤¹à¤¿à¤¨à¥à¤¦","à¥"],["à¤¹à¤¿à¤¨à¥à¤¦","à¥Ā"],["à¤¹à¥","à¤"],["à¤¾à¤","à¤¸Ā"],["à¤«","à¥à¤°"],["à¤¾à¤®","à¤¿"],["à¤¾à¤®à¤§","à¥à¤¯à¥Ā"],["à¤¾à¤µ","à¤°à¥à¤¨Ā"],["à¤¾à¤µ","à¤°Ā"],["à¤¿","à¤à¤¾à¤°Ā"],["à¤¿","à¤¨Ā"],["à¥","¦Ā"],["à¥","®à¥"],["à¥","à¤£Ā"],["à¥","à¤«Ā"],["à¤","à¥à¤«Ā"],["à¥","à¤"],["à¥à¤·à¥à¤","Ā"],["à¥","à¤"],["à¥","à¤¡"],["à¥","à¤®"],["à¥","à¤¯Ā"],["à¥","à¤"],["à¥","à¤°"],["à¥§à¥","¬à¥"],["à¥§à¥","¬Ā"],["à¥¨à¥","ªĀ"],["à¥¨à¥","®Ā"],["à°","¥"],["à°à°",""],["à°à°¤","à±Ā"],["à°à°§","à°¿à°Ā"],["à°à°­","à°¿à°µ"],["à°à°­à°¿à°µ","à±à°¦à±à°§à°¿Ā"],["à°à°°à±à°","§"],["à°à°¤à±à°¤","à°°Ā"],["à°à°¨à±à°¨","à±Ā"],["à°à°¾à°°","à°£à°à°à°¾Ā"],["à°","à°¿à°¨à±à°¨Ā"],["à°","à±à°¨"],["à°à°°à°¿à°","à°¿à°¨Ā"],["à°","à°Ā"],["à°","à°¿à°"],["à°","à±Ā"],["à°","à±"],["à°¢","à°¿à°²à±à°²"],["à°¢à°¿à°²à±à°²","à±Ā"],["à°¤","à±à°°"],["à°¤à°à°¤à±à°°","Ā"],["à°¤à±à°¤","à°Ā"],["à°¦à±à°¶à°¾à°²","à°²à±Ā"],["à°¨","à±à°"],["à°¨","à±à°¯"],["à°¨à°¿à°","µ"],["à°¨à°¿à°°à±à°µ","à°¹"],["à°ª","à±"],["à°ª","à±Ā"],["à°ªà±","à°¦à±à°¦Ā"],["à°ªà±à°ª","à°à°¿à°"],["à°ªà±à°°","à°¦à±à°¶"],["à°ªà±à°°","à°®à±à°"],["à°ªà±à°°à°¤","à°¿à°ª"],["à°ªà±à°°à°§","à°¾à°¨"],["à°ªà±à°°à°§à°¾à°¨","à°®à°à°¤à±à°°"],["à°ªà±à°°à°¸à±à°¤","à±à°¤"],["à°­à°¾à°°à°¤à°¦à±à°¶","à°ªà±Ā"],["à°®","à°¨"],["à°¦à±à°¶","à°à°²à±Ā"],["à°®","à°¾à°¤à±à°°"],["à°®","à±"],["à°®","à±à°¡"],["à°®à±","à°¤à±à°¤à°Ā"],["à°¯","à°¾à°²à±Ā"],["à°¯","à±"],["à°°","à°¿à°"],["à°°","à±"],["à°°à°¹à°¦à°¾à°°","à±à°²à±Ā"],["à°°à°¾à°à°","à±à°¯Ā"],["à°°à°¾à°·à±à°à±à°°","à°¾à°²à±Ā"],["à°°à°¾à°·à±à°à±à°°à°ª","à°¤à°¿Ā"],["à°°à±","à°²"],["à°°à±à°²","à±à°µ"],["à°²","à°à±à°·"],["à°²","à±"],["à°µ","à°¹"],["à°µà°¿à°","¦"],["à°µà°¿à°","µ"],["à°µà±","à°¬"],["à°µà±","à°à°à°à°¾Ā"],["à°¶à°¤à°¾à°¬à±à°¦","à°Ā"],["à°¶à°¾à°","¸à±à°¤à±à°°"],["à°¶à±à°°","à±"],["à°·","à±à°"],["à°¸","à°°à±à°µ"],["à°¸à°à°","µà°¤à±à°¸"],["à°¸à°à°","¸"],["à°¸à±à°","²"],["à°¸à±à°¥à°¾à°¨","à°à°²à±Ā"],["à°¸à±à°µ","à°¾à°¤"],["à°¸à±à°µà°¾à°¤","à°à°¤à±à°°"],["à°¹à°¿à°à°¦","à±Ā"],["à°¾à°",""],["à°¾à°","§"],["à°¾à°","ª"],["à°¾à°²","à°¨à±Ā"],["à°¿à°",""],["à°¿à°","¦"],["à±","à°ª"],["à±","à°°à±à°"],["à±","à°²Ā"],["à±à°","à±Ā"],["à±","à°¨"],["à±à°·","à±Ā"],["à±à°²","à°¨à±Ā"],["à±à°µ","à°¾à°®"],["à²","à²¤"],["à²","à²à²"],["à²","à²¨à³Ā"],["à²","Ā"],["à²","à²à³à²à³Ā"],["à²","à²¡"],["à²à²³","à³Ā"],["à²ª","à³"],["à²­","à²¾à²·"],["à²­à²¾à²°à²¤","à²¦"],["à²®à²¿à²²à²¿à²¯","à²¨à³Ā"],["à²°","à²¾à²"],["à²°à²¿à²","µ"],["à²²","Ā"],["à²¶","à³"],["à²·","à³à²"],["à²¸","à²¾à²µ"],["à²¸","à²¿"],["à²¸à²à²","ª"],["à²¸à²¾à²µ","à²¿"],["à²¸à²¾à²µà²¿","à²°Ā"],["à²¸à²¿","à²°à²¿à²µ"],["à²¹","à²¿à²à²"],["à²¹à³à²à³à²","à³Ā"],["à²¾à²","à²"],["à²¾à²·","à³à²"],["à²¿à²",""],["à²¿à²","¨Ā"],["à²¿à²¯","à²²à³à²²à²¿Ā"],["à³",""],["à³","à²¯Ā"],["à³à²","¯Ā"],["á","¼°Î½Î´"],["â","¹Ā"],["â","Ā"],["â","Ā"],["1","43Ā"],["12","1Ā"],["19","30Ā"],["197","4Ā"],["197","5Ā"],["197","7Ā"],["198","1Ā"],["2","7"],["202","4Ā"],["3","600Ā"],["38","4Ā"],["5","17Ā"],["8","1Ā"],["8","6"],["9","7Ā"],["a","il"],["a","inĀ"],["a","ÃºnĀ"],["ab","lesĀ"],["ab","s"],["ac","e"],["ac","u"],["ace","u"],["aceu","ticalĀ"],["ad","dĀ"],["ad","erĀ"],["ad","op"],["ad","yĀ"],["administra","ciÃ³nĀ"],["af","fec"],["agricul","t"],["agricult","oresĀ"],["ak","b"],["ak","shar"],["akb","arĀ"],["akshar","aĀ"],["al","dadĀ"],["al","li"],["al","p"],["al","thĀ"],["alber","gaĀ"],["ali","anzaĀ"],["alli","anceĀ"],["alp","hab"],["alphab","etĀ"],["alre","adyĀ"],["ame","ezĀ"],["an","ag"],["an","cedĀ"],["an","j"],["an","no"],["an","taĀ"],["an","tĀ"],["andam","Ã¡nĀ"],["anno","ta"],["annota","tionsĀ"],["ap","pe"],["ar","aĀ"],["ar","ingĀ"],["ar","qu"],["ar","ri"],["ari","asĀ"],["ari","esĀ"],["ari","tyĀ"],["artifac","tsĀ"],["as","soci"],["as","sum"],["as","Ã­Ā"],["assi","gnmentĀ"],["at","adoĀ"],["at","orĀ"],["at","tri"],["at","uresĀ"],["ate","auĀ"],["atur","alĀ"],["atur","aĀ"],["ay","ud"],["b","arĀ"],["b","order"],["bat","chesĀ"],["be","aringĀ"],["becom","eĀ"],["bengal","Ã­Ā"],["bir","th"],["bo","okĀ"],["bos","quesĀ"],["br","asĀ"],["bu","distasĀ"],["c","atĀ"],["c","ele"],["c","ketĀ"],["c","keyĀ"],["c","tiveĀ"],["c","Ã³Ā"],["cal","ledĀ"],["cambi","oĀ"],["cas","iĀ"],["ch","adoĀ"],["ch","angesĀ"],["ch","at"],["ch","aĀ"],["ch","eĀ"],["ch","unkĀ"],["charac","terĀ"],["cho","i"],["cho","s"],["chos","enĀ"],["ci","fi"],["ci","osĀ"],["ci","taĀ"],["civi","lĀ"],["claim","edĀ"],["clÃ¡","si"],["clÃ¡","sicaĀ"],["co","barĀ"],["co","py"],["coloni","alĀ"],["com","eĀ"],["comm","onlyĀ"],["compar","edĀ"],["comple","teĀ"],["comuni","caciÃ³nĀ"],["con","stan"],["con","stru"],["con","tieneĀ"],["con","vĀ"],["condu","ctedĀ"],["congre","soĀ"],["conse","joĀ"],["constitu","tionalĀ"],["consum","ptionĀ"],["cont","raĀ"],["contin","entalĀ"],["continu","edĀ"],["contro","larĀ"],["conver","sationĀ"],["conver","ti"],["coo","kingĀ"],["cooper","aciÃ³nĀ"],["copy","leftĀ"],["cordi","ll"],["cour","seĀ"],["cour","tĀ"],["cri","sisĀ"],["cri","sti"],["cru","cialĀ"],["cu","ar"],["d","entr"],["d","esĀ"],["d","on"],["d","re"],["d","thĀ"],["d","Ã­asĀ"],["d","Ã­aĀ"],["dat","e"],["date","timeĀ"],["de","bi"],["de","f"],["de","fe"],["de","liber"],["de","scri"],["de","vo"],["defin","i"],["democra","ticĀ"],["dentr","oĀ"],["depen","d"],["der","sĀ"],["deri","vedĀ"],["desigu","aldadĀ"],["develop","edĀ"],["develop","mentĀ"],["di","cosĀ"],["di","ctsĀ"],["di","eronĀ"],["di","fer"],["di","gestĀ"],["dis","minu"],["div","asĀ"],["div","or"],["do","seĀ"],["do","u"],["do","w"],["dow","n"],["dra","wnĀ"],["dram","asĀ"],["du","Ā"],["e","ci"],["e","gosĀ"],["e","litesĀ"],["e","siaĀ"],["e","therĀ"],["e","tyĀ"],["e","w"],["earli","erĀ"],["earli","estĀ"],["ec","as"],["ecas","eĀ"],["econo","mi"],["econÃ³mi","caĀ"],["edu","caciÃ³nĀ"],["ei","ghtĀ"],["ei","therĀ"],["ej","Ã©"],["ejÃ©","r"],["ejÃ©r","ci"],["ele","ctedĀ"],["em","per"],["emerg","edĀ"],["emp","loy"],["en","codingĀ"],["en","cĀ"],["en","sĀ"],["endÃ©mi","casĀ"],["ener","gyĀ"],["entr","yĀ"],["er","alaĀ"],["er","daĀ"],["er","Ã­aĀ"],["eri","daĀ"],["err","asĀ"],["err","orĀ"],["es","cap"],["especi","almenteĀ"],["est","Ã¡nĀ"],["estab","le"],["estat","usĀ"],["europe","asĀ"],["ex","digestĀ"],["ex","pres"],["exce","ptĀ"],["exi","stĀ"],["exist","enĀ"],["expor","tsĀ"],["exter","nalĀ"],["f","all"],["f","em"],["f","oĀ"],["fa","v"],["fact","bookĀ"],["famili","aĀ"],["fir","m"],["for","eignĀ"],["form","atsĀ"],["form","Ã³Ā"],["fron","tĀ"],["fund","am"],["g","atedĀ"],["g","nedĀ"],["g","nor"],["g","ur"],["gan","aĀ"],["geo","grÃ¡"],["gi","venĀ"],["glo","bĀ"],["gnor","ecaseĀ"],["gre","e"],["great","erĀ"],["gu","alĀ"],["gu","ar"],["gui","doĀ"],["h","ac"],["h","aceĀ"],["h","arĀ"],["h","erĀ"],["h","exdigestĀ"],["h","fĀ"],["h","isĀ"],["h","ol"],["ha","yĀ"],["hab","Ã­aĀ"],["hambr","unaĀ"],["har","k"],["har","lalĀ"],["har","m"],["hark","handĀ"],["harm","aceuticalĀ"],["heap","qĀ"],["high","estĀ"],["hindu","ismoĀ"],["ho","ckeyĀ"],["ho","urĀ"],["hou","seĀ"],["hu","b"],["hu","Ā"],["i","gnorecaseĀ"],["i","sol"],["identi","fi"],["il","Ã³"],["ilÃ³","metr"],["ilÃ³metr","osĀ"],["im","ple"],["importan","tĀ"],["in","no"],["v","a"],["in","sideĀ"],["inclu","dedĀ"],["increas","inglyĀ"],["ind","on"],["indon","esiaĀ"],["industri","aĀ"],["ing","ÃºnĀ"],["inter","nacionalĀ"],["inter","nationalĀ"],["inter","ven"],["introdu","cedĀ"],["inv","ent"],["is","di"],["islam","Ā"],["isol","ateĀ"],["ist","Ã¡nĀ"],["iz","qui"],["izqui","erdaĀ"],["j","ay"],["j","ectĀ"],["j","eronĀ"],["j","harkhandĀ"],["j","ur"],["ja","wa"],["jain","ismĀ"],["jawa","harlalĀ"],["jec","tedĀ"],["join","erĀ"],["jur","isdi"],["k","al"],["k","ameezĀ"],["k","ar"],["k","eralaĀ"],["k","ilÃ³metrosĀ"],["k","ing"],["kan","nadaĀ"],["l","adosĀ"],["l","atedĀ"],["lati","tu"],["lay","er"],["le","aderĀ"],["legis","lat"],["ur","eĀ"],["li","fer"],["li","fĀ"],["e","lifĀ"],["lingÃ¼","Ã­sti"],["liter","aturaĀ"],["ll","edĀ"],["llanur","aĀ"],["lo","gr"],["lo","o"],["ly","woodĀ"],["ma","pĀ"],["ma","ur"],["y","anĀ"],["ma","yĀ"],["man","eraĀ"],["mandat","oĀ"],["manu","Ā"],["mar","kĀ"],["mat","ri"],["matri","mon"],["me","atĀ"],["me","d"],["a","h"],["medi","aĀ"],["memb","erĀ"],["men","u"],["ment","osĀ"],["menu","doĀ"],["mi","cosĀ"],["mi","gra"],["mi","to"],["milit","arĀ"],["minist","ersĀ"],["mis","moĀ"],["mo","duleĀ"],["mo","therĀ"],["much","osĀ"],["much","oĀ"],["mul","g"],["mul","tĀ"],["musulman","aĀ"],["n","aturalĀ"],["n","daĀ"],["n","ingÃºnĀ"],["n","iĀ"],["n","osĀ"],["n","x"],["na","tionĀ"],["ne","w"],["ni","cobarĀ"],["niv","elĀ"],["no","tab"],["nolo","gÃ­aĀ"],["nomb","r"],["nomin","alĀ"],["nor","esteĀ"],["nu","mer"],["nuev","asĀ"],["nx","tĀ"],["o","brasĀ"],["o","dsĀ"],["o","mĀ"],["o","vĀ"],["ob","tuvoĀ"],["oc","curr"],["occid","entalĀ"],["och","oĀ"],["of","f"],["on","alĀ"],["oper","ationĀ"],["or","eĀ"],["order","ingĀ"],["otr","aĀ"],["p","anĀ"],["p","harmaceuticalĀ"],["p","hĀ"],["p","iĀ"],["p","lĀ"],["p","portĀ"],["p","reĀ"],["pa","qu"],["pa","zĀ"],["pakist","Ã¡nĀ"],["pal","la"],["paqu","istÃ¡nĀ"],["par","tsĀ"],["parlam","ent"],["parliam","entĀ"],["pas","sesĀ"],["patter","nĀ"],["pe","esĀ"],["per","miti"],["per","Ã­"],["o","doĀ"],["peri","o"],["persi","anĀ"],["person","alĀ"],["perÃ­","odoĀ"],["pl","ateauĀ"],["pla","yĀ"],["play","edĀ"],["po","lic"],["pob","l"],["pob","reĀ"],["poli","ciesĀ"],["polÃ­ti","cosĀ"],["popul","aresĀ"],["pp","erĀ"],["pr","en"],["pr","Ã¡"],["pre","mi"],["pre","vi"],["primer","aĀ"],["princi","pi"],["princip","almenteĀ"],["pro","lifer"],["pro","mulg"],["pro","seĀ"],["prob","abilityĀ"],["proces","sĀ"],["propor","cion"],["prÃ¡","c"],["pu","e"],["pu","estosĀ"],["publi","shedĀ"],["pur","iĀ"],["qu","eridaĀ"],["ra","ciÃ³nĀ"],["re","latedĀ"],["re","mentĀ"],["re","plac"],["re","playĀ"],["re","queridaĀ"],["re","sid"],["re","stri"],["rea","chedĀ"],["reas","oningĀ"],["reci","entementeĀ"],["reci","entesĀ"],["recor","dĀ"],["reform","asĀ"],["reg","exĀ"],["rela","cion"],["ren","ew"],["repe","ti"],["ris","kĀ"],["rit","osĀ"],["ru","bĀ"],["ru","peesĀ"],["run","ningĀ"],["rur","alesĀ"],["rÃ¡pi","doĀ"],["s","af"],["s","cho"],["s","enti"],["s","moĀ"],["s","Ã¡n"],["sc","ar"],["sc","rubĀ"],["scri","p"],["se","guidoĀ"],["se","lyĀ"],["se","mb"],["set","t"],["shar","edĀ"],["sho","wĀ"],["si","m"],["signifi","can"],["sigu","i"],["so","ber"],["so","li"],["so","lu"],["so","onĀ"],["soci","edadĀ"],["sou","theastĀ"],["sp","anĀ"],["spe","ak"],["st","ersĀ"],["st","ra"],["standar","dĀ"],["sti","cĀ"],["stru","ctureĀ"],["su","p"],["por","tedĀ"],["re","portedĀ"],["su","pportĀ"],["sub","du"],["sum","m"],["surviv","esĀ"],["surviv","ingĀ"],["sy","st"],["em","sĀ"],["sym","bolĀ"],["syn","the"],["synthe","ticĀ"],["t","adĀ"],["t","alesĀ"],["t","aryĀ"],["t","ent"],["in","tent"],["t","p"],["t","y"],["tag","sĀ"],["tan","toĀ"],["tec","nologÃ­aĀ"],["technolo","gyĀ"],["tem","pleĀ"],["th","ere"],["th","ersĀ"],["o","thersĀ"],["ti","casĀ"],["ti","erraĀ"],["tion","allyĀ"],["tiv","esĀ"],["to","daĀ"],["to","pĀ"],["tr","atadoĀ"],["tra","deĀ"],["tradi","tionĀ"],["tre","at"],["u","esĀ"],["u","pperĀ"],["ul","aryĀ"],["un","der"],["un","tou"],["uni","fyĀ"],["us","oĀ"],["vari","asĀ"],["ve","cesĀ"],["ver","sionĀ"],["ver","yĀ"],["veri","fiedĀ"],["viol","enceĀ"],["vocab","ularyĀ"],["w","ai"],["w","arsĀ"],["w","eĀ"],["war","dsĀ"],["we","bĀ"],["wee","pĀ"],["wh","etherĀ"],["wi","dthĀ"],["wi","k"],["wor","kingĀ"],["x","vi"],["y","Ã³Ā"],["z","ipĀ"],["z","oro"],["z","oĀ"],["","à²"],["à²","à³Ā"],["","à¥à¤·à¥à¤Ā"],["","à¥Ā"],["","à±"],["à¥à¤·","à¤°à¤¤à¤¾Ā"],["","à²³"],["","à¤¾Ā"],["£","à¥Ā"],["¥","à°¿à°Ā"],["§","à°¿Ā"],["«","à¥§Ā"],["¯","à¥§Ā"],["±","à¥à¤¯"],["¶","à±à°®"],["¶à±à°®","à±"],["¸","à±à°¯"],["¸à±à°¯","à°¤Ā"],["Ã©","litesĀ"],["Ã©","liteĀ"],["Ã­","fer"],["Ã³gi","cosĀ"],["Ãºltim","asĀ"],["à¤","à¤Ā"],["à¤¬","à¥"],["à¤","à¤Ā"],["à¤","à¤Ā"],["à¤à¤¦à¤¿","à¤°à¤¾Ā"],["à¤à¤ª","à¤°à¤¾à¤"],["à¤","à¤à¥à¤·"],["à¤","à¤¨à¥à¤"],["à¤","à¤°à¥"],["à¤","à¤²à¤¾à¤µà¤¾Ā"],["à¤","à¤¸à¥à¤¤"],["à¤à¤§","à¥à¤¨"],["à¤à¤§à¤¿","à¤"],["à¤à¤§à¥à¤¨","à¤®à¤¾Ā"],["à¤à¤¨à¥à¤¤","à¤¤à¤Ā"],["à¤à¤¨à¥à¤¤à¤°à¥à¤","à¤¤Ā"],["à¤à¤ª","à¤¨à¤¾Ā"],["à¤à¤®à¤°à¥","à¤à¥Ā"],["à¤à¤°à¥","à¤£"],["à¤à¤²","à¤Ā"],["à¤à¤µà¤§","à¤¿Ā"],["à¤à¤¸","à¤²à¥à¤¯"],["à¤à¤¸","à¥à¤¨Ā"],["à¤à¤¸à¥à¤¤","à¤¿"],["à¤","à¤à¤¤"],["à¤","à¤²à¤¾Ā"],["à¤","à¤¸"],["à¤à¤","à¤®à¤¨Ā"],["à¤à¤¢à¤³","à¤¤à¤¾à¤¤Ā"],["à¤à¤¹","à¤¾à¤°Ā"],["à¤","à¤à¤¦à¤¿à¤°à¤¾Ā"],["à¤","à¤®à¤¾à¤°"],["à¤","à¤¸à¥Ā"],["à¤à¤à¤","à¥à¤²"],["à¤à¤à¤à¥à¤°","à¤"],["à¤à¤¤à¤¿à¤¹à¤¾à¤¸","à¤à¤¾à¤°"],["à¤à¤¨à¥à¤","¡"],["à¤à¤¸","à¤à¤¾Ā"],["à¤à¤¸","à¤®à¥à¤Ā"],["à¤","à¤¸à¤¾à¤"],["à¤","à¤¨à¥à¤¹à¥à¤Ā"],["à¤","à¤¸à¥Ā"],["à¤à¤¤à¥à¤","à¥à¤·à¥à¤Ā"],["à¤à¤¤à¥à¤ª","à¤¾à¤¦Ā"],["à¤à¤¦","à¤¯Ā"],["à¤à¤¨","à¤à¥Ā"],["à¤à¤","à¤à¥Ā"],["à¤","à¤à¥à¤µ"],["à¤à¤¡","à¤¿"],["à¤à¤³","à¤"],["à¤","à¤¥"],["à¤","à¤¥à¤¾Ā"],["à¤","à¤¨à¥à¤¨"],["à¤","à¤®"],["à¤à¤°","à¤¤à¥Ā"],["à¤à¤¾à¤","¬"],["à¤à¤¾à¤","®Ā"],["à¤à¤¾à¤°à¥à¤¯","à¤à¤¾à¤²Ā"],["à¤à¤¾à¤°à¥à¤¯","à¤ªà¤¾à¤²à¤¿à¤à¤¾Ā"],["à¤à¤¾à¤³","à¤¾à¤¤à¥à¤²Ā"],["à¤à¤¿","à¤¸à¥Ā"],["à¤à¥à¤·","à¤¿Ā"],["à¤à¥","à¤²à¤¾Ā"],["à¤à¥à¤¨à¥à¤¦","à¥à¤°Ā"],["à¤à¥à¤µ","à¤³Ā"],["à¤à¥à¤",""],["à¤à¥à¤","¶"],["à¤à¥à¤°","à¤¿à¤¯Ā"],["à¤à¥à¤·à¥à¤¤à¥à¤°","à¥à¤Ā"],["à¤","à¤°Ā"],["à¤","à¤¾à¤¡"],["à¤","à¤¾à¤¸"],["à¤","à¤¾à¤¸Ā"],["à¤","à¥"],["à¤","à¤¢à¤¼Ā"],["à¤","à¥à¤²"],["à¤","à¥à¤°à¥"],["à¤à¤°","à¥à¤¯à¥Ā"],["à¤à¤°à¥à¤¦","à¤Ā"],["à¤à¥","à¤"],["à¤à¥","à¤Ā"],["à¤à¥","à¤²à¥Ā"],["à¤à¥à¤°à¥","à¤Ā"],["à¤","à¤¡"],["à¤","à¤¾à¤"],["à¤à¤¾à¤","à¥Ā"],["à¤","à¤²à¤¾à¤"],["à¤","à¤²à¥Ā"],["à¤à¤¾à¤²","à¥à¤"],["à¤à¤¿à¤¤à¥à¤°à¤ªà¤","à¤¸à¥à¤·à¥à¤"],["à¤","à¤¨à¥à¤"],["à¤","à¤¨Ā"],["à¤","à¤®à¤¾Ā"],["à¤","à¤¾à¤¨"],["à¤à¤®à¥à¤®","à¥Ā"],["à¤à¤¸","à¤²à¥Ā"],["à¤à¤¼","à¤¿à¤²"],["à¤à¤¼à¤¿à¤²","à¥à¤Ā"],["à¤à¤¾à¤¤","à¥à¤¯Ā"],["à¤à¤¿à¤¨","à¤®à¥à¤Ā"],["à¤à¥","à¤µà¤¨Ā"],["à¤à¥","à¤µ"],["à¤à¥à¤µ","à¤£à¤¾à¤¤Ā"],["à¤à¥à¤","à¤¾à¤¨"],["à¤","à¤¾à¤°"],["à¤à¤¾à¤°","à¤"],["à¤à¤¾à¤²","à¥"],["à¤","à¤¨à¤¾Ā"],["à¤","à¤¾Ā"],["à¤ ","à¤¾Ā"],["à¤ ","à¥à¤²"],["à¤ ","Ā"],["à¤ à¥à¤²","à¥Ā"],["à¤¡","à¥à¤°"],["à¤¢","à¤¾à¤"],["à¤£","à¤¾à¤®"],["à¤£","à¤¿"],["à¤£à¤¾à¤","±à¥à¤¯à¤¾Ā"],["à¤£à¤¾à¤®","à¤¸à¥à¤µà¤°à¥à¤ªĀ"],["à¤£à¥à¤¯","à¤¾à¤¸Ā"],["à¤¤","à¤¨à¤¾à¤µ"],["à¤¤à¤°","à¤¹Ā"],["à¤¤à¤¾à¤à¤¤à¥à¤°","à¤¿à¤Ā"],["à¤¤à¥","à¤²à¥"],["à¤¤à¥à¤²à¥","à¤"],["à¤¤à¥à¤","¤Ā"],["à¤¤à¥à¤","¨"],["à¤¤à¥à¤°","à¤¿"],["à¤¦","à¤²"],["à¤¦","à¤¾à¤¯"],["à¤¦","à¥"],["à¤¦à¥à¤§","à¤¿Ā"],["à¤¦à¥à¤¯","à¤ªà¤¿Ā"],["à¤¦à¥à¤µ","à¥à¤ª"],["à¤§","à¤¾à¤¨Ā"],["à¤§","à¥"],["à¤§à¤°à¥à¤®","à¤à¥Ā"],["à¤§à¤°à¥à¤®","à¥à¤¯Ā"],["à¤¨","à¤à¤¾Ā"],["à¤¨","à¤®à¥"],["à¤¨","à¤°à¥"],["à¤¨à¤¾à¤","à¤Ā"],["à¤¨à¤¾à¤","­"],["à¤¨à¤¾à¤µ","à¤¾à¤à¤¾Ā"],["à¤¨à¤¾à¤µ","à¤¾à¤¨à¥Ā"],["à¤¨à¤¿à¤¯","à¥"],["à¤¨à¥à¤","¸Ā"],["à¤¨à¥à¤¯à¤¾à¤¯","à¤¾à¤§"],["à¤¨à¥à¤¯à¤¾à¤¯à¤¾à¤²","à¤¯"],["à¤ª","à¤"],["à¤ª","à¤¤"],["à¤ª","à¤¦à¥à¤§"],["à¤ª","à¤°à¤¾à¤"],["à¤ª","à¤¹à¥à¤"],["à¤ª","à¤¾à¤à¤¡"],["à¤ª","à¤¾à¤¨"],["à¤ª","à¤¾à¤¯à¤¾Ā"],["à¤ªà¤à¤","à¤¾à¤¬"],["à¤ªà¤","à¤¿Ā"],["à¤ªà¤¡","à¤²à¥Ā"],["à¤ªà¤¡à¤¼","à¤¾Ā"],["à¤ªà¤¦","à¤µà¥Ā"],["à¤ªà¤¦","à¤µà¥à¤¯à¥"],["à¤ªà¤¦à¤µà¥à¤¯à¥","à¤¤à¥à¤¤à¤°Ā"],["à¤ªà¤°","à¤à¤ªà¤°à¤¾à¤"],["à¤ªà¤°à¤¾à¤","à¤¿à¤¤Ā"],["à¤ªà¤°à¤¿","à¤£à¤¾à¤®à¤¸à¥à¤µà¤°à¥à¤ªĀ"],["à¤ªà¤°à¥à¤¯à¤","à¤¨Ā"],["à¤ªà¤¶à¥à¤à¤¿","à¤®"],["à¤ªà¤¹à¤¿","à¤²"],["à¤ªà¤¹à¤¿à¤²","à¥Ā"],["à¤ªà¤¾à¤"," "],["à¤ªà¤¾à¤°","à¤¿à¤Ā"],["à¤ªà¤¾à¤°à¤","à¤ªà¤¾à¤°à¤¿à¤Ā"],["à¤ªà¥","à¤¨"],["à¤ªà¥à¤°","à¤¸à¥à¤"],["à¤ªà¥","à¤°à¤¾Ā"],["à¤ªà¥","Ā"],["à¤ªà¥à¤°","à¤à¤¾à¤¤"],["à¤ªà¥à¤°","à¤¤à¤¿Ā"],["à¤ªà¥à¤°","à¤¦à¤°à¥à¤¶à¤¨Ā"],["à¤ªà¥à¤°","à¤¦à¥à¤¶à¥à¤Ā"],["à¤ªà¥à¤°","à¤¯à¥à¤Ā"],["à¤ªà¥à¤°","à¤¶"],["à¤ªà¥à¤°","à¤¶à¤¾à¤¸à¤¨Ā"],["à¤ªà¥à¤°","à¤¾à¤ªà¥à¤¤"],["à¤ªà¥à¤°à¤à¤²","à¤¿à¤¤Ā"],["à¤ªà¥à¤°à¤¦à¥à¤¶","à¤¾à¤¤Ā"],["à¤ªà¥à¤°à¤¾à¤","à¥à¤¨"],["à¤ªà¥à¤°à¤¾à¤°à¤®à¥à¤­","à¤¿à¤Ā"],["à¤«","à¤²"],["à¤«","à¤¾à¤¯"],["à¤«","à¥"],["à¤«à¥","à¤²à¥Ā"],["à¤«à¥à¤°","à¤¾à¤à¤¸Ā"],["à¤¬","à¤"],["à¤¬","à¤¡à¥Ā"],["à¤¬","à¤²Ā"],["à¤¬","à¤¾à¤"],["à¤¬à¤à¥à¤à¤¾à¤²","à¤à¥Ā"],["à¤¬à¤¢","à¥à¤¦"],["à¤¬à¤¢à¤¼","à¤¤à¥Ā"],["à¤¬à¤¨à¤¾à¤","¯à¤¾Ā"],["à¤¬à¤¾à¤","¢"],["à¤¬à¤¾à¤à¤à¥à¤²","à¤¾Ā"],["à¤¬à¤¾à¤¹","à¤°à¥Ā"],["à¤¬à¥","à¤²à¤¿"],["à¤¬à¥à¤²à¤¿","à¤µ"],["à¤¬à¥à¤²à¤¿à¤µ","à¥"],["à¤¬à¥à¤","¦Ā"],["à¤¬à¥à¤°à¤¿à¤à¤¿","à¤¸Ā"],["à¤­","à¤Ā"],["à¤­","à¥"],["à¤­","à¥"],["à¤­à¤¾à¤","à¥"],["à¤­à¤¾à¤à¥","à¤¦"],["à¤­à¤¾à¤°à¤¤","à¤¾à¤à¤¾Ā"],["à¤­à¤¾à¤°à¤¤","à¤¾à¤à¥Ā"],["à¤­à¤¾à¤·","à¥Ā"],["à¤­à¥à¤·","à¤¾Ā"],["à¤®","à¤£à¤¿"],["à¤®","à¤¨à¥à¤¦"],["à¤®","à¤¾à¤¤"],["à¤®à¤à¤¤à¥à¤°","à¤¿"],["à¤®à¤à¤¤à¥à¤°à¤¿","à¤®à¤£à¥à¤¡"],["à¤®à¤à¤¤à¥à¤°à¤¿à¤®à¤£à¥à¤¡","à¤²Ā"],["à¤®à¤à¤¦à¤¿","à¤°à¥Ā"],["à¤®à¤à¤¦à¤¿","à¤°Ā"],["à¤®à¤°à¤¾à¤"," "],["à¤®à¤¸","à¤¾à¤²"],["à¤®à¤¾à¤¨","à¥à¤¯à¤¤à¤¾Ā"],["à¤®à¤¿à¤¶","à¥à¤°"],["à¤®à¥","à¤³à¥Ā"],["à¤®à¥à¤¦","à¤¾à¤¨à¥Ā"],["à¤®à¥à¤¹à¤£","à¤à¥Ā"],["à¤¯","à¤¦à¥à¤¯à¤ªà¤¿Ā"],["à¤¯","à¤¸Ā"],["à¤¯","à¤¾à¤Ā"],["à¤¯","à¤¾à¤¤"],["à¤¯à¤¸","à¤²à¤¾à¤Ā"],["à¤¯à¤¹","à¤¾à¤Ā"],["à¤¯à¥","à¤¤à¥Ā"],["à¤°","à¤¤à¥à¤¨Ā"],["à¤°","à¤¤Ā"],["à¤°","à¤®à¤¾Ā"],["à¤°","à¤¾à¤¨Ā"],["à¤°","à¤¿à¤¯"],["à¤°à¤¹","à¥"],["à¤°à¤¾à¤","à¤µà¤à¤¶Ā"],["à¤°à¤¾à¤","à¤¾Ā"],["à¤°à¤¾à¤à¥à¤¯","à¤¸à¤­à¤¾Ā"],["à¤°à¤¾à¤®","à¤¾à¤¯"],["à¤°à¤¾à¤®à¤¾à¤¯","à¤£Ā"],["à¤°à¥à¤","Ā"],["à¤°à¥à¤",""],["à¤°à¥à¤µ","Ā"],["à¤²","à¤à¥à¤·"],["à¤²","à¥à¤¨Ā"],["à¤²à¤à¤¬","à¥Ā"],["à¤²à¤¾à¤","¦"],["à¤²à¤¿","à¤"],["à¤²à¥","à¤"],["à¤²à¥","à¤²à¤¾Ā"],["à¤²à¥","à¤²à¥Ā"],["à¤²à¥","à¤Ā"],["à¤²à¥à¤²","à¥Ā"],["à¤µ","à¤¾à¤°Ā"],["à¤µà¤","à¤¶"],["à¤µà¤¨à¤¸à¥à¤ªà¤¤à¥","à¤"],["à¤µà¤°","à¥à¤²Ā"],["à¤µà¤°à¥à¤·","à¤¾Ā"],["à¤µà¤¾à¤",""],["à¤µà¤¾à¤","à¤¾Ā"],["à¤µà¤¾à¤","¢"],["à¤µà¤¾à¤ª","à¤°Ā"],["à¤µà¤¾à¤¯","à¥"],["à¤µà¤¾à¤¯à¥","à¤¸à¥à¤¨à¤¾Ā"],["à¤µà¤¿","à¤®à¤¾à¤¨Ā"],["à¤µà¤¿","à¤²à¥Ā"],["à¤µà¤¿à¤","à¤¾à¤¸"],["à¤µà¤¿à¤à¤¾à¤¸","à¤¶"],["à¤µà¤¿à¤à¤¾à¤¸à¤¶","à¥à¤²Ā"],["à¤µà¤¿à¤¦à¥à¤°à¥","à¤¹Ā"],["à¤µà¤¿à¤§à¤¾à¤¯","à¤¿à¤à¤¾Ā"],["à¤µà¤¿à¤¯","à¤¤Ā"],["à¤µà¤¿à¤°à¥","à¤§Ā"],["à¤µà¤¿à¤¶","à¥à¤·Ā"],["à¤µà¥","à¤¦"],["à¤µà¥","à¤·"],["à¤µà¥à¤","¹"],["à¤µà¥à¤¯à¤¾à¤ª","à¤¾à¤°"],["à¤¶","à¤à¥à¤¤"],["à¤¶","à¤¬à¥à¤¦Ā"],["à¤¶","à¤¸à¥à¤¤à¥à¤°Ā"],["à¤¶","à¤¾à¤²"],["à¤¶","à¤¾à¤²à¥Ā"],["à¤¶","à¥"],["à¤¶","à¥à¤°à¥"],["à¤¶à¤¤à¤¾à¤¬à¥à¤¦à¥","à¤à¥Ā"],["à¤¶à¤¾à¤","à¤¤à¤¿Ā"],["à¤¶à¤¾à¤²","à¥à¤¯Ā"],["à¤¶à¥à¤°à¥à¤","à¤¤Ā"],["à¤·à¥à¤£","à¤à¤à¤¿"],["à¤¸","à¤à¤Ā"],["à¤¸","à¤à¥à¤°à¤¿à¤¯Ā"],["à¤¸","à¤«à¤²Ā"],["à¤¸","à¤°Ā"],["à¤¸","à¤±à¥à¤¯à¤¾Ā"],["à¤¸","à¤¾à¤²à¥Ā"],["à¤¸à¤à¤¬à¤à¤§","à¥à¤Ā"],["à¤¸à¤à¥à¤",""],["à¤¸à¤¦à¤¸","à¥à¤¯à¥à¤Ā"],["à¤¸à¤¦à¤¸","à¥à¤¯Ā"],["à¤¸à¤§","à¥à¤¯à¤¾Ā"],["à¤¸à¤¬","à¥"],["à¤¸à¤¬à¥","à¤­à¤¨à¥à¤¦à¤¾Ā"],["à¤¸à¤­","à¥à¤¯à¤¤à¤¾Ā"],["à¤¸à¤®","à¤"],["à¤¸à¤®","à¤¾à¤¨Ā"],["à¤¸à¤®","à¤¾Ā"],["à¤¸à¤®à¥","à¤¹"],["à¤¸à¤®à¥à¤¹","à¤¹à¤°à¥Ā"],["à¤¸à¤®à¥à¤","®Ā"],["à¤¸à¤°","à¤¾Ā"],["à¤¸à¤°à¥à¤µ","à¤¾à¤à¤¤Ā"],["à¤¸à¤¾à¤",""],["à¤¸à¤¾à¤","à¥à¤·à¤°à¤¤à¤¾Ā"],["à¤¸à¤¾à¤","¦"],["à¤¸à¤¾à¤","à¥à¤¦"],["à¤¸à¤¾à¤à¥à¤¦","à¤¾à¤°à¥Ā"],["à¤¸à¤¾à¤®","à¤°à¤¿à¤Ā"],["à¤¸à¤¿","à¤¨à¥"],["à¤¸à¤¿à¤à¤§","à¥Ā"],["à¤¸à¥à¤°à¥à¤µ","à¤¾à¤¤"],["à¤¸à¥à¤°à¥à¤µ","à¤¾à¤¤Ā"],["à¤¸à¥","à¤µà¤¾à¤"],["à¤¸à¥","à¤µà¤¾Ā"],["à¤¸à¥","à¤µà¤¿à¤¯à¤¤Ā"],["à¤¸à¥à¤","à¤¾à¤"],["à¤¸à¥à¤¥à¤¾à¤¨","à¥à¤¯Ā"],["à¤¸à¥à¤¥à¤¾à¤ª","à¤¤à¥à¤¯Ā"],["à¤¸à¥à¤¥à¤¿","à¤¤à¤¿Ā"],["à¤¸à¥à¤µà¤¤à¤à¤¤à¥à¤°","Ā"],["à¤¸à¥à¤µà¤¾à¤¤à¤à¤¤à¥à¤°","à¥à¤¯"],["à¤¹","à¤¾à¤¤"],["à¤¹","à¥"],["à¤¹","à¥à¤¯à¤¾Ā"],["à¤¹à¤¿","à¤®"],["à¤¹à¤¿à¤¨à¥à¤¦à¥","à¤¸à¥à¤¤"],["à¤¹à¤¿à¤¸à¥à¤¸","à¤¾Ā"],["à¤¹à¥","à¤à¥Ā"],["à¤¹à¥","à¤¨à¤¾Ā"],["à¤¾à¤",""],["à¤¾à¤","­"],["à¤¾à¤","¶à¥Ā"],["à¤¾à¤","à¤"],["à¤¾à¤","à¤ªà¥à¤à¥Ā"],["à¤¾à¤","à¤µà¤°Ā"],["à¤¾à¤","Ā"],["à¤¾à¤","Ā"],["à¤¾à¤¦","à¥Ā"],["à¤¾à¤¨","à¥Ā"],["à¤¾à¤°","à¤¤Ā"],["à¤¾à¤²","à¤¯Ā"],["à¤¾à¤¹","à¤°à¥Ā"],["à¤¾à¤¹à¤°à¥","à¤à¥Ā"],["à¤¿à¤¯","à¤¾à¤Ā"],["à¤¿à¤¯","à¤¾à¤Ā"],["à¥","à¤®Ā"],["à¥","à¤¹à¤°à¥Ā"],["à¥","à¤¸à¤¾à¤°Ā"],["à¤ªà¥à¤°","à¤"],["à¥à¤¶","à¤¿à¤¯à¤¾Ā"],["à¥","à¤à¤¡Ā"],["à¥à¤","§"],["à¥à¤","à¤¨à¥Ā"],["à¥à¤¯","à¤¾à¤¦"],["à¥§à¥¯à¥","¯à¥§Ā"],["à¥¨à¥","¦Ā"],["à¥¨à¥","«Ā"],["à¥¨à¥¦","à¥§à¥ªĀ"],["à¥¨à¥¦à¥¦à¥","ªĀ"],["à¥«à¥","«Ā"],["à°",""],["à°",""],["à°à°","à°¿Ā"],["à°","à°¨à°¿Ā"],["à°","à°¨à±"],["à°","à°¨à±"],["à°à°§à°¿à°à°¾à°°","à°¿à°Ā"],["à°à°¨à±","à°Ā"],["à°à°¯","à°¿à°¨"],["à°à°¯","à°¿à°¨Ā"],["à°","à°§"],["à°","à°«"],["à°à°°à±à°","¥à°¿à°Ā"],["à°à°°à±à°§","à°¿à°Ā"],["à°","à°¨à±à°"],["à°à°¨à±à°","«"],["à°","à°à°¡"],["à°à°¨à±à°¨","à°¾à°°à±Ā"],["à°","à°à±à°"],["à°à°","à°"],["à°à°²","à±à°ª"],["à°à°²à°¿à°","à°¿Ā"],["à°à°¾à°","¶à±à°®à±"],["à°à°¾à°à°à±à°°à±à°¸","à±Ā"],["à°à±à°à°¦à±à°°","à°ªà°¾à°²"],["à°à±à°à°¦à±à°°","Ā"],["à°à±à°à°¦à±à°°à°ªà°¾à°²","à°¿à°¤Ā"],["à°à±","à°à±à°²"],["à°à±à°","¸"],["à°à±à°°","à±Ā"],["à°à±à°·","à°°à°¾à°"],["à°à±à°·à°°à°¾à°","¸à±à°¯à°¤Ā"],["à°","à°à°¡"],["à°","à°¾à°"],["à°","à±"],["à°","à°¾à°°"],["à°à±à°à°¦","à±à°¤"],["à°à±à°à°¦à±à°¤","à±"],["à°à±à°à°¦à±à°¤à±","à°¨à±à°¨Ā"],["à°à±","à°¯"],["à°","à±Ā"],["à°","à±Ā"],["à°à±à°²","à±Ā"],["à°¡","à°Ā"],["à°¡","à°¾à°²"],["à°¡","à°¿Ā"],["à°¡à°¾à°²","à°°à±à°²"],["à°¦","à°¾à°¯"],["à°¦","à°¾Ā"],["à°¦","à°¿à°¨"],["à°¦","à±Ā"],["à°¦à°à±à°·à°¿à°£","à°¾à°¨Ā"],["à°¦à±à°¶à°¾à°²","Ā"],["à°¦à±à°µ","à±à°ª"],["à°¨","à°"],["à°¨","à°¾à°"],["à°¨","à°¾à°²"],["à°¨","à±Ā"],["à°¨à°¡à°¿à°ª","à°¿à°à°"],["à°¨à±à°","®"],["à°¨à±à°¨","à°¿Ā"],["à°¨à±à°¯","à°¾à°¯"],["à°ª","à°¦"],["à°ª","à°¶"],["à°ª","à°¾à°¤à±à°°"],["à°ª","à±"],["à°ª","à±"],["à°ª","à±"],["à°ªà°à±à°","à°£"],["à°ªà°°","à°à°à°¾Ā"],["à°ªà°¶","à±à°"],["à°ªà°¾à°","à°¿à°¸"],["à°ªà°¾à°","à°¿à°¸à±à°¤"],["à°ªà°¾à°","à±Ā"],["à°ªà°¾à°à°¿à°¸","à±à°¥"],["à°ªà°¾à°¤à±à°°","Ā"],["à°ªà°¾à°°à±à°","à±"],["à°ªà±","à°à°¾Ā"],["à°ªà±à°°","à°¾à°°"],["à°ªà±à°°à°¦à±à°¶","à±Ā"],["à°ªà±à°°à°®à±à°","Ā"],["à°ªà±à°°à°¸à±à°¤à±à°¤","à°Ā"],["à°¬","à°¹"],["à°¬","à°¾à°"],["à°¬","à±"],["à°¬à°¡","à°¿à°¨Ā"],["à°¬à±","à°¦à±à°§"],["à°¬à±à°°à°¿à°","à°¿à°"],["à°¬à±à°°à°¿à°à°¿à°","·"],["à°­à°¾à°","à°Ā"],["à°­à°¾à°°à°¤à°¦à±à°¶","à°¾à°¨à°¿à°à°¿Ā"],["à°­à°¾à°·","à°²à±Ā"],["à°®","à°²"],["à°®","à°²à±Ā"],["à°®","à±"],["à°®","à±à°¨"],["à°®","Ā"],["à°®à±","à°²à±Ā"],["à°®à±à°","à±à°¯"],["à°®à±à°¦","à°²"],["à°¯","à±"],["à°°","à°à°"],["à°°","à±Ā"],["à°°à°¾à°","à±Ā"],["à°°à±","à°³"],["à°°à±","à°¡à±à°¡"],["à°°à±à°","à±"],["à°²","à°¤à±Ā"],["à°²à±","à°¨à°¿Ā"],["à°µ","à°¾à°°"],["à°µ","à±"],["à°µà°¿à°","­"],["à°µà°¿à°µ","à°¿à°"],["à°µà°¿à°µà°¿à°","§Ā"],["à°µà±à°¬","à±à°¸"],["à°µà±à°¬à±à°¸","à±"],["à°¶à°¾à°¸à±à°¤à±à°°","à°Ā"],["à°·à±à°","£Ā"],["à°¸","à°°"],["à°¸","à±Ā"],["à°¸à°à°",""],["à°¸à°à°¸","à±à°"],["à°¸à°­","à±à°¯"],["à°¸à°­","Ā"],["à°¸à°°à±à°µ","à±"],["à°¸à°¾à°®","à±à°°"],["à°¸à°¾à°®à±à°°","à°¾à°"],["à°¸à±à°à°°","à±à°¯"],["à°¹","à°¿à°®"],["à°¹à°¿à°à°¦","à±"],["à°¹à°¿à°®","à°¾à°²"],["à°¾à°",""],["à°¾à°","¡"],["à°¾à°","³"],["à°¾à°","¹"],["à°¾à°¤","à°¿Ā"],["à°¾à°¦","à±à°¶"],["à°¾à°¦","à±Ā"],["à°¾à°²","à°à±Ā"],["à°¾à°²","à°²à±Ā"],["à°¾à°¸","à±à°µà°¾à°®"],["à°¾à°¸à±à°µà°¾à°®","à±à°¯Ā"],["à°¿à°à°","à°¿à°¨Ā"],["à°¿à°¨","à°¿Ā"],["à±","à°¨"],["à±à°°à±à°","£"],["à±","à°¨Ā"],["à±","à°µĀ"],["à±à°à±","à°µ"],["à±","à°à°¦à°¿Ā"],["à±","à°°"],["à²","à²à³Ā"],["à²","¥"],["à²à²¤","à³à²°"],["à²à²¦","à³Ā"],["à²","à²®"],["à²à²¤","à²¿Ā"],["à²à²à²","¬Ā"],["à²à³à²","à³Ā"],["à²","à³Ā"],["à²","Ā"],["à²à²³","Ā"],["à²¡","à²¿Ā"],["à²£","à³Ā"],["à²¤","à³à²"],["à²¤","à³à²°"],["à²¦","à³à²¦"],["à²¨à²","à²°Ā"],["à²®","à²¹"],["à²®","à²¾à²°"],["à²®","à³"],["à²°","à²¡"],["à²°","à²¾à²·à³à²"],["à²°","à²¿Ā"],["à²°à²¿à²",""],["à²µ","à²¨à³à²¨à³Ā"],["à²µ","à³à²¯"],["à²µà²¿à²","­"],["à²¸","à²¿à²à²"],["à²¸à²à²","¸à³à²¥"],["à²¸à²¿à²°à²¿à²µ","à²à²¤"],["à²¹à²¿à²à²","¦"],["à²¹à³à²à²¦","à²¿à²¦à³Ā"],["à²¾à²","¦"],["à²¿à²","®"],["à²¿à²","¹"],["à²¿à²¦","à³à²¦"],["à²¿à²¯","à²¿à²à²¦Ā"],["à³","¦Ā"],["à³","à²¤à³à²¤"],["à³à²°","à²¾à²"],["à³¨à³","¦à³"],["0","5Ā"],["000","000Ā"],["1","200Ā"],["1","40Ā"],["1","59Ā"],["18","48Ā"],["18","57Ā"],["18","8"],["188","5Ā"],["19","1"],["19","35Ā"],["198","4Ā"],["198","5Ā"],["198","7Ā"],["198","9Ā"],["2","3"],["20","6Ā"],["201","5Ā"],["202","0Ā"],["28","3Ā"],["3","000Ā"],["3","50Ā"],["4","39Ā"],["40","96Ā"],["5","2"],["6","96Ā"],["7","6"],["7","9Ā"],["86","400Ā"],["9","00Ā"],["^","Ā"],["a","di"],["a","diĀ"],["a","proxim"],["a","thĀ"],["a","á¹"],["ab","eti"],["ab","i"],["ab","iĀ"],["ab","ledĀ"],["ac","ade"],["ac","aĀ"],["ac","ter"],["ac","tivaĀ"],["acces","oĀ"],["acter","iz"],["actu","almenteĀ"],["acu","er"],["acuer","doĀ"],["ad","anosĀ"],["ad","di"],["ad","her"],["ad","sĀ"],["ad","uĀ"],["administ","r"],["administra","tionĀ"],["af","ricaĀ"],["affec","tedĀ"],["agricul","turalĀ"],["agricul","tureĀ"],["agu","aĀ"],["ai","reĀ"],["aj","antaĀ"],["al","edĀ"],["al","f"],["al","lowedĀ"],["al","oneĀ"],["al","qui"],["al","taĀ"],["al","waysĀ"],["alf","abeti"],["alg","unasĀ"],["alg","unosĀ"],["ali","tyĀ"],["alim","entosĀ"],["aliz","aciÃ³nĀ"],["all","elĀ"],["alqui","erĀ"],["am","Ã­fer"],["ampli","amenteĀ"],["amÃ­fer","osĀ"],["an","ex"],["an","gr"],["an","ismoĀ"],["an","nu"],["an","otherĀ"],["an","oĀ"],["an","ter"],["an","y"],["andam","anĀ"],["angr","aĀ"],["anim","alsĀ"],["anim","alĀ"],["anter","r"],["anterr","orĀ"],["anti","gu"],["any","thingĀ"],["ap","onsĀ"],["ap","poin"],["app","liedĀ"],["aproxim","adamenteĀ"],["ar","atĀ"],["ar","ch"],["ar","gu"],["ar","tsĀ"],["ar","yanĀ"],["ar","Ã¡bi"],["ara","val"],["archi","v"],["archi","vedĀ"],["archiv","adoĀ"],["are","aĀ"],["argu","mentĀ"],["arqu","ite"],["arquite","cturaĀ"],["arti","st"],["arÃ¡bi","goĀ"],["as","ci"],["as","hi"],["as","ho"],["as","iĀ"],["as","semb"],["as","un"],["asho","kaĀ"],["ass","amĀ"],["assemb","lyĀ"],["asser","tĀ"],["at","maĀ"],["ate","g"],["ati","sti"],["att","nĀ"],["attri","bu"],["au","str"],["au","to"],["austr","ali"],["aver","iĀ"],["b","ah"],["b","arri"],["b","asĀ"],["b","aĀ"],["b","fĀ"],["b","lic"],["b","nĀ"],["b","peĀ"],["bang","lad"],["banglad","Ã©sĀ"],["be","longĀ"],["becom","esĀ"],["becom","ingĀ"],["ber","cu"],["bercu","lo"],["berculo","sisĀ"],["bh","angraĀ"],["bh","Ä"],["bhar","at"],["bi","osĀ"],["bill","onesĀ"],["bo","canĀ"],["bo","mb"],["bol","lywoodĀ"],["bomb","ayĀ"],["border","lineĀ"],["bos","queĀ"],["brah","ma"],["brah","micĀ"],["brahma","pu"],["brahmapu","traĀ"],["bre","adĀ"],["bre","akĀ"],["break","sĀ"],["britÃ¡ni","cosĀ"],["bro","kenĀ"],["budd","haĀ"],["buil","tĀ"],["c","adesĀ"],["c","amenteĀ"],["c","arĀ"],["c","ateg"],["c","cĀ"],["c","tu"],["c","Ã¡nĀ"],["ca","cheĀ"],["ca","vesĀ"],["cab","e"],["cabe","z"],["cal","cu"],["campe","sin"],["candi","datesĀ"],["cap","abilityĀ"],["car","acteriz"],["cas","esĀ"],["cast","esĀ"],["ce","i"],["cent","raciÃ³nĀ"],["ch","h"],["ch","ur"],["chan","ismĀ"],["charac","ter"],["chat","mlĀ"],["che","mi"],["chec","kedĀ"],["chh","auĀ"],["choi","ceĀ"],["chur","id"],["churid","arsĀ"],["ci","deĀ"],["ci","eronĀ"],["ci","lĀ"],["cin","em"],["cion","alesĀ"],["ciud","adanosĀ"],["civili","sationĀ"],["claim","sĀ"],["clas","sesĀ"],["clu","sterĀ"],["clÃ¡si","casĀ"],["co","sasĀ"],["co","verĀ"],["coast","alĀ"],["col","le"],["collap","seĀ"],["colle","ctionsĀ"],["com","for"],["com","pe"],["com","pl"],["com","pro"],["comenz","aronĀ"],["comer","ci"],["commer","cialĀ"],["compan","iesĀ"],["compl","exĀ"],["compro","mi"],["compromi","seĀ"],["con","centr"],["con","centraciÃ³nĀ"],["con","jun"],["con","soli"],["con","stantĀ"],["condu","joĀ"],["consist","sĀ"],["constitu","entĀ"],["cont","extĀ"],["cor","por"],["cor","teĀ"],["cordill","erasĀ"],["cost","asĀ"],["cost","sĀ"],["coun","tingĀ"],["cri","cketĀ"],["cru","stĀ"],["ct","xĀ"],["cu","alesĀ"],["cu","alquierĀ"],["cu","bier"],["cu","tĀ"],["cu","y"],["cul","asĀ"],["cur","atedĀ"],["curr","encyĀ"],["d","adosĀ"],["d","g"],["d","ho"],["d","huĀ"],["d","ul"],["d","w"],["dar","oĀ"],["dat","as"],["dav","isĀ"],["de","cadesĀ"],["de","cÃ¡nĀ"],["de","duplic"],["de","duplicateĀ"],["de","loĀ"],["de","porteĀ"],["de","ser"],["de","si"],["de","stĀ"],["de","te"],["debi","doĀ"],["deca","deĀ"],["deci","sionĀ"],["deduplic","atedĀ"],["defaul","t"],["default","dictĀ"],["dem","on"],["democr","Ã¡ticaĀ"],["democra","ciaĀ"],["demon","str"],["der","ro"],["des","pi"],["desem","bocanĀ"],["desem","pe"],["desempe","Ã±"],["deser","tĀ"],["desi","er"],["desier","toĀ"],["desigu","alĀ"],["di","cĀ"],["di","entesĀ"],["di","mentĀ"],["di","scar"],["di","scri"],["di","sh"],["dial","ectĀ"],["difer","entesĀ"],["differ","enceĀ"],["dir","seĀ"],["dir","sĀ"],["direct","amenteĀ"],["discri","min"],["dish","esĀ"],["dist","in"],["diver","seĀ"],["diver","sosĀ"],["diversi","dadĀ"],["divi","deĀ"],["do","me"],["do","msĀ"],["don","deĀ"],["dra","inĀ"],["dul","edĀ"],["dw","anaĀ"],["e","diaĀ"],["e","dsĀ"],["e","fĀ"],["e","teĀ"],["e","valu"],["ec","enĀ"],["econom","Ã­asĀ"],["econÃ³mi","casĀ"],["econÃ³mi","coĀ"],["ef","ectosĀ"],["ef","sĀ"],["el","laĀ"],["el","losĀ"],["ele","ct"],["em","ailĀ"],["emergen","cyĀ"],["emper","orĀ"],["emple","oĀ"],["en","ac"],["en","cabez"],["en","de"],["en","ingĀ"],["en","joĀ"],["end","raĀ"],["endo","f"],["endof","textĀ"],["ent","ro"],["entr","en"],["entro","pyĀ"],["epi","cĀ"],["er","caĀ"],["c","ercaĀ"],["ere","di"],["escap","eĀ"],["est","ad"],["est","reĀ"],["si","l"],["est","ru"],["estab","li"],["esti","losĀ"],["esti","loĀ"],["every","thingĀ"],["ex","clu"],["ex","peri"],["ex","pli"],["ex","t"],["exi","tyĀ"],["expan","dirseĀ"],["expli","ci"],["exter","i"],["extr","anj"],["extrem","adamenteĀ"],["extrem","osĀ"],["f","am"],["f","ashi"],["f","edĀ"],["f","fĀ"],["f","le"],["f","ra"],["f","ricaĀ"],["f","Ãº"],["famili","asĀ"],["fe","aturesĀ"],["fer","aĀ"],["fer","ro"],["fi","eldĀ"],["fi","estasĀ"],["fi","gur"],["fi","l"],["fi","lesĀ"],["fi","re"],["figur","eĀ"],["fin","almenteĀ"],["fin","dingĀ"],["flo","orsĀ"],["fo","li"],["fol","kĀ"],["foli","oĀ"],["form","alĀ"],["form","asĀ"],["form","aĀ"],["fr","enteĀ"],["fra","g"],["fre","shĀ"],["fu","Ā"],["fuer","teĀ"],["fundam","entalĀ"],["fÃº","t"],["fÃºt","bolĀ"],["g","asĀ"],["g","ateĀ"],["g","ctxĀ"],["g","on"],["g","plĀ"],["ga","inĀ"],["gan","adoĀ"],["ge","tsĀ"],["gener","allyĀ"],["gener","icĀ"],["geo","graphi"],["gi","Ã³Ā"],["go","odsĀ"],["gobern","antesĀ"],["gol","foĀ"],["gon","dwanaĀ"],["govern","mentsĀ"],["gra","di"],["gra","ph"],["gre","atĀ"],["gree","kĀ"],["gu","p"],["h","el"],["p","edĀ"],["h","eredi"],["h","on"],["h","sĀ"],["h","Ãº"],["hac","erĀ"],["hal","fĀ"],["hambr","unasĀ"],["hi","cieronĀ"],["hi","smĀ"],["himalay","anĀ"],["hindu","st"],["hindu","sĀ"],["hist","Ã³"],["histÃ³","ricaĀ"],["hol","dingĀ"],["hor","aĀ"],["hÃº","me"],["hÃºme","doĀ"],["i","de"],["i","eldĀ"],["i","gualĀ"],["i","osĀ"],["i","tersĀ"],["i","vĀ"],["im","ediaĀ"],["im","pro"],["imperi","alĀ"],["imple","ment"],["in","esĀ"],["in","fĀ"],["in","stitu"],["in","visi"],["indo","wĀ"],["industri","alĀ"],["inf","ra"],["influ","encesĀ"],["influ","enceĀ"],["inform","eĀ"],["inno","v"],["instru","ctionĀ"],["inte","gr"],["inv","asi"],["invari","anterrorĀ"],["invent","oryĀ"],["invisi","bleĀ"],["is","bnĀ"],["islam","icĀ"],["iso","lationĀ"],["j","udi"],["j","uni"],["jam","mu"],["jammu","Ā"],["join","ersĀ"],["ju","egosĀ"],["juni","oĀ"],["k","averiĀ"],["k","fĀ"],["i","p"],["ip","vĀ"],["k","o"],["k","sh"],["k","ur"],["kashmi","rĀ"],["ke","dirsĀ"],["kee","psĀ"],["ki","lo"],["kilo","me"],["kilome","tresĀ"],["king","domsĀ"],["ko","siĀ"],["ku","t"],["kur","taĀ"],["l","ag"],["l","arityĀ"],["l","bĀ"],["l","ingĀ"],["l","lev"],["l","Ã¡"],["is","lÃ¡"],["islÃ¡","mi"],["la","wsĀ"],["la","z"],["lan","dsĀ"],["lan","kaĀ"],["lat","terĀ"],["lay","erĀ"],["layer","normĀ"],["le","j"],["le","y"],["leg","Ã³Ā"],["l","legÃ³Ā"],["let","terĀ"],["ley","esĀ"],["li","Ã³nĀ"],["line","arĀ"],["lo","adĀ"],["lo","gÃ­aĀ"],["lo","gĀ"],["lon","gctxĀ"],["lor","dĀ"],["lÃ­","culasĀ"],["lÃ­","ne"],["m","amÃ­ferosĀ"],["m","fuĀ"],["m","y"],["m","arĀ"],["m","Ã©"],["ma","kedirsĀ"],["mah","atmaĀ"],["main","ta"],["in","ingĀ"],["in","sĀ"],["malay","al"],["malayal","amĀ"],["man","ten"],["man","tieneĀ"],["mani","puriĀ"],["mar","gin"],["mar","kedĀ"],["mar","ksĀ"],["mar","r"],["marath","iĀ"],["marri","agesĀ"],["mat","chedĀ"],["materi","alsĀ"],["matrimon","ioĀ"],["me","anĀ"],["me","chanismĀ"],["me","se"],["me","th"],["measu","rementĀ"],["medi","cin"],["medi","evalĀ"],["men","osĀ"],["mer","cadoĀ"],["mese","taĀ"],["meth","odĀ"],["mi","entosĀ"],["mi","tadĀ"],["mi","tsĀ"],["mi","xĀ"],["miembr","oĀ"],["mill","Ã³nĀ"],["min","hashesĀ"],["min","sterĀ"],["mis","matchesĀ"],["mis","matchĀ"],["mis","si"],["mis","singĀ"],["mo","deloĀ"],["mo","vingĀ"],["moder","naĀ"],["moh","enjoĀ"],["n","aduĀ"],["na","ciÃ³nĀ"],["na","v"],["nar","endraĀ"],["nat","alĀ"],["niv","elesĀ"],["no","ti"],["no","u"],["nomb","reĀ"],["norm","aliz"],["nou","nĀ"],["nuev","aĀ"],["o","di"],["o","ur"],["occid","entalesĀ"],["occu","pa"],["occurr","encesĀ"],["offi","ceĀ"],["ofi","cialmenteĀ"],["ol","destĀ"],["or","n"],["ordin","aryĀ"],["organ","isationĀ"],["ori","g"],["origin","allyĀ"],["ous","lyĀ"],["p","alĀ"],["p","dĀ"],["p","ra"],["p","urĀ"],["pa","st"],["palla","vasĀ"],["par","allelĀ"],["par","amĀ"],["par","i"],["parti","ci"],["parti","cularĀ"],["parti","tionĀ"],["pas","singĀ"],["pe","lÃ­culasĀ"],["pe","que"],["pe","tr"],["le","oĀ"],["per","cent"],["per","pl"],["per","sonĀ"],["perpl","exityĀ"],["petr","Ã³"],["petrÃ³","leoĀ"],["ph","oneĀ"],["pi","dĀ"],["pl","edĀ"],["pl","usĀ"],["plan","e"],["po","stĀ"],["po","ten"],["pob","re"],["pobre","zaĀ"],["polic","yĀ"],["por","talĀ"],["posi","tionĀ"],["posteri","orĀ"],["pr","anaĀ"],["pra","deshĀ"],["practi","cesĀ"],["pre","par"],["pre","ser"],["pres","entaĀ"],["preser","veĀ"],["previ","ousĀ"],["pri","maryĀ"],["princip","alĀ"],["principi","osĀ"],["pro","medioĀ"],["pro","min"],["produ","cesĀ"],["propi","et"],["prote","gi"],["pu","shĀ"],["pu","tsĀ"],["pue","b"],["punj","abiĀ"],["qu","ar"],["qu","in"],["qu","Ã­"],["quÃ­","micosĀ"],["r","sĀ"],["r","Ã­aĀ"],["r","Ã­osĀ"],["ra","haĀ"],["ra","i"],["ra","il"],["raj","ivĀ"],["raj","putsĀ"],["ran","domĀ"],["ran","ksĀ"],["re","asĀ"],["re","conoci"],["re","elegidoĀ"],["re","jectedĀ"],["re","qui"],["re","sur"],["re","ven"],["re","yĀ"],["rebe","liÃ³nĀ"],["rebe","llionĀ"],["reco","gn"],["redu","cedĀ"],["reform","aĀ"],["regi","onesĀ"],["religi","onĀ"],["religi","osoĀ"],["remo","vesĀ"],["remo","veĀ"],["represent","andoĀ"],["reprodu","ci"],["resid","entsĀ"],["resol","veĀ"],["respec","tivamenteĀ"],["respon","seĀ"],["resul","tingĀ"],["retur","nedĀ"],["reven","uesĀ"],["ri","coĀ"],["ri","ghtsĀ"],["ri","gi"],["ri","versĀ"],["rit","aĀ"],["s","ansĀ"],["s","ar"],["s","at"],["s","ayĀ"],["s","ci"],["s","ent"],["s","wi"],["sang","rahaĀ"],["sc","anĀ"],["sche","duledĀ"],["scho","olsĀ"],["scri","toĀ"],["se","aĀ"],["se","ctionĀ"],["se","isĀ"],["se","man"],["se","s"],["se","ti"],["se","Ã±"],["seg","un"],["segun","daĀ"],["separ","ati"],["ser","i"],["seti","te"],["setite","mĀ"],["sh","al"],["sh","ap"],["sho","uldĀ"],["si","bleĀ"],["si","endoĀ"],["si","j"],["si","mul"],["si","r"],["si","tesĀ"],["si","tionĀ"],["tr","an"],["si","tu"],["si","velyĀ"],["sig","nsĀ"],["significan","tĀ"],["sik","hsĀ"],["sik","hĀ"],["sil","v"],["silv","estreĀ"],["simi","larityĀ"],["sin","dhuĀ"],["situ","aciÃ³nĀ"],["so","ver"],["so","vi"],["sol","dadosĀ"],["some","timesĀ"],["sou","thernĀ"],["spe","cifi"],["spre","adĀ"],["sr","csĀ"],["st","atisti"],["ste","fulĀ"],["ste","psĀ"],["str","engthĀ"],["str","on"],["su","el"],["sub","missionĀ"],["subsequ","entĀ"],["summ","erĀ"],["superi","orĀ"],["supp","li"],["supre","maĀ"],["sur","eĀ"],["sy","mĀ"],["syst","emsĀ"],["sÃ¡n","scritoĀ"],["t","anĀ"],["t","estedĀ"],["t","leĀ"],["t","taĀ"],["t","wi"],["ta","i"],["tab","lesĀ"],["tan","doĀ"],["tando","orĀ"],["tar","getsĀ"],["tem","enteĀ"],["tex","tilesĀ"],["tex","tosĀ"],["tex","tsĀ"],["th","i"],["thresh","oldsĀ"],["ti","errasĀ"],["ti","velyĀ"],["ti","z"],["to","dasĀ"],["to","okĀ"],["tp","bĀ"],["tradi","tionallyĀ"],["tradicion","alĀ"],["tran","sitionĀ"],["trans","porteĀ"],["treat","yĀ"],["tri","balĀ"],["trib","un"],["tribun","alesĀ"],["tt","onĀ"],["tu","berculosisĀ"],["tu","dĀ"],["tu","resĀ"],["tu","Ā"],["tur","asĀ"],["twi","ceĀ"],["tÃ©","luguĀ"],["tÃ©","Ā"],["u","k"],["y","asĀ"],["ul","derĀ"],["un","gĀ"],["uni","dosĀ"],["uni","doĀ"],["untou","ch"],["up","dateĀ"],["ur","duĀ"],["urban","isationĀ"],["v","Ã©"],["as","eĀ"],["vegetari","anosĀ"],["ver","seĀ"],["vi","siÃ³nĀ"],["vill","ageĀ"],["viol","enciaĀ"],["w","al"],["w","allĀ"],["w","areĀ"],["w","at"],["w","indowĀ"],["w","nsĀ"],["wa","stefulĀ"],["wai","stĀ"],["war","dĀ"],["we","aponsĀ"],["we","arĀ"],["west","minsterĀ"],["wik","imediaĀ"],["with","outĀ"],["x","edĀ"],["fi","xedĀ"],["x","im"],["y","enĀ"],["y","ieldĀ"],["z","esĀ"],["zoro","astri"],["","Ā"],["","à¤Ā"],["","à¤à¥Ā"],["","à²°à²¿à²"],["à²°à²¿à²","à³Ā"],["","à¤¾Ā"],["à¤²","à¥à¤"],["à²³","à³"],["¦à¥","¬Ā"],["¨","à¥Ā"],["¨","à°¾à°²"],["¨","à²¿à²à²¦Ā"],["¨à°¾à°²","à°à±Ā"],["ª","à²¤"],["«","à¤¼Ā"],["¬","à¤°Ā"],["­","à¥§Ā"],["®","à¥Ā"],["®","à±à°·"],["®à±à°·","à°¨à±Ā"],["µ","à²¤à³à²°"],["µà²¤à³à²°","à²¿à²Ā"],["¹","à²¿à²¤"],["¹à²¿à²¤","à²¿Ā"],["Ã¡","fricaĀ"],["Ã¡","r"],["Ã¡","reasĀ"],["Ã­ndi","ceĀ"],["Ë",""],["Ë",""],["à¤","à¤ à¤¾Ā"],["à¤","à¤¥à¥Ā"],["à¤","à¤ªà¤°"],["à¤à¤","à¤²Ā"],["à¤à¤¤à¥à¤°","Ā"],["à¤à¤¦","à¤°Ā"],["à¤à¤¦","à¥à¤²à¤¨Ā"],["à¤à¤¦","à¥à¤°Ā"],["à¤à¤ªà¤°","à¤¾Ā"],["à¤à¤¬","à¥"],["à¤à¤¬","à¥à¤¡"],["à¤à¤¬à¥à¤¡","à¤à¤°Ā"],["à¤","à¤à¥à¤"],["à¤","à¤à¥à¤"],["à¤","à¤à¤¿"],["à¤","à¤£"],["à¤","à¤£à¥à¤¡"],["à¤","à¤¤à¤¿Ā"],["à¤","à¤²à¤¿"],["à¤","à¤¸à¥"],["à¤à¤à¥à¤¨","à¤¿"],["à¤à¤à¥à¤¨à¤¿","à¤§"],["à¤à¤à¤¿","à¤à¤ à¤¾Ā"],["à¤à¤£","à¥"],["à¤à¤£à¥à¤¡","à¤®à¤¾à¤¨Ā"],["à¤à¤¨à¥","à¤¸à¥"],["à¤à¤¨à¥à¤","¤Ā"],["à¤à¤ª","à¥"],["à¤à¤«","à¥à¤°à¤¿"],["à¤à¤­","à¥à¤¯"],["à¤à¤­à¤¿à¤¯","à¤¾à¤¨Ā"],["à¤à¤°à¥à¤£","à¤¾à¤à¤²Ā"],["à¤à¤°à¥à¤","¥Ā"],["à¤à¤°à¥à¤¥","à¤µà¥à¤¯à¤µà¤¸à¥à¤¥"],["à¤à¤²","à¥à¤ª"],["à¤à¤¶","à¥Ā"],["à¤à¤¶à¥","à¤"],["à¤à¤¶à¥","à¤Ā"],["à¤à¤¸","à¤¤à¥Ā"],["à¤à¤¸à¤®","Ā"],["à¤à¤¸à¤²à¥","à¤²à¥Ā"],["à¤","à¤à¤¦à¥à¤²à¤¨Ā"],["à¤","à¤à¤¬à¥à¤¡à¤à¤°Ā"],["à¤","à¤Ā"],["à¤","à¤à¤°à¥à¤®"],["à¤","à¤à¤¾à¤°"],["à¤","à¤¤à¥Ā"],["à¤","à¤ªà¥à¤°à¥à¤"],["à¤","à¤¯à¤¾à¤¤"],["à¤","à¤°à¤à¥à¤·"],["à¤","à¤°à¥à¤¦"],["à¤","à¤µ"],["à¤","à¤¸à¤¾à¤"],["à¤à¤à¤¤","à¤°à¤¿à¤Ā"],["à¤à¤à¤°à¥à¤®","à¤£Ā"],["à¤à¤à¥à¤°à¤®","à¤£"],["à¤à¤","à¥Ā"],["à¤à¤£","à¤²à¥Ā"],["à¤à¤ªà¥à¤°à¥à¤","¤"],["à¤à¤«","à¥à¤¨"],["à¤à¤«à¥à¤¨","à¥Ā"],["à¤à¤°à¤à¥à¤·","à¤£"],["à¤à¤¸","à¤ªà¤¾à¤¸Ā"],["à¤à¤¸à¤¾à¤","®Ā"],["à¤à¤¹à¤¾à¤°","à¤¾à¤¤Ā"],["à¤","à¤¤à¥à¤¯"],["à¤à¤à¤¡","à¥à¤¨"],["à¤à¤à¤¡à¥à¤¨","à¥à¤¶à¤¿à¤¯à¤¾Ā"],["à¤à¤¤à¤¿à¤¹à¤¾à¤¸à¤à¤¾à¤°","à¤¹à¤°à¥à¤²à¥Ā"],["à¤","à¤¶"],["à¤","à¤¡à¤¼"],["à¤","à¤²à¥à¤²"],["à¤","à¤·à¥à¤£à¤à¤à¤¿"],["à¤à¤ ","à¤¾à¤µ"],["à¤à¤¡à¤¼","à¥"],["à¤à¤¡à¤¼à¥","à¤¸à¤¾Ā"],["à¤à¤¤à¥à¤","¥à¤¾à¤¨Ā"],["à¤à¤¨","à¤à¤¾Ā"],["à¤à¤¨","à¤à¥Ā"],["à¤à¤ªà¤®à¤¹à¤¾à¤¦à¥à¤µà¥à¤ª","à¤®à¤¾Ā"],["à¤à¤­","à¤°à¤¾Ā"],["à¤","à¤ªà¤°Ā"],["à¤à¤","à¤"],["à¤à¤à¤","à¤¾à¤Ā"],["à¤à¤·à¤­","à¤¦à¥"],["à¤","à¤¯à¤°Ā"],["à¤","à¤¸"],["à¤à¤¶","à¤¨Ā"],["à¤","à¤¤à¤¿à¤¹"],["à¤à¤¤à¤¿à¤¹","à¤¾à¤¸"],["à¤à¤¤à¤¿à¤¹à¤¾à¤¸","à¤¿à¤Ā"],["à¤","à¤Ā"],["à¤à¤³à¤","à¤²à¥Ā"],["à¤","à¤ª"],["à¤","à¤¨Ā"],["à¤","à¤ªĀ"],["à¤","à¤²à¥"],["à¤","à¤¾à¤à¤à¥à¤¯à¤¾Ā"],["à¤","à¥"],["à¤","à¥à¤¤Ā"],["à¤","à¥à¤¯"],["à¤","à¥à¤°Ā"],["à¤à¤à¤ª","à¤¨"],["à¤à¤®","à¤¾à¤à¤¡"],["à¤à¤®à¤¾à¤à¤¡","à¤°Ā"],["à¤à¤®à¥à¤ª","à¤¨à¥Ā"],["à¤à¤°","à¤£à¥Ā"],["à¤à¤°","à¥"],["à¤à¤¾à¤","Ā"],["à¤à¤¾à¤","¯"],["à¤à¤¾à¤®","à¤à¤¾à¤Ā"],["à¤à¤¾à¤°","à¤­à¤¾à¤°"],["à¤à¤¾à¤²","à¤à¥Ā"],["à¤à¤¿","à¤Ā"],["à¤à¤¿à¤²à¥à¤²","à¥à¤¯"],["à¤à¥","à¤²à¥à¤¨Ā"],["à¤à¥à¤à¤¦à¥à¤°","à¥à¤¯Ā"],["à¤à¥","à¤¬à¤¾à¤°Ā"],["à¤à¥à¤°","à¤¯"],["à¤à¥à¤°","à¤¾à¤"],["à¤à¥à¤°","à¤¿"],["à¤à¥à¤°à¤®","à¤¶"],["à¤à¥à¤°à¤®à¤¶","à¤Ā"],["à¤à¥à¤°à¤¯","à¤¶à¤à¥à¤¤à¤¿Ā"],["à¤à¥à¤·","à¤®Ā"],["à¤à¥à¤·","à¥à¤¯"],["à¤à¥à¤·à¥","à¤ªĀ"],["à¤à¥à¤·à¥à¤¤à¥à¤°","à¤²à¤¾à¤Ā"],["à¤","à¥"],["à¤à¤¾à¤¡","à¥"],["à¤","à¤²Ā"],["à¤","à¤¾à¤¨"],["à¤","à¤¾à¤°"],["à¤","à¥Ā"],["à¤","à¥"],["à¤à¤à¥à¤","à¤¾Ā"],["à¤à¤£à¤¤","à¤¨à¥à¤¤à¥à¤°Ā"],["à¤à¤°à¥","à¤à¤¾Ā"],["à¤à¤°à¥","à¤à¥Ā"],["à¤à¤°à¥à¤","¨à¥Ā"],["à¤à¤°à¥à¤","¨Ā"],["à¤à¥","à¤²à¥Ā"],["à¤à¥à¤","à¤µà¥Ā"],["à¤à¥","à¤°Ā"],["à¤à¥à¤°","à¤¾à¤®Ā"],["à¤à¥à¤²","à¥à¤¶à¤¿à¤¯"],["à¤à¥à¤²à¥à¤¶à¤¿à¤¯","à¤°Ā"],["à¤","à¤¾à¤¤Ā"],["à¤à¥","à¤£à¥à¤¯à¤¾à¤¸Ā"],["à¤","à¤²à¤¾Ā"],["à¤","à¤¾à¤¹"],["à¤","à¤¿à¤¤Ā"],["à¤à¤²à¤¾à¤","¯à¤¾Ā"],["à¤à¤³à¤µ","à¤³"],["à¤à¤¾à¤²","à¤¿à¤¤Ā"],["à¤à¤¿à¤¤à¥à¤°","Ā"],["à¤à¥","à¤à¥Ā"],["à¤à¥","à¤²Ā"],["à¤","à¤¤à¥à¤¤"],["à¤à¤¤à¥à¤¤","à¥"],["à¤à¤¤à¥à¤¤à¥","à¤¸"],["à¤","à¤à¤¬à¥"],["à¤","à¤ªà¥à¤°à¥Ā"],["à¤","à¤µà¤¾à¤¹"],["à¤","à¤¸à¤®à¤¾Ā"],["à¤","à¤¾à¤¨à¥Ā"],["à¤","à¤¾à¤°à¥Ā"],["à¤","à¥"],["à¤","à¥à¤Ā"],["à¤","à¥à¤¯Ā"],["£","à¤¿"],["£à¤¿","à¤à¥à¤¯Ā"],["à¤","à¥à¤µ"],["à¤à¤à¤","à¤²à¥Ā"],["à¤à¤¨","à¤µà¤°à¥Ā"],["à¤à¤µà¤¾à¤¹","à¤°"],["à¤à¤µà¤¾à¤¹à¤°","à¤²à¤¾à¤²Ā"],["à¤à¤¸","à¤à¥Ā"],["à¤à¤¼","à¥à¤¯à¤¾à¤¦"],["à¤à¤¾à¤¨","à¥"],["à¤à¤¾à¤¨à¥","à¤µ"],["à¤à¤¾à¤¨à¥à¤µ","à¤¾à¤°à¥Ā"],["à¤à¤¿","à¤"],["à¤à¤¿","à¤¨à¥à¤¹"],["à¤à¤¿","à¤¨à¥à¤¹à¥à¤Ā"],["à¤à¤¿à¤¸","à¤à¥Ā"],["à¤à¤¿à¤¸","à¤¨à¥Ā"],["à¤à¥","à¤¤Ā"],["à¤à¥","à¤µĀ"],["à¤à¥","à¤µ"],["à¤à¥à¤µ","à¤µà¥à¤µà¤¿à¤§"],["à¤à¥à¤","à¤¾à¤¤Ā"],["à¤à¥à¤","à¤¾à¤¨Ā"],["à¤à¥à¤¯","à¤¾à¤à¤¾Ā"],["à¤à¤¾à¤²","à¥à¤¯"],["à¤","à¤¾à¤"],["à¤","à¥à¤°"],["à¤à¤¾à¤","¢"],["à¤à¤¿","à¤³"],["à¤à¥","à¤²à¥"],["à¤à¥à¤²à¥","à¤µà¤¿"],["à¤ ","à¤Ā"],["à¤ à¤¿à¤à¤¾à¤","£à¥Ā"],["à¤¢à¤¾à¤","à¤à¤¾Ā"],["à¤£","à¤¾à¤°à¥Ā"],["à¤£","à¤¿à¤Ā"],["à¤£à¥à¤¯","à¤¾à¤à¥Ā"],["à¤¤","à¤¬Ā"],["à¤¤","à¥à¤à¤¾Ā"],["à¤¤","à¥"],["à¤¤","à¥à¤Ā"],["à¤¤","à¥à¤µĀ"],["à¤¤à¤¨à¤¾à¤µ","Ā"],["à¤¤à¤®à¤¿à¤³à¤¨à¤¾à¤¡","à¥"],["à¤¤à¤¾à¤à¤®à¤¹","à¤¾à¤²Ā"],["à¤¤à¤¿","à¤¸à¤±à¥à¤¯à¤¾Ā"],["à¤¤à¥","à¤µ"],["à¤¤à¥","à¤¸Ā"],["à¤¤à¥à¤²","à¤¨"],["à¤¤à¥à¤²","à¤¨à¤¾Ā"],["à¤¤à¥à¤","ª"],["à¤¤à¥à¤¤","à¤¾Ā"],["à¤¤à¥à¤¨","à¥Ā"],["à¤¤à¥à¤¯","à¤¸"],["à¤¤à¥à¤¯","à¤¾à¤"],["à¤¤à¥à¤¯","à¤¾à¤®à¥à¤³à¥Ā"],["à¤¤à¥à¤µ","à¤ªà¥à¤°à¥à¤£Ā"],["à¤¥","à¤ªĀ"],["à¤¥","Ā"],["à¤¦","à¤¹"],["à¤¦","à¤¾à¤¦"],["à¤¦","à¥Ā"],["à¤¦à¤¹","à¤¶à¤¤"],["à¤¦à¤¿","à¤¨Ā"],["à¤¦à¥","à¤µĀ"],["à¤¦à¥à¤·à¥à¤","à¥à¤¯à¤¾Ā"],["à¤¦à¥à¤","à¥à¤²Ā"],["à¤¦à¥","à¤¨Ā"],["à¤¦à¥","à¤°à¤¾à¤¨Ā"],["à¤¦à¥à¤¦","à¤²Ā"],["à¤¦à¥à¤¦","à¥à¤¶"],["à¤¦à¥à¤°","à¤¾Ā"],["à¤¦à¥à¤µ","à¤¿"],["à¤§à¤°à¥à¤®","à¤¾à¤à¤¾Ā"],["à¤§à¤°à¥à¤®","à¥à¤Ā"],["à¤§à¤¾à¤¨","à¤¿à¤Ā"],["à¤¨","à¤Ā"],["à¤¨","à¤¨Ā"],["à¤¨","à¤¯à¤¾à¤Ā"],["à¤¨","à¤°à¥à¤®"],["à¤¨","à¥à¤¯à¤¾Ā"],["à¤¨à¤¦","à¤¿à¤¯à¥à¤Ā"],["à¤¨à¤°à¥à¤®","à¤¦à¤¾Ā"],["à¤¨à¤¾à¤","¥Ā"],["à¤¨à¤¾à¤","à¤°à¤¿"],["à¤¨à¤¾à¤","à¤¾Ā"],["à¤¨à¤¾à¤¡","à¥Ā"],["à¤¨à¤¿","à¤à¥à¤¬à¤¾à¤°Ā"],["à¤¨à¤¿","à¤·à¥à¤ Ā"],["à¤¨à¤¿à¤¯","à¤à¤¤à¥à¤°"],["à¤¨à¤¿à¤°","à¥à¤¯à¤¾à¤¤Ā"],["à¤¨à¤¿à¤°à¥à¤","­"],["à¤¨à¤¿à¤°à¥à¤®à¤¿","à¤¤à¥Ā"],["à¤¨à¤¿à¤°à¥à¤µ","à¤¾à¤"],["à¤¨à¤¿à¤µ","à¤¾à¤¸Ā"],["à¤¨à¤¿à¤µ","à¥à¤¶"],["à¤¨à¥","à¤Ā"],["à¤¨à¥","à¤°Ā"],["à¤¨à¥","à¤¹à¤°à¥Ā"],["à¤¨à¥à¤ª","à¤¾à¤²Ā"],["à¤¨à¥à¤","¸"],["à¤¨à¥à¤¤","à¥"],["à¤¨à¥à¤¤à¥à¤°","à¤¤à¤¾Ā"],["à¤¨à¥à¤¦","à¥à¤°Ā"],["à¤ª","à¤à¤¥à¥Ā"],["à¤ª","à¤à¥à¤·"],["à¤ª","à¤à¥à¤·à¥à¤¯"],["à¤ª","à¤¤à¥à¤¨à¥Ā"],["à¤ª","à¤¸à¤"],["à¤ª","à¤¾à¤Ā"],["à¤ª","à¤¾à¤¤"],["à¤ª","à¤¾à¤¤Ā"],["à¤ª","à¤¿"],["à¤ªà¤à¤à¤¾à¤¬","à¥Ā"],["à¤ªà¤","à¤¿"],["à¤ªà¤ ","à¤¾à¤°Ā"],["à¤ªà¤¦","à¤¾à¤°à¥à¤¥Ā"],["à¤ªà¤°","à¤à¤ªà¤°à¤¾Ā"],["à¤ªà¤°","à¤¿à¤Ā"],["à¤ªà¤°à¥à¤µ","à¤¤Ā"],["à¤ªà¤¹","à¤²à¥Ā"],["à¤ªà¤¹à¤¾à¤¡","à¤¼à¥Ā"],["à¤ªà¤¹à¤¿","à¤²à¥Ā"],["à¤ªà¤¾à¤","à¤"],["à¤ªà¤¾à¤","à¤Ā"],["à¤ªà¤¾à¤°à¤","à¤ªà¤°à¤¿à¤Ā"],["à¤ªà¤¾à¤°à¥à¤","à¤¿à¤¯à¥à¤Ā"],["à¤ªà¥","à¤¡à¤¼à¤¾Ā"],["à¤ªà¥","à¤¢"],["à¤ªà¥","à¤¤"],["à¤ªà¥","à¤°Ā"],["à¤ªà¥","à¤²à¤¿"],["à¤ªà¥à¤°à¤¸à¥à¤","à¤¾à¤°Ā"],["à¤ªà¥à¤°à¥à¤·","à¥à¤Ā"],["à¤ªà¥à¤°à¥à¤¤à¤","à¤¾à¤²à¥Ā"],["à¤ªà¥à¤²à¤¿","à¤¸Ā"],["à¤ªà¥","à¤°à¥Ā"],["à¤ªà¥","à¤°Ā"],["à¤ªà¥à¤°à¥à¤µ","à¤®à¤¾Ā"],["à¤ªà¥","à¤à¥à¤·à¤¾Ā"],["à¤ªà¥à¤°","à¤µ"],["à¤ªà¥à¤°","à¤¶à¤¾à¤¸"],["à¤ªà¥à¤°","à¤¸à¤¾à¤°Ā"],["à¤ªà¥à¤°","à¤¾à¤¯"],["à¤ªà¥à¤°à¤¤à¥à¤¯","à¤à¥à¤·Ā"],["à¤ªà¥à¤°à¤­à¤¾à¤µ","à¤¶à¤¾à¤²à¥Ā"],["à¤ªà¥à¤°à¤­à¤¾à¤µ","à¤¿à¤¤Ā"],["à¤ªà¥à¤°à¤­à¤¾à¤µ","Ā"],["à¤ªà¥à¤°à¤®à¤¾à¤£","à¤¾à¤¤Ā"],["à¤ªà¥à¤°à¤¾à¤","à¤¤à¤¾à¤¤Ā"],["à¤ªà¥à¤°à¤¾à¤à¥à¤¨","à¤¤à¤®Ā"],["à¤ªà¥à¤°à¤¾à¤°à¤®à¥à¤­","à¤®à¤¾Ā"],["à¤«","à¤¾à¤°"],["à¤«","à¤¿à¤²"],["à¤«à¤¾à¤¯","à¤¦à¤¾Ā"],["à¤«à¤¾à¤°","à¤¸à¥Ā"],["à¤¬","à¥à¤²"],["à¤¬à¤à¤","à¤¾à¤²"],["à¤¬à¤¢à¤¼","à¤¨à¥Ā"],["à¤¬à¤¨","à¤¨à¥Ā"],["à¤¬à¤¨","à¤µà¤¿à¤²à¥Ā"],["à¤¬à¤¨à¥à¤§","à¥à¤¯Ā"],["à¤¬à¤¹à¥","à¤®à¥"],["à¤¬à¤¹à¥à¤®à¥","à¤²à¥à¤¯Ā"],["à¤¬à¥","à¤ à¤Ā"],["à¤¬à¥à¤²à¤¿à¤µà¥","à¤¡Ā"],["à¤¬à¥","à¤§"],["à¤¬à¥à¤","¬"],["à¤¬à¥à¤°","à¤¹"],["à¤¬à¥à¤°à¤¹","à¥à¤®"],["à¤¬à¥à¤°à¤¹à¥à¤®","à¤ªà¥à¤¤à¥à¤°Ā"],["à¤­","à¤à¥à¤¤à¤¿Ā"],["à¤­","à¤¨à¤¿"],["à¤­","à¤°à¤¾Ā"],["à¤­","à¤°Ā"],["à¤­","à¥"],["à¤­à¤°","à¤¤"],["à¤­à¤¾à¤à¥à¤¦","à¤¾à¤°à¥Ā"],["à¤­à¤¾à¤°à¤¤","à¤²à¥Ā"],["à¤­à¤¾à¤°à¤¤à¥à¤¯","à¤¾à¤à¤¨à¥Ā"],["à¤­à¤¾à¤°à¤¤à¥à¤¯","à¥à¤Ā"],["à¤­à¤¾à¤·","à¥"],["à¤­à¤¾à¤·à¤¾à¤","à¤Ā"],["à¤­à¥","à¤à¤ªà¥à¤°à¥Ā"],["à¤®","à¤"],["à¤®","à¤°"],["à¤®","à¤¹à¤¿"],["à¤®","à¤¾à¤®"],["à¤®","à¥à¤²Ā"],["à¤®","à¥à¤¤à¥à¤¯"],["à¤®à¤§à¥à¤¯","à¤à¤¾à¤²à¥à¤¨Ā"],["à¤®à¤¨","à¤®à¥à¤¹"],["à¤®à¤¨à¤®à¥à¤¹","à¤¨Ā"],["à¤®à¤¨à¥à¤¦","à¤¿à¤°Ā"],["à¤®à¤°à¤¾à¤ ","à¤¾Ā"],["à¤®à¤¸à¤¾à¤²","à¥à¤¯"],["à¤®à¤¹","à¤¤à¥à¤µà¤ªà¥à¤°à¥à¤£Ā"],["à¤®à¤¹","à¤¾à¤"],["à¤®à¤¹","à¤¾à¤­"],["à¤®à¤¹","à¤¾à¤µ"],["à¤®à¤¹à¤¾à¤","à¤¾à¤µ"],["à¤®à¤¹à¤¾à¤à¤¾à¤µ","à¥à¤¯Ā"],["à¤®à¤¹à¤¾à¤­","à¤¾à¤°à¤¤Ā"],["à¤®à¤¹à¤¾à¤°à¤¾à¤·à¥à¤à¥à¤°","à¤¾à¤¤à¥à¤²Ā"],["à¤®à¤¾à¤","¥"],["à¤®à¤¾à¤","¶"],["à¤®à¤¾à¤¤","à¥à¤°Ā"],["à¤®à¤¾à¤§à¥à¤¯","à¤®"],["à¤®à¤¾à¤¨","à¤µ"],["à¤®à¤¾à¤¨","à¤µà¥Ā"],["à¤®à¤¾à¤¨","à¤¿"],["à¤®à¤¾à¤°à¥à¤",""],["à¤®à¤¾à¤²","à¤¦à¥à¤µĀ"],["à¤®à¤¿","à¤¸à¤¾à¤"],["à¤®à¤¿à¤³","à¤¾à¤²à¥Ā"],["à¤®à¤¿à¤¶à¥à¤°","à¤¿à¤¤Ā"],["à¤®à¥","à¤¦à¥à¤¦"],["à¤®à¥","à¤¦à¥à¤°à¤¾Ā"],["à¤®à¥","à¤¨à¤¾Ā"],["à¤®à¥à¤¦","à¤¾à¤¨"],["à¤®à¥","à¤°à¥à¤"],["à¤®à¥","à¤¹à¤¿"],["à¤®à¥à¤ ","à¥Ā"],["à¤®à¥","à¤¸à¤®"],["à¤®à¥à¤¸à¤®","Ā"],["à¤®à¥à¤¬","à¥Ā"],["à¤®à¥à¤¹à¤£","à¥à¤¨Ā"],["à¤¯","à¤®à¥à¤¨à¤¾Ā"],["à¤¯","à¤¶"],["à¤¯","à¤¾à¤à¤à¤¾Ā"],["à¤¯","à¤¾à¤à¤à¥à¤¯à¤¾Ā"],["à¤¯","à¤¾à¤à¤¨à¤¾Ā"],["à¤¯","à¤¾à¤à¤¨à¥Ā"],["à¤¯à¤¶","à¤¸à¥à¤µà¥Ā"],["à¤¯à¥","à¤"],["à¤¯à¥à¤¦à¥à¤§","à¤¾à¤¤Ā"],["à¤¯à¥à¤¥","à¥Ā"],["à¤¯à¥à¤","à¥à¤¯Ā"],["à¤°","à¤Ā"],["à¤°","à¤à¤¨à¤¾Ā"],["à¤°","à¥à¤¯Ā"],["à¤°","à¥à¤²Ā"],["à¤°","à¥Ā"],["à¤°à¤à¤","à¤®à¤à¤"],["à¤°à¤","à¤¾Ā"],["à¤°à¤¹à¥","à¤à¥Ā"],["à¤°à¤¾à¤","Ā"],["à¤°à¤¾à¤",""],["à¤°à¤¾à¤","£"],["à¤°à¤¾à¤","¤Ā"],["à¤°à¤¾à¤","§"],["à¤°à¤¾à¤","à¤"],["à¤°à¤¾à¤","à¤­à¤¾à¤·à¤¾Ā"],["à¤°à¤¾à¤à¥à¤¯","à¤¾à¤¤Ā"],["à¤°à¤¿","à¤à¤à¥Ā"],["à¤°à¥à¤ª","à¤Ā"],["à¤°à¥","à¤à¥Ā"],["à¤°à¥","à¤¬à¤°Ā"],["à¤°à¥à¤","«Ā"],["à¤²","à¥"],["à¤²","à¥"],["à¤²","à¥à¤"],["à¤²à¤","à¤¾à¤¤"],["à¤²à¤","à¤¾Ā"],["à¤²à¤","à¥à¤¨Ā"],["à¤²à¤à¤¾à¤¤","à¤¾à¤°Ā"],["à¤²à¤¡à¤¼","à¤¾à¤"],["à¤²à¤¡à¤¼à¤¾à¤","à¥Ā"],["à¤²à¤¾à¤","®à¥Ā"],["à¤²à¤¾à¤","à¤²à¥Ā"],["à¤²à¤¾à¤","à¥Ā"],["à¤²à¤¿","à¤ªà¤¿Ā"],["à¤²à¤¿","à¤¹"],["à¤²à¤¿à¤","à¤¿à¤¤Ā"],["à¤²à¥à¤","à¤¤"],["à¤²à¥à¤","à¤¤à¤¾à¤à¤¤à¥à¤°à¤¿à¤Ā"],["à¤²à¥à¤","à¤¸à¤­à¤¾Ā"],["à¤²à¥à¤¯","à¤¾à¤¨"],["à¤³","à¤¾Ā"],["à¤µ","à¤¤à¤¾à¤¤Ā"],["à¤µ","à¤°à¤¿"],["à¤µ","à¤²à¥Ā"],["à¤µ","à¤¾à¤°"],["à¤µà¤¾à¤","Ā"],["à¤µà¤¾à¤","£à¤¿à¤à¥à¤¯Ā"],["à¤µà¤¾à¤¸à¥à¤¤","à¤µà¤¿"],["à¤µà¤¾à¤¸à¥à¤¤à¤µà¤¿","à¤Ā"],["à¤µà¤¾à¤¹","Ā"],["à¤µà¤¿","à¤à¤¾Ā"],["à¤µà¤¿","à¤à¤¯"],["à¤µà¤¿","à¤°à¥"],["à¤µà¤¿à¤¦à¥à¤¯","à¤¾à¤ª"],["à¤µà¤¿à¤¦à¥à¤¯à¤¾à¤ª","à¥"],["à¤µà¤¿à¤¦à¥à¤¯à¤¾à¤ªà¥","à¤ "],["à¤µà¤¿à¤¦à¥à¤¯à¤¾à¤°à¥à¤¥","à¥Ā"]],"specials":["<pad>","<bos>","<eos>","<sep>","<tool_call>","<tool_obs>","<unk>"],"unit_mode":"byte"}